#version: 0.2 - Trained by `huggingface/tokenizers`
Ġ Ġ
ĠĠ ĠĠ
ĠĠ Ġ
o r
i n
> <
) <
e r
e l
o n
ĠĠĠĠ ĠĠĠ
r e
m p
Ġ i
in t
or t
Ġ =
a t
s t
e n
p r
mp ort
l o
Ġ t
: <
o m
Ġ w
s e
l e
pr int
Ġ a
" "
( "
l d
a l
Ġ s
" )<
d e
t i
č Ċ
f r
fr om
h el
Ġw or
hel lo
Ġwor ld
Ġi mport
Ġ c
h e
a r
m e
Ġ p
a n
el f
Ġ f
i t
Ġ re
in g
_ _
u r
s s
g e
) :<
i c
Ġ o
"" "
a c
u t
i mport
Ġ n
ti on
Ġ b
de f
en t
, <
Ġ in
ĠĠĠĠ ĠĠĠĠĠĠĠ
d i
i on
. <
l a
a me
e d
Ġt he
Ġ "
e x
e s
l i
> #
st r
o t
Ġs elf
Ġ T
e c
""" <
o l
y p
u n
f i
- -
t ur
Ġ m
# #
tur n
s elf
Ġ '
Ġ def
er s
u e
Ġ (
a d
m ent
c e
Ġ r
Ġ -
Ġre turn
h t
u p
~ ~
i p
Ġf or
l s
la ss
t r
Ġt o
Ġi s
o d
r or
Ġi f
t h
p tion
. _
u s
Ġ N
Ġ #
Ġa n
t er
ge t
u ti
Ġ C
ĠĠĠĠ ĠĠĠĠ
Ġ S
a p
i s
on e
en d
at h
a se
s p
o de
Ġ d
Ġ P
it h
i le
Ġ A
a m
i d
Ġ v
c lass
a s
] <
E r
Ġ int
Er ror
a ge
ac k
a b
Ġ L
o p
f or
Ġ di
i g
n ame
Ġ 1
Ġ str
uti ls
ec t
k i
( )<
an d
Ġ .
at e
Ġo f
( )
Ġ __
k ki
u kki
Ġ +
Y ukki
Ġ I
Ġan d
u l
u b
c h
c on
Ġ se
u i
Ġ- >
p ut
( '
Ġt h
Ġ """<
ex t
yp e
Ġ print
Ġc on
al l
lo g
ers ion
' )<
ĠN one
Ġa s
Ġ <
at ion
0 0
c om
o ol
i st
Ġ 2
## ##
R e
Ġp ip
Ġ [
Ġ 0
pr o
-- --
r o
i l
e t
t p
v e
Ġ g
at a
Ġ """
Ġ D
__ (
Ġn ot
' ,
Ġ x
u m
i f
ht tp
p ath
Ġ F
" ,
ab le
Ġ _
li st
Ġ O
y s
m at
~~ ~~
Ġf ile
i b
/ /
c t
i z
j ect
Ġ h
k e
Ġ ex
Ġ get
Ġo s
ap p
` `
p ar
o mp
: //
a g
Ġ= =
Ġ U
Ġ >
ul t
li b
s o
Ġ y
t e
Ġ l
Ġ or
ig ht
u re
Ġ from
fi le
q ue
http s
Ġ de
a in
a i
Ġ *
ith ub
s er
E N
e am
log g
Ġ M
Ġ B
Ġ {
un d
Ġ el
se t
ption al
S E
m and
) )<
e g
in it
Ġp ar
v er
eam Yukki
" <
Ġb y
us ic
c tion
Ġw ith
an ge
p re
ur l
v al
Ġn ame
ĠĠĠĠ ĠĠĠĠĠĠĠĠĠĠĠ
ac he
ment s
ic t
fi g
Ġb e
Ġs ys
Ġ :
Ġ st
" ,<
Ġt yp
que st
int er
y th
re e
g s
or e
ĠO ptional
di r
ption s
st utils
E R
m a
o w
end or
Ġ https
r ue
on se
c k
se d
yth on
M usic
c ode
Ġ pro
g ithub
iz e
' <
q ui
o s
Yukki Music
t s
( <
op y
s c
l it
ac e
v ersion
Ġ e
v endor
ui ld
v i
ic en
a ss
0 2
in d
la b
Ġtyp ing
Ġ R
qui re
Ġv al
I N
n al
h is
p t
it e
p ack
Ġt r
I n
st all
Ġdi stutils
i m
f o
re ct
T eamYukki
in put
in e
#### ####
o k
inter nal
ce pt
Ġr ange
Ġ on
r ight
Ġ E
Ġw h
b ject
y le
> """<
i me
od u
so le
o ut
Ġ logg
---- ----
C on
Ġ Re
Ġ V
t ext
or y
ĠĠĠĠĠĠĠĠ ĠĠĠĠĠĠĠĠ
O N
l y
Ġin put
icen se
Ġth is
el e
al se
an g
ti me
># <
up le
ool s
Ġ en
. """<
Ġse t
us er
mp le
Ġth at
ĠI n
od el
ĠU n
Ġ u
opy right
a ult
I C
ĠT his
l l
Ġ %
() )<
Ġp ass
Ġ me
for m
d ata
Ġ un
Ġt ype
p l
c omp
e w
. __
Ġ 3
odu le
Ġp y
o u
p y
Ġel se
Ġ H
Ġ list
ss age
Ġse e
er ror
ke y
Ġp ath
p ec
Ġ ``
R E
o ur
Ġ j
Ġs h
lo ad
Ġlogg ing
R es
C K
" :
lo w
i ve
Ġc h
ĠT rue
ele ase
at or
p ort
sp lit
ar n
lo b
t ers
Ġo p
s h
~~~~ ~~~~
om mand
for mat
a y
th er
o c
O R
Ġa r
EN SE
IC ENSE
Ġc an
ing s
a re
ar gs
st an
ar y
i fi
T ype
Ġa re
B ot
H E
P E
in k
d er
) ,
Ġb ool
Ġa b
Ġ+ =
t ools
Ġ pr
el d
u tion
ĠC on
) .
g r
ĠL ist
YukkiMusic Bot
Ġ W
re ad
ut e
uti l
i x
ĠT he
com mand
v ed
Ġp re
m o
Ġval ue
ĠA n
und er
he ad
m s
y n
at tr
Ġtr y
Ġ[ ]<
in fo
ce ss
p p
Ġ )<
app end
c he
q u
IN G
th od
' ,<
tr y
A N
val id
tr ol
p onse
Ġw e
er t
g ments
Ġc omp
ĠF alse
en e
ang o
ss ion
ai se
t o
ic h
ĠL icense
Ġt ime
Ġcon t
= "
ce ption
Ġc ol
sp onse
lab le
o g
Ġi t
ĠC opyright
str ib
l en
Ġf il
Ġ under
ut ure
i o
u d
f f
Ġ `
i eld
rect ory
} <
en er
() .
Ġt e
od ing
s on
lo at
ĠP ython
at ed
ut h
Ġh as
strib ution
E x
S I
b o
L E
Ġ @
] ,
Ġex cept
N one
C HE
) ,<
ar d
m in
he el
( ):<
c ore
p o
at form
j ango
Ġf un
Res ponse
c r
s ol
at ive
m l
st e
Ġs up
Y PE
it er
A R
ĠI ter
quire ment
t yp
Ġn o
D S
ac t
ack age
en s
ifi er
Ġ url
par se
2 02
] )<
yn c
Ġo ther
Ġ lo
ch at
= '
b uild
s ult
Ġ G
Ġm odule
Ġv ersion
con fig
g er
u st
a x
Ġa d
Ġr aise
l er
o in
o ptions
er e
lab el
r on
* *
c ache
A T
f uture
ĠT uple
Ġstr ing
D E
[ "
P I
d at
. .
u es
S T
u g
Ġn um
ad d
Ġc lass
or d
re n
0 1
E n
t ype
M E
Ġpro ject
Ġ YukkiMusic
fi x
Ġr un
a k
Ġcon fig
Ġa l
sp ec
ction s
u al
up tools
Ġd ata
> __
ut f
d ate
he ck
ĠAn y
o und
w r
m odel
i r
Ġo bject
i v
Ġre sponse
Ġt ext
li ent
a ve
ar t
Ġ /
om e
stan ce
C O
o bject
w a
ĠS e
Ġ( <
i es
ic e
w h
li a
at ch
ou ld
error s
al lia
b er
c an
Ġb ase
V ersion
b ase
CHE CK
CHECK ING
ser ved
* -
Ġ- *-
Ġ log
re quest
ad ata
] :<
la y
Ġ2 02
or mat
al ize
al lable
Ġre quest
ĠT YPE
Ġa pp
gr am
so ur
Ġg allia
T T
sp ace
eg ative
Ġ us
pro cess
ect ed
vi ron
in stall
pack age
j oin
U R
U T
Ġp ackage
Ġo ut
Ġr o
ist utils
e p
Ġ key
Ġc ode
pec ifier
le ase
de d
> )<
st er
mple ment
en ce
Ġfile s
v el
c ene
Ġi ter
Ġdef ault
ĠS t
it y
og ger
= =
Ġ 4
S L
u x
il l
Ġ le
Ġs o
Ġd ate
) :
ai ls
ĠUn ion
Ġu se
c l
-------- --------
ic ode
a uth
end er
Ġl en
Ġa ll
all y
Ġ |
S t
m on
Ġ 5
o st
# <
n er
ti c
Ġn p
Ġ. .
or m
ar get
Ġr elease
ap e
ĠL ICENSE
######## ########
p ected
sc r
I T
T rue
wa it
N ame
Ġfor mat
N U
Ġc o
str ing
! =
1 2
b ack
c s
en c
Ġp l
Ġr ight
is ion
ĠP lease
Ġ user
en v
C ode
di st
ĠD istutils
Ġde t
g ree
om a
Ġd o
gree ment
re ate
Ġpar t
" .<
ä ¸
} ')<
ĠA ll
typ es
ag er
ma ster
k w
Ġf loat
202 2
[ '
Ġ !=
Ġs ub
ter n
" )
ic ation
ar g
en ame
eg g
Ġu sed
â ĸ
h er
te m
A L
de x
arn ing
TT P
Ġc heck
i ti
t adata
Ġs a
] )
Ġop en
c ur
Ġdi rectory
E X
in stance
logg er
elease s
te mp
egative Response
re g
ĠP y
ĠD ict
Ġrelease d
s i
y ste
el se
ar k
ĠI mport
Ġ ><
te st
ĠM e
Ġab sol
Ġabsol ute
' :<
Ġre served
ĠĠĠĠ ĠĠ
id th
con sole
G ithub
b lob
an t
ĠA greement
Ġ202 1
Ġdate time
G NU
L ICENSE
ĠT eamYukki
Ġ> .<
Ġright s
K e
Ġ z
la s
Ġ* *
ex cept
Ġw r
Ġset uptools
Ex ception
> _
ent r
D O
P ar
al iz
ol or
Ġdet ails
yste m
SI ON
s ize
st yle
tr ib
con t
' s
ok en
' {
ag ing
d ict
file s
" ]<
L ogger
ĠIter able
ormat ter
' t
Ġcol le
ut o
EN T
ht ml
Ġpar se
S D
d b
Ġ up
ĠCon sole
âĸ Ī
t ed
Ġa ss
al ue
def ault
le d
scr ip
re q
Ġc ommand
par am
ĠImport Error
C h
head ers
s ent
app ing
Ġel if
er eleases
Ġa wait
ec tion
l ink
ĠB SD
Ġwh en
â ģ
ar i
âģ ĥ
k g
Ġis instance
ro gram
Ġte mp
s up
re am
__ )<
t es
kw args
a st
Ġn ew
Ke y
m d
Ġb uild
Ġcont ain
o ok
par ser
' ]<
O T
n ot
Ġc ache
pl ace
U n
l ine
pr op
me thod
m age
o o
Ġin stall
li ke
an ager
Ġre n
N ot
Ġst yle
T r
âģĥ âģĥ
Ġs p
Ġme ssage
Ġ J
our ce
d jango
Ġw ill
ig h
Ġcolle ctions
Ġro ot
er ator
Ġsh ould
F ile
b y
L T
i stribution
Ġ[ <
Ġar g
Ġ[ '
' )
S SL
Ġ" __
u mp
me ssage
Ġre sult
Ġas ync
c ation
re pr
Ġto k
Ġpy rogram
ĠSe e
w ord
ì Ŀ
se s
Ġb ack
ert y
Ġren der
list a
val ue
S et
ex pected
6 4
a w
ce ptions
F alse
Ġ at
an s
3 2
\ \
li g
00 0
Ġ* <
e ed
Ġy ield
s ub
v ice
Ġ< =
p ython
re ss
pack aging
wh ile
on ic
ĠC allable
Ġdi v
ro up
( __
u ct
al led
c lient
ar ac
str act
ro ot
ĠB ase
b ool
Ġc v
ĠRe turn
Code s
Ġ es
U DS
Ġint er
ren t
al s
port ed
Ġ k
: `
v ent
ĠT ype
ĠN ame
x t
ï ¼
Ġre quire
ig n
Ġun icode
c es
prop erty
f un
Error Codes
cr yp
' ]
Ġad d
M e
con trol
py gments
u ment
E P
f er
Ġ \
un t
ç ļ
Ġi tem
Ġo ptions
Ġfil ename
" .
f t
p yp
re d
Ġon ly
: .
A S
å ı
Ġ{ }<
ow n
" :<
( [
T he
c o
id a
Ġy ou
w ith
er y
comp ile
Ġurl lib
çļ Ħ
m ain
Ġ ì
' :
in al
ind ow
N egativeResponse
S cene
e f
p os
Ġc oding
ens ion
Ġ attr
Ġ utf
en ti
ĠV ersion
mo ve
alue Error
Ġ X
il er
l icense
ck et
Ġwh ich
d oc
r un
Ġs c
Ġs pec
as ure
low er
model s
n ection
F A
Ġnum ber
expected NegativeResponse
a mple
Ġ error
re ak
ĠT ext
b in
n um
Ġte st
Ġg lob
Ġj son
iv en
b j
tr ain
po int
1 0
T ree
Ġ ""
package s
F I
m odule
ot her
Ġb reak
tr ing
ĠĠĠĠĠĠĠĠ ĠĠĠĠĠĠĠĠĠĠĠ
Re quest
Re quirement
Ġlist a
c oding
f ind
fi l
Ġm ax
and ler
Ġy our
pre fix
viron ment
T ext
vi de
L O
j son
U LT
i ss
Ġ end
ac tion
get Logger
Ġ> =
B ase
se ssion
ac h
ĠE x
h as
ort ed
Ġs ome
ĠUn expectedNegativeResponse
ĠSt yle
I D
V ER
t xt
al k
fr ame
ge x
cl u
er o
ation s
im um
ĠIn valid
L ist
M L
c opyright
op t
T R
Ġdi r
lig ht
x y
Ġa ux
Ġf ind
di tion
Ġ( '
CO M
sour ce
> @
on g
st at
ul l
auth or
ï¼ Į
" ]
[ :
a u
s ing
on t
an sp
di date
ĠA p
Ġg ener
Ġor ig
ma il
O F
ab ase
2 5
ac y
D ict
Ġw arn
Ġm odel
Ġcon text
pro ject
ag s
pre sent
Ġsup er
Ġass ert
> ):<
le an
__ ",<
UDS ErrorCodes
ma x
ansp ort
Ġ ._
ut able
00 00
ke ys
E D
an n
ud s
Ġout put
Ġpl atform
FA ULT
w are
å Ī
re sult
Ġs ource
ar ch
ĠS et
ĠH TTP
Ġs er
ĠN ot
ab c
Ġhas h
Ġa c
ender able
F ormatter
T ime
Ġt ree
hel p
ex ceptions
ang u
ĠĠĠĠ Ġ
di a
as ync
Ġar gs
Ġ-*- <
L I
Ġi d
Ġm a
ĠC ommand
Ġd at
Ġcol or
2 2
s ys
Ġt er
mat ch
ĠU DS
comp at
Ġus ing
âĸĪ âĸĪ
igh light
Ġre ad
Ġn ump
Ġ2 00
Ġch at
Ġpr ereleases
C ommand
c re
re quire
is c
Ġ> >
Ġdiv ision
r i
le te
Ġ2 01
Ġ[ "
~~~~~~~~ ~~~~~~~~
Ġm in
Ġan y
' '<
t arget
{ }
Ġm atch
c i
in es
en code
id d
con text
pl atform
L S
dir s
angu age
A ction
W arning
t ing
Ġg iven
url lib
sour ces
p en
ĠReturn s
A B
C T
Ġ )
el if
Ġs ize
de p
tr a
D istribution
w heel
Ġs oma
Ġm at
ĠA r
ul ti
ct ools
OR S
T uple
Ġ 6
qu ence
Ġtok en
S e
g th
ĠP EP
ĠI f
ite m
( (
A CK
lo c
Ġp kg
ĠIter ator
g ine
w e
ĠAp ache
Ġc ls
di stutils
Ġm ode
Ġ1 00
Res ult
) .<
g ame
r ary
Ġ one
or k
Ġc om
Ġh ave
Ġnump y
V ar
e st
Ġ label
re sources
Ġs orted
Ġd ict
Ġfun ctools
1 7
Ġc reate
Ġcon ver
im age
C ache
f e
g i
i ld
st ate
Ġwarn ings
T his
t le
or g
me tadata
Ġre present
Ġ( )
op en
ĠIn stall
Ġ>> >
( {
m b
n et
Ġ q
Ġc ur
Ġn ode
wr ite
clu de
f loat
r ich
t ings
Ġr el
Ġ{ "
sc ene
Con fig
low ed
head er
B U
N A
Ġi mplement
Ġd jango
ĠE n
o int
o ld
in dex
ar se
ff er
arac ters
I d
Ġ entr
Ġf ound
ib le
sh ape
che me
ä »
Ġ 7
Ġ å
at es
ot al
5 0
l t
Ġ Q
Ġi o
Ġ' .
ite ms
Ġrequest s
Ġz ip
æ ĸ
Ġ la
Ġn eed
Ġfun ction
ci i
m ap
at tern
he me
ĠĠĠĠĠĠĠĠĠĠĠĠĠĠĠĠ ĠĠĠĠĠĠĠĠĠĠĠĠĠĠĠĠ
Ġasync io
A D
t a
Ġlogg er
cryp ted
I mplement
== ==
b ug
h a
n t
Ġ K
ge st
as k
Ġ1 0
con d
Re turn
logg ing
AN D
D I
i tion
val ues
C omp
Ġ fr
Ġm ain
onic alize
s a
if ic
ĠU R
dat es
las ses
H T
P ro
c ls
m isc
Ġ ("
lo t
ext ension
um n
ĠF ile
Ġsc en
asure ment
f init
Ġ like
Ġel e
** **
A n
s um
Ġl ink
Ġsup port
dat abase
can ner
Ġco ver
) )
p er
Ġcon sole
sc an
lit er
Ġpre fix
len ame
Ġiter tools
Ġscen es
' .
G et
l ication
s oma
w ork
Ġp os
it ory
ut es
Ġdef in
Ġd el
Con trol
stan ts
Ġfil ters
ark up
pos itory
> ]<
L o
c olor
n o
w in
Ġ ")<
di rectory
. *
u f
ib ute
Ġso cket
sup ported
s l
w idth
app lication
ai sed
ĠMe ssage
aliz ed
indow s
finit y
i se
t ree
Ġ æ
Ġ ë
st art
Ġa uto
Ġb ut
di dates
`` .<
scrip tion
ari able
liter als
I O
r c
å ħ
ag ma
Ġop erator
bo ard
M odel
v o
â Ģ
en viron
Ġen coding
UT H
w ard
Ġ http
ĠT h
Ġstr ings
cont ent
re s
fi lename
Ġ{ <
Ġme tadata
ĠPy gments
c md
ti tle
ar io
ic k
bo x
request s
U SE
c or
at ure
Ġw idth
Ġd oc
icen sed
Ġme thod
Ġpr agma
ef ault
Ġdo es
Ġsa ida
idd le
' ''<
t y
Ġw heel
le s
ĠS pecifier
if y
" {
) ):<
/ <
ic ate
Ġsub process
Ġw as
Ġre quirement
ĠS o
Ġde p
Ġarg parse
ìĿ ´
O ptions
el l
Ġre pository
Ġpar ser
Ġwh ile
are nt
( *
` <
o bj
v ai
Ġo ver
Ġv i
and om
Ġst at
' ).
] ,<
p ip
Ġ he
di stribution
Ġcan onicalize
Ġrender able
COM M
a o
c ent
p lay
le vel
ist er
Ġcomp lete
F or
M O
a il
Ġ" <
Ġm ust
Ġex ist
enderable Type
Ġcur rent
m y
Ġi m
at ur
ss l
ile d
che ck
iter al
E L
m anager
y ter
Ġ help
up yter
Ġst art
Ġcont ent
ud scan
cr ip
ĠNot Implement
ĠNotImplement ed
g lob
s v
el ist
ex tern
con trib
enti fi
l ate
n ew
ur ation
Ġm ore
ro om
Ġpy gments
Ġwr ite
stract method
has h
E T
se g
ro und
Ġtyp es
doc s
iss ing
B O
] [
æ ķ
in s
de code
Ġre g
Ġl ine
typ ing
DE FAULT
ann el
iddle ware
I ON
d el
n ect
Ġ headers
ĠR es
ir st
co unt
1 1
N O
Ġ Y
er ti
he s
he ther
Ġf ield
Ġo ption
ER S
A SE
F r
u ments
Ġo ptional
Ġback end
fil ter
z en
st alled
ac lass
form ation
orm alized
au se
0 3
] ]
n ing
Ġt eam
__ ,<
ls o
im g
ĠRe quest
UR L
Ġpackage s
âģĥâģĥ âģĥâģĥ
P R
m ode
re ated
lo ck
Ġs crip
ol umn
ĠS tring
Ġname space
Ġval ues
Con sole
der ed
vide s
VER SION
vai lable
H TTP
P Y
s ure
s ystem
or ig
Ġs u
Ġh ere
pre ter
code s
CO L
---------------- ----------------
Ġ è
Ġ load
Ġc all
ol low
as cii
In valid
202 1
F ield
[ -
Ġ ~~~~~~~~~~~~~~~~
or rect
Ġimport lib
od y
format ters
Ġ200 6
Ġdep end
D ata
Ġ errors
Ġw hether
ti m
con stants
Ġen crypted
alk er
ĠUR L
S pecifier
re place
Ġm ay
ĠA UTH
Ġpy game
entifi er
ĠAUTH ORS
" ),<
I I
ed it
ad er
ĠD E
ER R
len gth
> )
p i
å Ń
le t
ame ters
ĠĠĠĠĠĠĠĠ ĠĠ
sp lay
() .__
Ġby tes
qu ery
BU G
P ath
T o
Ġ ]<
re sponse
Ġw in
ĠP ath
.. .
fun c
ĠAr gs
3 0
t d
t trib
Ġf irst
Ġpro b
format ter
PI O
Par ser
a iled
Ġ 8
Ġ1 2
Ġcon trol
Ġwith in
ele ment
Ġsh util
ren der
uct ure
control ler
" ).
( ?
6 0
E Y
K EY
M ENT
V alueError
b ar
c li
j i
z ip
Ġs cheme
Ġd ual
Ġl icensed
mo ji
Ġtime out
ĠSe quence
fun ction
Ġcontext lib
Ġter ms
ERR OR
' ))<
P D
er atur
Ġs k
Ġs sl
Ġf ollow
ap i
ch ar
ĠF or
æķ °
eratur a
B uild
C H
E le
c v
Ġt arget
Ġo ur
Ġdi rect
eg er
Ġset up
Ġwe b
AR K
Ġlo c
by tes
: :<
E S
S canner
c ape
l atform
r t
r dered
} "<
~ <
at ing
le x
Ġa li
Ġm ath
Ġattr ibute
Ġmodel s
ARK ER
A c
F F
P ython
T ER
b l
} )<
Ġ --
re turn
Ġwor d
ar r
ur i
Ġb ot
Ġr andom
et e
ĠV alueError
sh ow
Ġlo ok
T E
T H
c ut
o se
q a
r and
s ite
name s
__( <
Ġl anguage
Ġe mail
Ġno qa
( _
> '''<
d a
Ġt uple
Ġc ase
ĠS U
ap h
In fo
Ġal lowed
g b
g roup
n e
å Ĳ
ç Ķ
Ġ ê
en u
ti ve
Ġin formation
Ġ" .
ĠS O
eg acy
M A
r ix
} ")<
ort cut
Ġs pecifier
Ġin d
ĠT O
Ġint o
Ġst ream
In stall
Ġcomp at
ust om
P P
U N
g n
s ave
t oken
Ġ Z
Ġp ython
et ree
ser vice
Ġe vent
Ġen sure
D ec
W heel
s ix
t on
Ġin valid
Ġreturn s
Ġdi stribution
ro w
il ity
Ġh and
app er
vi ew
ĠH T
s g
í ķ
ĠS cene
ĠS PD
ĠD efault
pre cation
stat us
Ġconver t
ĠSPD X
A d
I mage
d Tuple
ç »
us u
Ġth read
Ġget attr
ser t
Ġ\ <
point s
o ff
eg ment
Con nection
mple ments
Ġfun ctions
wr ap
Tr ansport
A PI
Ġi mage
Ġc md
un k
ul ar
Ġname s
sc heme
Par se
7 8
re gex
an y
Ġre q
od b
ase t
ab stractmethod
Ġdi st
Ġdi ffer
Ġse ssion
ĠF ormatter
ĠO rdered
ator s
ĠG ener
ĠInstall Requirement
NA ME
Ġimplement ation
Ġele ment
ĠHT ML
> `
F ailed
Ġc ast
ad min
ib rary
En um
St yle
EX T
cont ain
Me thod
Time out
Ġma ke
. ")<
b ot
f y
Ġi mp
Ġpar ts
Ġpath lib
({ "
usu ario
c opy
Ġp er
di v
ig r
ace back
cur rent
USE R
1 00
M anager
f ter
m it
p in
å Ľ
or ies
re en
od er
ĠD e
set up
D e
I G
T oken
W S
r b
st ream
Ġa lso
Ġp ool
ĠN ew
ĠC h
ui lt
sed Version
out put
ĠMe asurement
ĠType Var
I L
] .
a ux
e mp
m ary
r aw
t able
å ¤
Ġc lasses
Ġth ere
Ġh ook
po st
Ġ"" <
dition s
5 17
M ix
S C
c ase
h ost
pr ereleases
Ġt ag
Ġre fer
la gs
fi eld
par t
set uptools
In finity
ud o
AT H
a mp
o ption
o us
æ Ķ
re move
ar ts
Ġre move
Ġm sg
for e
Ġname d
Ġval or
ĠName space
I ME
Ġd on
Ġse g
mo ved
we b
C lass
p kg
r ange
en gine
ĠL iteral
set tings
ĠCon fig
H andler
M ax
f ace
j p
Ġin dex
Ġget env
pre ss
Ġpath s
ĠEx ception
3 4
N ode
u ff
Ġ header
Ġ" _
ec u
Ġ' /
up date
Ġval id
In ter
ĠConsole Options
Ġrequire d
Comp iler
Mix in
1 6
1 8
M apping
t ags
Ġi gn
om l
ld er
Ġwor k
an ch
ap ter
ĠM apping
Con t
Ġun pack
ong odb
25 6
ä» ¶
" ):<
' ):<
' ),<
N I
S h
S pec
i aliz
t uple
de t
ut ton
ĠP arse
Ġdi s
ib ility
Ġdir s
âĢ ¢
2 0
M et
M ARKER
S tring
U s
} )
å ®
le M
Ġa vailable
Ġs ix
ex ec
() ,
te ms
Ġfil ter
Ġcode cs
ender Result
Ġformat ter
own load
" ))<
C orrect
I S
h ic
de cor
me m
ĠC ache
ĠL ink
Ġex ec
Ġch aracters
ual env
Ġus ers
las k
COMM AND
4 0
p attern
p arent
w o
Ġw ant
ar sing
Ġre sol
Ġm ongodb
ĠA PI
as ic
EN SION
Ġwh ere
ens iti
Ġorig inal
ature s
ĠNotImplemented Error
a ke
e q
i mp
n ode
å Į
ë ł
Ġc r
ac es
Ġ' '<
ĠP R
vel op
sub process
require ments
pen SSL
3 6
F ound
T oo
ä º
st d
Ġp ack
Ġf n
Ġre sp
Ġ" \
ers on
ĠN egativeResponse
ĠA d
il ter
Ġde scription
Ġpro xy
Ġ202 2
OT O
not es
oo lean
ulti p
2 6
> âĢ¢
g o
Ġ lib
Ġf ont
la st
ĠT oken
us h
Ġ. ..
Ġg roup
ĠD istribution
cs v
Ġrequire ments
L A
] +
a uto
æ ľ
Ġ //
le ep
Ġa ct
it es
Ġin stance
Ġm o
Ġv er
`` <
ĠE OF
Ġen um
comp iler
CK S
Ġpr odu
IT E
mb da
Ġim g
erti f
) ')<
1 5
= {
R A
R aised
c y
f ul
n p
o ss
Ġp d
Ġin iti
ĠI t
Ġ2 0
pro g
ĠF ound
Ġh ighlight
vi ous
ĠV ER
qu al
bo se
Ġlo cation
################ ################
Not Correct
arac ter
Ġzip file
Ġdepend enc
ditions NotCorrect
D i
T LS
d an
å ¼
ĺ ì
ŀ ħ
el y
lo op
Ġs el
de bug
Ġp ick
ad or
Ġst and
ĠR o
Ġch ange
ifi ed
Se ssion
Ġdiffer ent
decor ators
ëł ¥
B ASE
P RE
S U
c ure
m an
or s
er r
Ġs ame
Ġf in
Ġb uilt
str ip
ĠT ime
tr ansport
Ġex pected
ai or
IN E
ifi ers
ä¸ º
ark er
ari ant
django project
AB C
æĸ ĩ
OTO COL
) .__
H AS
S er
c reate
v es
Ġ que
Ġa ction
(" \
ar tic
me dia
Ġp oint
Ġthe ir
tr act
ĠC ON
Ġv ariable
vi ded
ĠR enderResult
OR T
Ġcontain s
Ġcom mon
F O
O ption
i al
r ot
v ar
} ]
} ".
Ġ 9
Ġc al
Ġc types
Ġo bj
def in
di rect
Ġ- =
up load
ĠP re
ab el
ĠL egacy
pre c
Ġsys config
Ġst ate
ĠRe g
ĠRe quirement
Ġhas attr
min al
Ġlo op
En vironment
dition al
arr ay
C C
G ener
T ag
W N
p ass
â Ķ
st amp
en i
se cond
he d
it s
Ġin stalled
di o
tp arse
Ġen code
ug in
Ġtemp file
Key board
ĠDefault s
ĠOrdered Dict
æĸĩ ä»¶
Q U
Q t
b stract
c lo
n own
Ġ }<
er Spec
Ġt k
ti es
an uf
Ġf ull
ing le
__ <
ac tur
ex er
ĠI D
Ġex ception
Ġpro gram
Con ditionsNotCorrect
require s
loc al
ific ConditionsNotCorrect
sum mary
Ġscrip t
Ġsu ch
leM anuf
hic leManuf
erSpec ificConditionsNotCorrect
actur erSpecificConditionsNotCorrect
hicleManuf acturerSpecificConditionsNotCorrect
: %
M in
P y
` .<
p h
Ġt ags
Ġt otal
an didate
Ġn e
Ġn orm
tr ies
Ġv endor
Ġset tings
oc ol
add Action
Ġhash lib
Ġentr y
==== ====
extension s
ĠEOF Error
L ibrary
W alker
g or
l ines
t en
t ag
w d
x ml
Ġ egg
al ues
Ġs rc
Ġthe m
ĠP ro
as h
`` ,
gr aph
iv ate
Not Found
Ġdefin ed
Ġfollow ing
r op
¨ ¡
è ½
Ġ html
re sol
Ġi tems
Ġs ave
Ġb et
Ġb oolean
Ġin clude
ĠC olor
Re try
Ġg ame
Ġpro vided
ĠW e
che my
LO W
ighlight er
Fr ame
ormalized Name
USER S
ertif icate
: :
C U
N o
P ool
T F
T YPE
h or
m usic
o ice
p age
w ise
Ġ keys
re c
un ter
ter m
if ication
ĠB y
Ġop tparse
Ġar ch
PE C
Ġco unt
reg ister
line Keyboard
TR I
upyter Mixin
ializ er
5 6
O P
O r
b g
c all
c cur
c olumn
l ic
n g
n ow
r p
ä ¹
æ į
ì ł
Ġi ts
Ġa uth
ti tem
Ġb l
ex it
ĠT r
Ġstr uct
Ġx ml
ver y
ĠR enderableType
pl ication
AN N
ste ad
DE BUG
Ġnum ero
scrip ts
Ch aracters
ri ver
* .
F un
G B
I M
V i
h ow
or ity
le arn
Ġre moved
Ġb in
ent er
ĠS egment
as y
ĠD i
ĠF ore
Ġrun time
enc oding
sa ida
Ġwin reg
Ġsk learn
hicleManufacturerSpecificConditionsNotCorrect F
T est
V E
W r
å Ĭ
Ġ Key
ĺ ìĿ´
mp ty
Ġa fter
he x
Ġp yp
Ġf e
es cape
str y
ĠN o
ĠS SL
ist ant
path s
Ġde bug
inter preter
Ġ3 0
port s
add ing
UR I
Ġle vel
ĠPy PI
entr y
Id entifier
ĠSo ft
Ġvi ew
ĠSO CKS
ensiti ve
G I
[ [
a le
g round
h andler
s lo
Ġa p
li ed
yp es
fi r
sp ath
ĠL ogger
ke ep
ĠV alues
ĠUn supported
ĠG et
si de
sup press
cre ment
ĠQ Action
H e
V er
[ {
f low
p an
s u
â ķ
Ġt wo
Ġc alled
ic es
Ġ" ))<
ec ause
fi ed
ad o
od o
ase s
Ġd b
ib utes
Ġtr ain
Ġab c
Ġsp lit
Ġglob al
Ġign ore
? <
P O
S PEC
i ed
m enu
u id
è ¯
on ly
se arch
Ġs ystem
Ġc lient
Ġin fo
~~ ~<
id er
Ġse par
ma ke
vi rt
Ġiter able
arg v
Ġtok ens
Ġspec ified
bin ary
LI ST
Ġ201 5
Ġrepresent ation
arts with
ĠVER SION
C RE
I mplements
] *
g ener
l anguage
m ac
o zen
æ ī
ç Ľ
re v
Ġc reated
Ġre s
ic ro
Ġpar sed
Ġbe en
~~~~~~~~ ~~~~
AR T
Ġobject s
Ġcode s
arg ument
Ġup load
:` ~
Me ssage
Ġlabel s
EXT ENSION
9 9
D at
I ter
e vent
p lot
¯ å
æ Ī
æ ĺ
æ ¨¡
re sh
op ts
ĠB uild
Ġpro vides
Ġj ust
Ġpr op
gr id
ĠW heel
can didate
Ġle x
fil elist
**** ****
ttrib ute
Ġdirect ories
. ')<
C olor
M iddleware
b dist
f ont
h o
m iddleware
p erator
æ ł
ë ĭ
Ġ keep
in ue
re f
st artswith
Ġw ay
Ġs i
Ġp attern
__ .
di s
Ġr aised
ode Error
par ts
ĠU se
und o
Ġpro cess
Ġcont inue
ä¸ Ģ
ĠBase Distribution
stat ic
ĠDE FAULT
Class ifier
prec ated
) ))<
C opyright
e ded
l f
q l
s end
s gi
w w
w sgi
æ Ĵ
Ġ í
de scription
Ġc lf
Ġre source
__ ,
tr ans
ĠS T
sp ect
as gi
Ġdi splay
Ġth an
ĠO S
so ft
ĠM utable
ak es
temp eratura
Ġcontain ed
ĠName dTuple
Ġ201 2
dep th
Ġfr ozen
defin ed
graph y
slo ts
Ġfrozen set
' ),
( -
2 8
H ook
L exer
O G
R enderableType
u se
¾ å
ä ¿
æ Ģ
ĭ ľ
Ġs ingle
he ight
ic tion
Ġ' __
ip p
yth ing
Ġtr ans
######## ####
comp are
AN G
Ġrun ning
Ġpl t
AL L
style s
link s
onic al
Ġla st
precation Warning
Ġthread ing
ĠLegacy Version
QU I
ANN ED
! <
C om
C all
C heck
L ink
O L
O bject
c ap
e moji
r iz
s ign
} ,
± »
ç ±»
it le
ur ls
li mit
ĠP ar
Ġg r
ĠO n
iz er
par sedVersion
ag ment
fo lder
Ġop er
Ġab out
qu ot
Ġsa mple
ulti part
we en
çĶ ¨
Timeout Error
( \
: \
F ind
S ub
] ))<
e mail
h at
i que
³ ¼
lo cation
se cure
Ġ" ,
tr as
Ġof f
Ġse cond
Ġ2 5
Ġex tra
che s
scrip t
aw n
Ġmin imum
Ġ7 5
seg ment
orig inal
render able
Ele ments
A pp
B utton
M IT
] ]<
f l
r y
v ing
w n
ì ķ
Ġ âĸĪâĸĪ
el u
Ġs ite
ti al
str uct
Ġm k
ĠI O
ĠI mage
ĠF ormat
ck s
ĠĠĠĠĠĠĠĠĠĠĠĠĠĠĠĠ ĠĠĠĠĠĠĠĠ
Ġch ar
command s
Ġbase d
Ġk ind
Ġfilename s
iss ues
Ġexist s
virt ualenv
EXTENSION S
2 3
= ',
B R
D ir
O K
R C
c el
t he
t heme
w b
w arn
è ¾
é ĩ
in x
in ux
in sert
le ar
ĠT ag
Er ic
and le
and as
ro zen
ĠF rozen
EN D
Ġcan didate
che d
can didates
Ġ5 0
Ġcommand s
Ch ar
DI R
Ġdoc ument
åĮ ĸ
0 4
G PIO
M at
P ATH
f n
i an
u ally
w arning
å ĩ
ç ½
è ®
al chemy
me asure
ĠN egative
Ġan not
sp aces
Ġint eger
ĠB ANNED
Ġe ach
Con text
ĠIn put
Ġ% (
Ġun it
AT ION
Ġtext wrap
Ġus age
ĠStyle Type
ĠĠĠĠĠĠĠĠĠĠĠĠĠĠĠĠĠĠĠĠĠĠĠĠĠĠĠĠĠĠĠĠ ĠĠĠĠĠĠ
ĠPR OTOCOL
Ġdependenc ies
Ġstand ard
icro soft
ql alchemy
QUI RE
' re
C UR
c p
d river
e ver
r u
å §
ç §
è ¿
en vironment
Ġreturn ed
ĠP latform
Ġ1 1
Ġcon s
ro ad
par ameters
set Object
ver t
to graphy
LE S
back end
ĠDistutils Option
ĠUDS Scanner
ĠInstall ation
MO DE
sv n
ĠTO DO
igr ations
udo ers
pass word
IM G
setObject Name
ĠDistutilsOption Error
8 6
B UT
I P
L icense
p e
u dio
ë ¥
mp t
at ic
Ġt ar
ar son
Ġp ort
Ġn on
ment Tree
am a
as on
ĠL arson
', '
Ġwith out
dir name
ine ar
ay load
ms g
Ġmodule s
temp dir
num ber
0000 0000
ward s
Ġvi a
BO SE
ĠRes ponse
03 3
Ġcontrol ler
Ġali as
jp g
Ġbet ween
TRI BUT
æĴ Ń
( .*
8 0
M ore
S ON
c wd
i e
t ok
u ffer
y te
ä ½
ì §
in ner
re sp
Ġp andas
Ġf uture
Ġb ody
ol ution
Ġm issing
ĠC omp
ĠP ackage
ab spath
Re quire
pre ssion
Ġen v
ĠCon t
yn t
ST R
Ġro om
her it
Ġarg uments
Ġinter face
Ġmat plot
old er
velop ment
Ġlib rary
ŀħ ëł¥
Or More
ĠSoft ware
Ġannot ations
Ġmatplot lib
" ])<
2 9
A ME
B G
e ar
j upyter
n a
p ng
å Ļ
æ İ
Ġ ):<
Ġre try
Ġin stead
ĠC lass
class method
Ġcon nection
Ġg en
ĠD an
Ġde code
Ġbe fore
pl ugin
der r
Ġal low
ĠJ upyterMixin
Ġmax imum
result s
open ssl
cent er
78 9
field s
range s
ĠFound ation
ĠCON TRIBUT
fir st
ynt ax
ĠCONTRIBUT ORS
P latform
h our
o ver
t oml
v ariable
å ¯
è ¡
int eger
Ġp lay
it ch
Ġin spect
di splay
Ġm ap
ĠN ode
name space
con nect
ro ug
ĠO penSSL
Ġbe ing
code cs
Ġtr ack
ĠUn icode
LE G
ĠG PIO
St ream
Ġcontain er
Ġstyle s
Ġresult s
Ġfield s
Build er
Dec odeError
Ġdis able
Ġfn match
oss ible
err no
artic les
hor a
ĠFrozen Set
Mat rix
æĴŃ æĶ
3 1
3 9
> ``
> ..
L L
S O
S ize
V I
f g
m t
m ix
n orm
o ot
s rc
ä ¼
å ŀ
Ġc el
li ties
str ict
ĠT LS
ĠT odo
yp oint
Ġm aior
tr ue
() ,<
ul se
ch annel
com mon
pro xy
ro ss
ĠD ata
Ġex c
ai r
ĠM odule
IN DO
ĠIn lineKeyboard
Ġ3 2
HE AD
Ġsup ported
ME TH
wa ys
Ch ild
Ġinter preter
Ġser vice
Ġq td
Ġele ments
åħ ¥
del ete
HTTP Error
Ġsel eni
ification Failed
Ġarch ive
Vi ew
Ver ificationFailed
ë¥ ¼
åŀ ĭ
INDO WS
METH O
Ġseleni um
D U
O UT
U M
g ument
o y
Ġ Eric
Ġc ap
ss ue
ex p
ĠC lient
ab i
for ce
Ġnot a
sc ore
ĠR E
ĠR aise
IN FO
Ġcan didates
are d
Ex ec
ste p
AR N
build er
File Copyright
Ġac cept
Ġpos ition
Ġdoes n
âģĥâģĥâģĥâģĥ âģĥâģĥâģĥâģĥ
Ġlook up
IG HT
rot ocol
crement al
FileCopyright Text
A r
H o
S V
U S
d ot
m apping
o b
t op
z e
é Ģ
Ġ --------------------------------
Ġt able
Ġs al
Ġre place
Ġre ason
str ucture
yp y
-- -
Ġm an
ip let
op erator
ect or
Ġth en
ĠRe gex
Ġpre vious
po ses
################ ############
Ġsa fe
SSL v
ĠInvalid Specifier
Ġgener ate
ES S
Ġcompat ibility
contain er
Di rectory
ç½ ®
F ilter
O U
S P
T IME
c al
f lags
k ind
p ace
r gb
s ample
å ½
er net
(" .
me t
Ġb ecause
Ġ" {
ĠT emp
ec ur
un pack
ĠN um
ĠC om
ĠA pp
Ġse ss
Re ad
ĠD o
set Sh
ass istant
user name
Ġfun c
Ġurl parse
Ġuse s
Ġcontain ing
line ar
Tr ack
Ġes cr
([ ^
ĠEx ample
Ġser ver
æĸ ¹
Ġdel ete
ttrib utes
exec utable
ĠCache Control
Ġact ual
å¼ ı
Hook Call
setSh ortcut
HookCall er
1 4
H andle
S tr
l ing
p op
t otal
± Ĥ
Ġ uti
Ġ kwargs
st ore
an si
ge titem
Ġo ccur
di gest
Ġthe se
Ġm arkup
Ġm any
Ġ' <
ĠC Compiler
ect s
Ġ2 8
Ġl ong
Ġ{ }
Ġe mpty
ĠIn finity
comp lete
RE QUIRE
Ġsh ow
ir c
Ġ5 17
Ġtemp eratura
lig n
AB LE
åŃ ¦
PP ORT
ìł ľ
Fun ction
BR ACK
ĠNegative Infinity
å§ ĭ
æĴŃæĶ ¾
- \
2 01
5 4
: \\
> -
C Y
C ON
M issing
g t
p ulse
r am
¬ ì
Ġ ,
Ġ util
in ha
pr ivate
Ġt rue
le ft
ti v
Ġc opy
ĠS E
id x
Ġ1 6
Ġg o
iz ed
ow er
Ġe v
Ġe asy
Ġch aracter
ĠW ord
read y
spec ific
åı ĺ
Ġì ŀħëł¥
LI MIT
Ġdat aclass
Ġdefin ition
Ġstat us
ĠUnsupported Wheel
ì§ Ģ
: ]<
B OT
C A
C P
G E
P AR
b ody
c compiler
i de
j or
k nown
o f
y ment
å ľ
Ġ &
en tic
lo yment
Ġw arning
Ġf lask
it able
ic al
ac lasses
Ġthe me
ĠT ree
Ġ( _
th ing
is ual
ĠP ip
ĠP ep
ith er
ub lic
Re g
Ġex ceptions
Ġget Logger
Ġde precated
Ġst ack
Ġe qual
Ġun ique
sh i
ĠW indows
=' #
spec ifiers
wr iter
process or
Ġout file
ä¸ ª
Un parsedVersion
Ġsp ace
ìĿ ĺ
ĠType Error
pyp arsing
ero OrMore
dep loyment
work space
Ġloc al
ultip le
Ġprodu ction
ĠRo om
how to
Ġfe atures
Dir s
3 8
D oc
b ers
h ist
h inx
p lit
s ensitive
} :
ç İ
er ing
re quirement
re shape
en ded
Ġt ot
Ġt itle
Ġs qlalchemy
de vice
Ġimport ed
Ġc ell
Ġc ustom
Ġf p
Ġre d
Ġre tries
Ġo ld
Ġb dist
ad ing
ĠA bstract
ĠA ttribute
ĠL inear
ate g
ĠD ec
app ed
so cks
Ġde st
Ġtr ail
ĠV er
Ġch ild
sh a
cur acy
pyp a
ĠUDS Request
context manager
Ġmethod s
Ġhe ight
edit able
Ġali ases
Ġdistribution s
Ġhook s
term ine
roug h
. "<
2 7
G ET
I t
O perator
S up
W indows
_ <
b z
i stry
k ip
´ í
å º
st derr
Ġa ut
Ġs ug
ar is
Ġp arent
Ġ" -
th read
end s
ĠL ay
op er
ch ange
(' .
Ġcon trib
ĠF I
Ġex pression
Ġpar sing
ĠR ich
ĠR aw
Ġcomp iler
act ory
ron g
Ġal ways
St art
reg istry
DO ERS
oo ki
Ġchat s
ĠK OF
sa fe
HT ML
Ġpos iti
CC ESS
Ġview s
Ġescr ib
# !
3 5
A M
I FI
M arkup
W OR
a it
g it
i a
i alize
k er
m i
s ers
µ Ĳ
å Ĩ
ê µĲ
í İ
Ġ et
Ħ ì
or ch
al lowed
Ġc allable
Ġp in
an ce
od ings
Ġ1 9
(' *.
Ġex p
Ġex tract
Ġor d
Ġbe ha
oc ation
OR M
ĠCon trol
po ch
Ġconfig parser
lay er
Ġkey word
action s
[: -
Install Requirement
Met a
std out
second ary
NotFound Error
Ġbin ascii
ĺìĿ´ ì§Ģ
fl ict
ìķ Ī
mix er
met aclass
êµĲ ìķĪ
íİ ĺìĿ´ì§Ģ
Ġbeha vi
" \
+ +
= -
= ="
> }<
A l
I F
R un
a de
c ost
d ump
q td
t ty
at er
at is
se p
Ġa pi
al i
us ers
ĠP ack
ĠA B
ĠA pr
ĠL OG
(' |
Ġcon current
Ġex ample
Ġ{ '
read er
ĠAn si
Ġversion s
label s
future s
Ġconfig uration
can onical
Ġ| ')<
IT Y
Ġwr ap
Ġat temp
fer ence
FI X
session s
Ġmat riz
Ġrepresent ing
uf fix
ĠY ou
ĠDE BUG
íķ ĺì
web driver
æľ ī
Ġfin ally
gor ith
ipp ing
ARN ING
? )
C E
H el
R enderable
a z
o le
r f
r glob
t ask
¾ Ħ
ì Ī
Ġ ext
Ġ query
(" [
Ġs um
Ġs leep
Ġf older
Ġ" %
~~ <
ĠC reate
ĠS tr
Ġse arch
all back
00 01
il y
Ġh ost
Ġname spaces
Ġe ither
fo o
ĠV e
ĠThe se
Ġad j
Ġad ditional
En ter
wh ere
St ate
ä¸ į
module s
ri de
ĠEn vironment
Ġla mbda
An y
MO DU
PR O
Cont ain
LA Y
iction ary
aris on
ĠAB C
) ."""<
4 01
> *
B L
C lient
F ore
O f
S o
V alue
W H
b t
c ed
c ell
f it
h n
n el
p at
v ariant
| ~
| --
ã ģ
ë ¡
Ġf la
Ġre gex
es o
ĠT able
yp tography
tur a
Ġm apping
ĠN OT
ĠN ormalizedName
sp hinx
ĠA SC
ack list
op e
Ġdi gest
ch r
(' :
Ġcon struct
Ġg n
Ġh andler
Ġex it
und os
oc i
og n
Ġfil elist
CHE ME
Ġal ready
si us
Ġwr apper
ENT IFI
VER BOSE
COM P
ĠNot e
Result s
Ġscrip ts
Ġprob le
ĠSU DOERS
Ġind ent
Ġseg undos
Met adata
Ġpick le
ertificate VerificationFailed
Ġlex er
static method
ĠOn ly
RC Command
Ho la
:\\ ').
|~ |--
ĠASC II
ENTIFI ER
ertificateVerificationFailed Invalid
+ )
> """
E CT
H ighlighter
L e
d ay
p ayload
¨ í
µ ĭ
» ´í
ì »´í
Į ħ
ĵ ¨í
Ġt orch
de v
ut or
Ġn ext
Ġn et
ex e
ue ue
am er
list dir
Ġex pl
ĠM odel
ĠM icrosoft
set default
SE R
pre dict
mo ves
Ġes cape
pyp lot
25 5
cre t
Ġ201 3
Ġentr ypoint
vo id
lex ers
ĠSU CCESS
Ġê ³¼
Ad apter
ĠGener ic
Library Manager
ĠOS Error
ĠMutable Mapping
Find er
ì»´í ĵ¨í
Ġê³¼ ìłľ
ì»´íĵ¨í Įħ
' .<
/ {
9 36
C re
C reated
L abel
N C
P r
W indow
_ .
g uild
m ory
n s
p u
t ool
° ì
é Ł
Ġ errno
el ib
el eg
Ġa void
__ .__
ut ed
Ġb ound
Ġin v
ed ge
Ġ( (
tr l
ĠĠĠĠĠĠĠĠ ĠĠĠĠĠĠ
ĠS er
ĠP Y
Ġstr ict
Ġprint er
Ġcon nect
il ar
app name
Ġpar ameters
Ġst d
im ilar
Ġj oin
Ġop tim
ĠThe me
build ers
enc es
AL LOW
DO WN
Ġcache d
Un supported
Ġrequire s
pyp i
Request Exception
vide o
Ġsome thing
ĠUDS ErrorCodes
idd en
Ġ6 0
Pro vides
ìĿ´ í
Ġhe x
Ġè ®
igr ation
Ġresol ution
Ġiniti alize
gument Parser
éŁ ³
ALLOW ED
- %
A ttributes
C andidate
P os
R ender
U ti
\ <
b it
c ast
o hn
r ate
s dist
è ·
Ġ ç
Ġ ent
Ġ lower
or ary
re al
en cryp
en crypted
Ġs ign
Ġp as
Ġf ernet
Ġin herit
ot e
Ġ' &
Ġ( ``
get attr
ĠP erson
ĠP rotocol
id get
op tim
Ġ1 4
() ))<
ub e
Ġas cii
ist s
ĠD jango
Ġex clude
app ers
ser ve
ĠR un
ĠĠĠĠĠĠĠĠĠĠĠĠĠĠĠĠ ĠĠĠĠĠĠ
RE CT
chat s
add ress
tic al
Ġ.. .<
Name dTuple
EX TR
EX PR
Ġes c
åĪ Ŀ
Ġac cess
sys config
ĠQ u
Lo ss
Lo ader
Ġauto end
play list
ĠRequest s
pi res
ĠZ eroOrMore
Style Type
Ġseg ment
å® ļ
ites pace
prog ress
clo se
Ġtk inter
ĠBuild Environment
Ġsi mple
Ġsal ma
Track bar
Ġtrail ing
mi ssion
encryp t
) ]<
2 00
? ")<
B ACK
D AT
D istutils
D ef
U E
b e
b atch
c ul
f mt
s ort
æ ³
ç Ĳ
é ¢
Ġb ise
Ġin it
la mbda
Ġ" \\
ex ception
ĠT arget
Ġm on
Ġm usic
end ing
ĠP in
Ġ1 5
ch ild
com bin
ist ic
et s
app engine
Ġpar tic
lit y
ĠW INDOWS
Ġpre dict
og le
Ġother wise
12 34
ĠDistutils Error
Ġsub class
ĠMe thod
Ġinstall ation
Tree Walker
ach ine
åĪ Ĩ
Ġcolor ama
NA Error
distribution s
ĠRes ult
çĶ Ł
unk s
De precationWarning
æĪ Ĳ
Ġoff set
itch en
å§ĭ åĮĸ
amer a
åĪĿ å§ĭåĮĸ
Ġbise ct
! ')<
( ""
* )
3 3
A uth
D o
D efault
M enu
P re
S NI
[ <
a j
c ard
c allable
h en
p lied
æ ģ
ic it
ion es
Ġ" --
Ġm ac
tr opy
us r
ĠĠĠĠĠĠĠĠ Ġ
end enc
sp ose
sp inner
con nection
ĠM ax
Ġtr aceback
ĠE X
ON G
ĠUn pack
Ġme asurement
comp ress
Ġpy project
port er
Ġpre d
Ġsup plied
ĠG roup
ust ify
En try
En tropy
ak en
date time
Ġup date
Ġadd ress
pos ition
FI LE
max size
Ġrel ated
Ġ{" $
ä» ¥
Ġneed s
DI RECT
åŃ Ĺ
lex er
rp m
Ġpyp arsing
He ader
æī Ģ
resh old
Ġbehavi or
MODU LE
ë¡ ľ
% (
3 00
6 3
F E
P H
Z E
d u
f in
i mplement
l int
o x
å į
ê ²
Ġ ERROR
Ġ quot
Ġ edge
Ħ °
ł è½
in ary
Ġi ssue
at s
pr i
lo ok
Ġt ip
Ġw ould
ti d
Ġc lean
ss board
ame ter
Ġthe y
Ġm igrations
Ġm ypy
Ġm ultiple
Ġ' _
Ġ' \\
Ġr ich
Ġto ol
ĠĠĠĠĠĠĠĠ ĠĠĠĠĠ
Ġd ownload
ĠP ool
ch oice
Ġg uild
ĠO ther
SE T
Ġpar am
Ġpar ameter
val or
Ġpro g
im al
Ġwh at
ĠV isual
form s
Ġpy lint
ĠH el
ĠH ow
Ġsh ipping
Ġcan not
PE P
ix ed
AR D
AT E
TT ING
Ġlen gth
cur s
ĠPy Qt
Ġass oci
sup port
Ġ"" .
clu ded
Ġmat rix
ĠTh read
Ġdoc utils
ĠString IO
Ġcompat ible
uff le
Ġcr yptography
Too L
Ġpack aging
ĠTime out
HAS H
Ġvendor ed
Dat aset
æĢ ģ
METHO D
Ġpas sed
łè½ ½
7 4
B ar
C II
D et
M AN
] ]:<
b asic
h and
l ers
l ang
m od
m ultipart
p s
p ep
r anch
Ġ Yukki
in iti
in ery
al ity
Ġc a
me d
Ġp age
an didates
Ġf ree
Ġf lags
Ġre c
Ġre port
ac tive
Ġin side
Ġ" /
Ġ" [
ĠT est
ath room
ĠA N
ĠA uth
ub yte
Ġth ings
ĠF lask
Ġh ow
ass ert
ĠE le
Ġwh ole
ĠĠĠĠĠĠĠĠĠĠĠĠĠĠĠĠ ĠĠ
comp le
Ġsh ort
Ġpre sent
iter ion
Ġad apter
ir t
UT F
enc odings
OT P
AS CII
Ġattr ibutes
ach inery
[: ,
åĪ Ĺ
Ġdat abase
ĠEn gine
del ta
Ġver bose
ĠPro xy
æ¨¡ åŀĭ
Ġcons ider
ĠInstallation Error
ĠTemp Directory
ecur ity
ĠAttribute Error
Ġet c
' '
B rand
C Compiler
D J
H O
M odule
P ackage
S ource
] ),
d f
g z
h ot
m ote
| \
} "
é ĺ
Ġi de
lo sed
Ġs yntax
__ ()<
ic s
Ġo wn
Ġn ow
li s
ad a
ip ad
Ġis n
ĠC heck
ĠC andidate
Ġd ur
Ġv irt
age d
ĠL og
(' -
ist lib
ve hicleManufacturerSpecificConditionsNotCorrectF
ata que
Ġnot e
path lib
Ġor der
que ue
ĠM ultip
SE TTING
Ġe h
vendor ed
ĠĠĠĠĠĠĠĠĠĠĠĠĠĠĠĠ ĠĠĠĠĠĠĠĠĠĠĠ
Ġch annel
attr ibute
Ġit self
Ġhas hes
ak ing
wr appers
CO DE
cl ar
mon o
ĠDistutils Exec
igh b
ìĿ Ħ
Ġback ground
åı ĸ
ĠHTTP Error
HT M
ĠFile NotFoundError
Ġë °
Ġstat ic
Ġexist ing
BO M
Ġmay or
bl ue
TH ON
MA X
ĠTO ML
ĠNew Type
ĠConfig uration
Cont ent
Ġexec utable
Ġpoint s
======== ========
resol ve
ĠPyPI RCCommand
¯å ¾Ħ
send bt
temperatura Us
ANG O
éĩ ı
ends with
gorith m
ĠVe hicleManufacturerSpecificConditionsNotCorrectF
|~|-- |~|--
è· ¯å¾Ħ
çĲ Ĩ
DJ ANGO
istlib Exception
ĠMultip lo
SETTING S
ĠDistutilsExec Error
sendbt n
7 5
G S
M y
M IN
P ins
S ystem
U p
W R
c ooki
h ook
m k
q d
s leep
t ar
t ension
³ »
¾ ç
ç Ł
Ġ Error
Ġ head
se par
se ction
Ġc orrect
an k
Ġin stan
di fied
ol ver
ip File
ĠĠĠĠĠĠĠĠ ĠĠĠĠ
sp an
Ġse cret
Ġg re
Ġde c
ĠM A
Ġe st
IN T
ĠRe ad
Ġme ta
ĠH as
Ġpr im
wr apper
St ack
Ġcheck ing
cur ity
ark ers
entr ies
client s
UDS Scanner
Ġinter nal
'] .
åı £
Ġover ride
Ġreg ular
Inter view
ä¹ Ĳ
æĺ ¯
ĠPlatform Dirs
è¡ ¨
åŃ¦ çĶŁ
éŁ³ ä¹Ĳ
) ")<
C R
M P
R ec
R ange
S Y
X X
b right
c lear
e e
h ing
w alk
x ies
½ æķ°
å °
Ġ utils
Ġ frame
Ġ ecu
İ ·
re ssion
at lib
Ġt ur
Ġw alk
le ss
Ġa io
al ign
Ġc or
Ġc atch
Ġb g
Ġb rand
un icode
Ġm y
up per
ĠC el
ĠS up
ap ing
Ġd own
ig ger
Ġstr ip
Ġ2 000
Re ader
ĠF ilter
ĠO P
ag ent
Ġpar tial
ind ent
RE PO
RE DIRECT
load er
stan t
Ġpre process
SI ZE
UT O
Ġfiles ystem
auth user
mon th
Ġformat s
ĠDict Cache
req s
Ch annel
ast o
ook up
Ġk now
Ġgener ated
Ġcolor s
net work
Ġhttp lib
Ġsk ip
char s
Ac tiv
Ġsession s
IL D
Ġrefer ence
Ġmsg pack
Us ers
SU PPORT
Ġne eded
ëĭ ¤
ä¿ ¡
Ġdocument ation
åĩ ½æķ°
ĠPackage Finder
ĠCont ent
ĠInfinity Type
Ġìŀħëł¥ íķĺì
#! /
atis fied
Ġfla g
Ġexpl icit
" ^
F il
F ormat
T otal
T emp
W idget
a int
b ine
b lock
e a
g re
m ore
m ask
n ist
q s
r elu
£ °
å £°
ç ¨
or mp
st and
(" -
Ġs dist
ti fy
it ting
Ġre pr
ic ally
ex c
ec ure
ue ss
Ġfor ward
ĠS ub
Ġd ry
Ġd ictionary
ĠL ocation
Ġ1 000
Ġstr ucture
ate Time
Ġth rough
Ġ2 6
---- ---
Ġl icense
Ġl ru
ĠB inary
In t
ĠV S
ON E
ly ing
Ġ`` <
bo ld
dat o
Ġlog ic
Ġsa ved
sent ence
Tr iplet
List ener
Ġcontext manager
arch ive
Ġdat aclasses
Ġrepresent s
Ġrel ative
gest ion
COL OR
CH AR
Ġbot h
åĽ ¾å
ĠParse Exception
Ġnorm alize
rop out
ĠColor Triplet
CRE T
ĭľ ì
Ġsecond s
Ġallow s
789 4
ross Entropy
structure s
æīĢ æľī
çŁ ©
Fil ename
ormp ath
7 11
= ""
> .
A P
A PP
C L
C AN
C allable
H igh
J ECT
N e
Q u
S egment
S GI
d t
m achinery
p ly
t tp
u sed
º æ
å »
æ ŀ
ê °
Ġ ),<
Ġ extension
in stalled
on d
re set
int ain
al ame
Ġs udoers
Ġc p
Ġp ossible
ge ome
Ġn ormalized
Ġ" âĸ
ex ample
li sh
Ġm ost
Ġm achine
Ġ' '
Ġ' --
ter min
get cwd
ĠC ase
ĠP O
con vert
Ġex poses
ĠM et
ĠB ack
ver se
ind ll
In sensitive
Ġen vironment
ĠIn dex
py project
format s
ĠW ARNING
attr ibutes
AN UM
add r
En d
object s
Ġrequest ed
cl us
Code c
ari al
ĠJ ohn
FI G
Ġid s
Ġid na
âĸĪâĸĪ âĸĪâĸĪ
Ġmatch ing
Ġsupport s
ĠSpecifier Set
ĠSo cket
Ġweb encodings
jp eg
anch or
mem ory
56 78
æį ¢
ĠKey Error
Ġchar det
è¾ ĵ
Ġunit test
CUR ITY
ĠNum ber
REQUIRE MENT
BRACK ET
ĠSE CURITY
PAR EN
entic ation
Ġspace Characters
PRO JECT
Ġbound ary
EXTR AS
æģ ¯
PH ANUM
Ġtip o
Ġprog ress
TooL ow
CHAR S
ĠCase Insensitive
ĠCaseInsensitive Dict
' ll
) "<
) }")<
- .
6 00
A RE
A UTO
D an
F actory
N ormalizedName
O penSSL
S CHEME
W in
] }')<
b um
c oder
g en
g ain
g reen
k en
q at
s udo
s atisfied
t ch
v ision
v ider
z A
} {
± ¡
è ±¡
Ī ëĭ¤
el s
int ypes
at io
Ġt oml
om atic
(" /
Ġs cene
hel l
Ġp atch
an cy
Ġf inal
Ġf ail
it ten
Ġre t
Ġre al
ut os
di sc
li fy
str ain
## #
Ġfor m
Ġto p
get ter
as c
Ġse p
Re porter
Ġh or
`` ).<
ĠU TF
Ġl y
ĠM usic
Ġe very
arn ed
ĠW r
ix path
bo und
Ġle tra
Ġuse ful
Ġuser bot
temp late
tes IO
ĠCallable Operator
red o
ĠHTTP S
ĠĠĠĠĠĠĠĠĠĠĠĠĠĠĠĠĠĠĠĠĠĠĠĠĠĠĠĠĠĠĠĠ ĠĠĠĠ
Return s
per cent
Ġpos ixpath
Lo ad
ĠTh u
Ġcontent s
Ġreg ister
NO DE
PY THON
(? :
return s
åĲ į
Ġcmd options
transport s
Ġvariable s
ëĭ Īëĭ¤
æİ ¥
ĠRaise s
ĠTree Walker
thread Channel
WH ITE
qd m
tch a
threadChannel Id
" }<
( ["
) [
/ ',
= (
I mport
I SE
L egacy
S S
S OR
T able
d ated
f p
l bl
n ost
n ormpath
p ur
y ear
æ µĭ
Ġ :<
Ĭ ¶
or ed
al man
Ġs m
Ġs ort
Ġs ent
me ta
Ġm ight
ter minal
ĠĠĠĠĠĠĠĠ ĠĠĠĠĠĠĠĠĠĠĠĠĠĠĠ
am ing
id ual
ro ff
so cket
pre d
ok u
Ġpy dan
py game
Ġ`` '
Ġsh a
Ġsh ape
sh ortcut
Type Var
Ġab stractmethod
Ġpre serve
ms v
Ġcomp ute
LE TE
cache control
Ġpl ace
pyp y
Ġspec ify
num ero
Ġtest s
LO AD
ĠInvalid Requirement
Ġter minal
context lib
Se quence
Ġconver ted
)) ?
Lo ck
tim er
Dec oder
ç» Ł
div idual
OP EN
Ġap pro
Ġap plication
Ġclient s
dis able
Ġgen shi
ĠInlineKeyboard Markup
Doc uments
Ġaut omatic
Ġpositi vo
ĠAN SI
ĠEle mentTree
Interview Scene
Ġpydan tic
) ("
= [
A bstract
C B
G R
L ay
S ecurity
T ION
V al
] ):<
c c
d o
l ong
n eg
r eleases
s y
u c
v id
w indows
y el
y am
¯ ı
° ìĿ´í
ç ®
Ġ edit
Ġ âĶ
į °ìĿ´í
er ate
er os
on ent
Ġw ell
Ġw alker
le ments
Ġa x
Ġc sv
ar p
Ġp ot
Ġre direct
ur istic
ss ian
li ve
Ġ' \
ĠC ode
ĠP adding
Ġv ario
Ġdi sc
Ġse quence
pro mpt
te ger
Ġl ater
ight s
set ter
In put
out ube
time out
RE AM
our s
mo unt
Ġcol umn
ud ent
LE lements
min imum
si yam
default s
Ġinstall ing
'] ,<
co unter
Tree Builder
find er
au ssian
OF F
Ġdat aset
Ġmat ches
net box
50 9
color s
Ġë į°ìĿ´í
Fr om
let ters
Ġind icate
Ġnamed tuple
Node s
IS OTP
ĠAd min
Ġgroup s
rp c
ĠTr aceback
Platform Error
HEAD ERS
############################ #
ĠRoom Scene
IF Y
ali as
ìĪ ĺ
Ġassoci ated
HTM LElements
igger ed
ä¿¡ æģ¯
å» º
geome try
yel low
Ġvario us
siyam ak
Ġëį°ìĿ´í Ħ°
" ],
) ]
: -
C la
M arker
O ut
Y ou
] }
e dia
f alse
g ot
h ere
h ome
m nist
o ptional
p ic
p ac
p ap
s ax
t mp
u int
v a
w i
} ({
ª å£°
Ġ 64
į ç½®
ĺ ¤
en tion
Ġt qdm
al tura
Ġs imilar
he it
he ap
me tic
Ġp erson
Ġp ush
it metic
__ ).
Ġb atch
di m
ex tract
str aint
ĠT o
ec h
Ġm anager
Ġ' {}
ĠS plit
ase ts
ĠA lign
ĠL IGHT
Ġcon stants
Ġex pires
Ġl ines
Ġ{ }".
SE CRET
ver flow
ver ything
pre process
ĠE CU
Ġar itmetic
Ġab s
SI T
bo ot
Ġad min
dat aclass
DO CU
Ġnew er
Ġarg ument
word s
Ġattr s
ĠUDS Response
pen log
ĠUR I
Pro xy
Ġdefin ing
Ġë ³
glob al
erti es
Ġscheme s
Ġdirect ly
åĲ İ
Ġê °
man aged
Ġnorm al
ĠBy tesIO
æį ®
Iter able
ww w
temperatura F
Ġoper ations
tok list
åĻ ªå£°
å½ ¢
ĠLay er
Le vel
Ġìŀħëł¥íķĺì ĭľì
Ġaritmetic as
DOCU MENT
Ġìŀħëł¥íķĺìĭľì ĺ¤
" ]:<
0 5
> =
A t
B E
B y
E W
K OF
M ap
N S
V AR
g its
i ef
n ts
q rt
r a
t om
} %
è §
ì Ħ
Ġ etree
ĥ ı
on y
lo pen
al ic
Ġp ost
Ġre curs
ur lopen
Ġo lder
Ġ' -
Ġdef ine
Ġan ything
ĠS h
ĠS NI
sp awn
Ġd ay
ĠL icensed
ub le
(' \\
00 63
et ags
Ġg ive
ĠD I
ĠF r
Ġ_ ,
Ġde scr
Ġde termine
set s
ĠR elu
In dex
im show
time stamp
Ġun a
Ġch ain
Ġpre vent
yn ony
pp er
ST Y
request ed
Ġle ft
ĠJ on
ĠText Type
Ġser ialize
Ġcom ment
Ġrel ief
BU ILD
Ġfunction ality
Ġlink s
Ġtuple s
UN K
Ad d
Ġper form
oder n
RA ISE
Ġauth ority
ĠKey word
è¯ ·
çĽ ¸
Ġpattern s
Ġroom s
Ġcel ls
ĠModule s
US IC
Contain s
eleg ram
Ġpartic ular
Ġconsider ed
Ġdur ing
³» ç»Ł
ttp Response
ĠMet adata
clus ion
RAISE D
' ],
. ,
4 5
8 8
9 3
: /
B ack
C reate
I VE
J SON
N um
Q ueue
R ights
S pan
W arned
] ')<
a ded
b uffer
c a
d on
k s
m ime
m aior
o ost
p ool
p are
p Formatter
t ot
v cs
x x
å ģ
ë ¦
in ay
er tion
re try
om es
om ain
Ġw rong
Ġa ctions
Ġa greement
Ġp s
Ġp at
an el
__ ('
ic on
Ġn ao
ex tras
ec e
Ġm ask
Ġm aking
Ġr aw
tr iggered
Ġan other
ĠC olumn
ĠS te
ĠS aj
ap sed
ĠP IL
and box
Ġ. -.
Ġ2 4
ĠD at
ĠU ser
Ġde coding
ĠM IME
ĠB NC
set Parse
Ġst arts
inter view
IN TER
ĠRe pr
ĠV inay
ON FIG
IC E
pl ac
ĠH ttpResponse
RE EN
sh ould
Ġab i
Ġab stract
Ġ` -
ĠG ame
Ġnum bers
wh ich
UR ATION
Ġle t
scr aping
ĠDistutils PlatformError
Un known
method s
ĠName Error
ï¼ ļ
'] ['
run ning
ID ENTIFIER
ann ed
Ġå ®
Implement ation
AND ARD
Ġfr agment
Ġcurrent ly
Ele mentTree
Ġloc ale
group s
SC ONFIG
ĠParse Results
Too High
ĠAd ditional
Ġenum erate
TLS v
ABC Meta
ĠPre processor
ĠDi rect
PO INT
~~~~~~~~~~~~ ~~~<
99 9
Ġ25 5
cel ls
BG M
åĻ ¨
å¯ ¹
complete Read
Ġcontrib utor
Hel pFormatter
Ġadj ust
Ġgn ui
ĠTarget URI
ê² ©
ssboard Size
Ġvirt ualenv
SY SCONFIG
Ġcp f
è¾ĵ åħ¥
Ĭ¶ æĢģ
ĠSaj ip
setParse Action
1 9
4 8
4 40
B ER
B LO
C alled
C olumn
E vent
F inal
L iteral
O S
T OK
W ait
a vailable
d ent
m ing
o un
} ,<
´ ë
Ĵ Į
in ce
in ation
Ġt akes
Ġw indows
Ġa gain
(" _
al Dat
Ġs canner
Ġc op
an ts
__ ':<
ur alDat
ut c
ex clude
Ġm od
ip le
Ġto o
us age
ĠP et
id entifier
ĠL ibrary
name d
con n
Ġcon v
com m
pro gram
ro id
Ġh app
Ġh ome
:// ",
ag nost
Ġde precation
ĠM atch
sc ape
ĠR TF
im read
ĠE xt
ĠĠĠĠĠĠĠĠĠĠĠĠĠĠĠĠ ĠĠĠĠĠ
Res olver
En gine
En coder
uptools DeprecationWarning
12 5
Code point
Ġsp an
SSL Context
Set up
Ġunicode data
enti ally
Ġdir name
Ġtree builder
Se arch
fe atures
mb ol
ĠTh ere
ail road
Ġè İ·
Ġcall back
Ġ~~~~~~~~~~~~~~~~ ~~~~~~~~
åŃ ĺ
Connection Pool
contain s
äº İ
ĠAd d
Ġbuilt in
Ġcal ls
Ġcal cul
Ġprogram a
Ġbl acklist
Wr apper
trans late
Ġaccept ed
Ġoccur red
BL ACK
Det ails
Ġide a
lis hed
Cla use
BLO CK
TOK EN
uralDat set
agnost ic
A GE
C LI
I con
M ode
N orm
O ptional
S H
V AL
W e
\ "
] :
b on
i req
m arkup
n on
p ad
p adding
p ublic
r l
r aise
x ception
¬ ´
¶ ľ
ê ·
ë ¬´
Ĥ ĺìĿ´
re ction
Ġt ied
Ġa st
Ġa round
Ġc ert
ar s
me th
Ġp ts
ac c
ac iones
Ġin cluded
di spose
la z
str ap
ĠT ask
Ġm or
ad ded
is dir
Ġd st
ĠL abel
Ġdi git
ub lished
Ġse ction
Ġcon version
log in
ation sh
ist ent
mat ches
`` )<
ĠU ti
ĠB ar
Ġst ep
fo ur
ok ed
Ġen c
Ġun su
Ġpy t
Ġ`` /
RE C
load s
Ġch unk
Ġar tic
HE EL
Ġpr ot
ĠCon nection
Ex ample
ens or
config uration
Ġrun ner
Ġal gorithm
base d
Ġapp ly
Ġz lib
Par am
Un pack
Ġsp awn
Ġì ¶ľ
ĠX XX
has hes
Ġgener ic
result ado
Ġser ializer
help ers
compat ibility
Ġå Ľ
Pro vider
Ġreg alame
nect TimeoutError
Ġ~~~~~~~~~~~~~~~~ ~~~~
Ele ment
Ġlanguage s
Ġhand les
Connection Error
Parse Error
Ġunpack ed
pattern s
ador es
PRE FIX
ĠReg ister
è½ ¬
rec ogn
åĬ łè½½
ĠNo Return
Ġsepar ator
make dirs
Ġmk path
Char Field
Ġtar file
ĠCacheControl Adapter
ĠNegativeInfinity Type
ORM AT
Distutils Error
Ġpredict ed
Ġmac OS
Widget s
Qu ery
ĠMusic Handle
pur elib
OPEN SSL
ynony ms
CLI ENT
ationsh ip
Ġunsu itable
Ġì¶ľ ëł¥
( **
, )<
= %
C ustom
F e
F orm
L EN
P U
P ip
S K
` .
a let
b u
b rand
d ownload
f ull
j a
p ause
r andom
v env
» ¤
å ·
æ »¤
ī į
er ic
re direct
Ġi mplements
Ġw ild
se q
se curity
Ġc are
ar ies
Ġre f
Ġre set
Ġn n
ex tra
Ġm ime
th at
is h
is o
Ġd one
ĠA l
as ename
Ġdi m
Ġ1 3
ch unks
ro ken
il ers
et ch
Ġ""" :
Ġl xml
Ġde si
ĠM ARKER
ĠM arker
os x
sc reen
Ġe verything
In cremental
input s
ĠV ide
time Error
Ġen able
ĠIn cremental
ĠH e
Ġcomp ile
Ġstring Start
Ġstring End
spec ifier
space Characters
mon to
Ġco unter
ENT R
Ġup per
Ġup sert
Ġtemp dir
Ġbuild ing
Un icode
File Error
åı ·
Text For
Base d
sing le
Ġgener ates
Ġma intain
Command Error
gi stry
Ġrel ationship
An d
Ġdel ay
âĢ Ķ
COMM A
ĠY our
gb anned
Install ation
off ee
Ġimage s
ĠOrdered Set
ĠDe precationWarning
Ġoriginal TextFor
Ġact ually
Ġmo dified
Ġfin alize
media LibraryManager
ĠID NAError
gener al
ĠST ANDARD
ĠPar ser
Ġoper ation
Ġ50 8
ĠClass NotFound
Ġ-------------------------------- ----------------
Ġman age
ĠCom ment
ĠCom bine
ĠPip Session
ĠUDSRequest Config
bz r
kip edia
pat ched
chr ome
Ġstd out
DOWN LOAD
ĠProtocol Error
Trackbar Pos
DAT A
implement ation
MAN Y
éĺ µ
ighb ors
separ ated
Ġaio http
Ġexplicit ly
çŁ© éĺµ
Ġappro pri
Ġax is
! ")<
" ),
' ])<
' ):
0 9
= ("
A p
A s
A UTH
C trl
C andidates
D URATION
E l
F C
L a
L INE
L ookup
M atch
M utable
N N
O pen
P age
P red
Q Q
S AN
V ision
f time
h ighlighter
i di
l in
n x
n one
r aph
s ur
s udoers
s qrt
t x
t am
v ol
w indow
z eros
¾ ç½®
å ¹
å īį
Ġ íķ
el ection
re es
re ating
at iv
Ġt aken
le y
(" %
Ġs ur
Ġs ure
Ġp ad
Ġf l
Ġf eed
Ġre pe
Ġin p
li k
># ################################
str ftime
ĠT yp
ĠT ri
un ication
Ġdef ines
ĠN AME
ĠC H
ĠS ap
ĠS im
ĠS ource
is file
is instance
ath an
Ġv ence
() ]<
ch aracter
Ġas k
Re present
Ġget s
app s
ĠU D
Ġde velopment
ĠM arkup
ĠB l
ict Version
Ġpro vide
Ġen ti
pl atlib
ĠH art
Ġj ob
che ma
Ġcomp ress
Ġtime delta
ener Matrix
min uto
iter items
ST REAM
UR IT
vel ib
Ġdefault dict
tic es
test s
Ġtemp orary
message s
Ġinter pre
Ġì ł
ĠText IO
TR A
ĠAp plication
Ġplatform s
ĠSet uptoolsDeprecationWarning
async io
Ġma jor
CT URIT
Ġlabel er
net loc
DI ST
Ġfr ont
An si
res sed
play er
ins ensitive
row ser
bose Logger
Ġdependenc y
Ser vice
resol velib
Com ment
Com mon
Ġev ict
ĠAbstract Distribution
ateg ory
ĠDec ision
åº ¦
Ġproble m
936 54
Uti lities
comple ted
ĠHas hes
Listener Pins
ĠJon athan
Ġdesi red
SAN CTURIT
ĠTri e
ĠSap in
ĠSim on
Ġvence u
ĠHart ley
) }
) "),<
* \
1 000
2 1
5 00
7 60
; ',<
> ".
> ~~~~~~~~~~~~~~~~
A ll
C ore
D L
E M
E scape
N B
P oint
S cheme
V ec
` ,
b rowser
c at
c ol
c lean
c ustom
g zip
i ved
m io
m utable
o ve
t up
t type
} /{
¤ º
¦ Ĥ
§ åĪ
ª Ĺ
Î Ķ
å ¸
æ ĭ
ç Ĭ¶æĢģ
Ġ ~
Ļ ¯
Ŀ åŃĺ
Ġt ab
Ġw indll
se mb
se titem
al g
Ġs on
Ġs uffix
Ġc nts
Ġp ic
Ġp pu
Ġf ails
__ ":<
Ġb old
Ġb asic
Ġ" {}
str ings
ol ic
un install
Ġ' ''<
Ġr c
tr o
tr ie
is match
ĠA ss
ĠA ccur
Ġth ose
Ġ[ [
Ġnot as
ib ly
ĠB G
Ġel apsed
set Level
eg ers
ver bose
ma jor
ts x
Ġe i
user id
Ġsh ortcut
Ġpr ice
min or
act ual
config ure
Ġad ded
Ġwr apped
oo se
Ġmessage s
LT D
Ġ\ "
Ġspec ific
Ġspec ial
num s
Ġ"" ,
ĠEx it
ĠInvalid Version
Ġdir url
[: ]
ĠCommand Error
Ġter min
compat ible
platform dirs
CT YPE
.* ",
content s
Ġ"< {
Ġim mutable
Console Options
PY OPENSSL
Ġè ¿
(? :\
Ġweb browser
ĠZ ipFile
Ġhand ling
>` _
å¤ §
Ġvalor es
Ġver ify
Ser ializer
Pool Error
Ġbl ue
Ġbin ary
ä¿ ĿåŃĺ
Str ucture
çİ ĩ
Sup ported
åĨ ħ
ĠPack er
rf c
combin ed
endenc y
ĠHow ever
CR IT
ç¨ ĭ
ºæ Ļ¯
Ġpot entially
aussian NB
va lo
verflow Method
STY LES
ĠRepr Highlighter
å¯¹ è±¡
ĠåĽ ¾å
Pred icate
unication LTD
ªĹ åı£
" [
# ]*
- (?
> /
B IT
B ranch
D B
D is
G EN
G HT
K ind
L og
M ain
P er
Q Icon
U sing
V S
` _
a di
a her
a ving
c ertificateVerificationFailedInvalid
e poch
f d
f s
g acy
h x
i el
m arkers
p ts
p eed
p eso
r ing
r ake
t ure
x z
} \<
² ´
¿ çĶ¨
å ĴĮ
æ Ń
ê ³
ë Ĭ
Ġ ).
Ġ layer
ķ Į
Ļ Ģ
ľ Ģ
or es
in st
er ly
st ack
en heit
Ġt type
(" ################################
de c
Ġc ertificate
Ġp h
Ġp air
Ġp eso
Ġf a
it z
Ġre name
Ġre mote
__ }
Ġo pt
Ġb ad
Ġb uf
Ġb box
Ġ" #
ex ists
es d
Ġ' ,
ce eded
uti ful
ĠC an
ĠC AN
ĠC ertificateVerificationFailedInvalid
ĠS ome
ĠS ecure
ĠP ART
ile Error
ĠA lso
ĠL o
Ġdi rec
() '
() )
con v
Ġcon d
Ġcon flict
Ġg map
ĠD istlibException
Ġnot esd
if t
ĠF aher
app dirs
lib c
ĠM issing
ĠB or
ver tices
val u
Ġ: :
ER GEN
im c
Ġon ce
ĠE d
ĠĠĠĠĠĠĠĠĠĠĠĠĠĠĠĠ Ġ
ĠĠĠĠĠĠĠĠĠĠĠĠĠĠĠĠ ĠĠĠĠ
ĠIn ter
Ġsh ared
Ġab le
che ssboardSize
LE D
AR GS
Ġno vo
act or
dat aset
.. /
ug ador
Ġapp end
Ġapp dirs
mon go
arg uments
Ch ain
Ġtemp o
Not Supported
ign ore
Ġitem getter
pyp irc
The me
frame work
Ġorig in
LI GHT
wheel s
Ġentr ada
ta il
Comp arison
sl ack
Ġë ĤĺìĿ´
COMM ENT
EL LOW
NO WN
PR OTOCOL
Ġnamespace HTMLElements
Ġcall ing
char det
ne th
Ġê µ
post uralDatset
Ġwork ing
ĠRequirement Set
æĸĩä»¶ è·¯å¾Ħ
column span
******** ********
ä¸Ģ ä¸ª
renderable s
00000000 00000000
ä½ ¿çĶ¨
VI EW
Ġsug gestion
('. /
BACK OFF
ustify Method
look up
HO ST
ĠCel sius
indent ation
>. +
TION S
sy mbol
ĠAdmin Rights
Ġèİ· åıĸ
Ġmime types
ëĬ Ķ
ĠFaher enheit
ERGEN CY
ĠAdminRights Check
) -
, ))<
/ ')<
1 999
7 0
= <
= ",
> :
> |
? :
B e
B ig
F ed
F ont
L en
M T
M igration
P i
P LAY
S chema
T C
T h
V ector
X ME
] '
d one
g h
g asto
h ighlight
l at
m igrations
n am
n ext
o lean
r elease
w g
¡ «
é Ŀ
Ġ qui
Ĥ °
ŀ çİ
in ject
in valid
lo mon
(" '
ti l
Ġc losed
Ġf s
Ġre cent
__ ):<
ur der
ac curacy
Ġn eg
Ġn atur
Ġb ar
Ġin ject
Ġm ar
Ġ' )<
ĠN E
ĠN ull
get opt
ĠC ol
ĠC SI
ĠC allback
ĠS pec
ĠS pan
sp i
ĠP r
for med
ĠI N
ĠI S
(' %
(' ''<
il on
ĠD O
um an
ĠO ptions
iz ation
Ġh ack
Ġh aving
`` .
ĠU sers
Ġy outube
Ġ* ,<
ĠM y
ĠM igration
02 4
Con flict
ĠRe moved
ĠRe mem
ĠĠĠĠĠĠĠĠĠĠĠĠĠĠĠĠ ĠĠĠĠĠĠĠĠĠĠ
Ġen gine
Ġset ting
ĠIn iti
Ġme dia
Ġun til
Ġpy openssl
ou gh
ĠH ash
Ġlist s
Ġch r
sh ared
Ex tension
bo olean
Ġversion added
AT OR
can onicalize
Ġapp author
ĠSt ream
mon g
Key Ex
Tr ans
ĠJ SON
Ġinter actions
ign ment
Me asurement
AS SI
run ner
stat s
Ġgener al
max imum
Ġ200 8
cre en
ĠAr gumentParser
.* ?
åħ ħ
âĢ Ļ
cor rect
ĠSo lomon
Ġreg ard
Ġfollow s
æķ° åŃĹ
æķ° æį®
ĠGener ated
åĽ ŀ
Inter nal
}) "<
15 9
RA M
å¼ Ģ
ŀħ ëĭĪëĭ¤
ĠTime stamp
ĠReg ion
clo sed
No Return
OP S
ĠDi agnostic
Wr iter
çĽ ®
Ġtrans late
Require d
ä¼ ĺ
Ar gumentParser
unpack ed
14 159
Ġev en
CA CHE
åľ ¨
Ġdest ination
ĠFI XME
WOR D
åĨ Ļ
Ħì Ĥ°
Ġexp ects
Cre ates
æ³ ¢
ĠOther wise
Ġparam s
basic Config
dt c
Val id
tom li
Ġdescr ib
ece ss
Ġagain st
Open KeyEx
Vision Error
Ġfl ush
Len gth
¡« åħħ
ŀçİ °
ĠRemoved CommandError
ĠRemem ber
ĠSolomon VisionError
' %
) "
) \
- <
. \
7 7
= ='
B yte
C rossEntropy
D ING
D ep
E LE
F FIX
G o
G roup
H ER
N T
N ull
P ic
R aw
T ENSION
V G
Y our
] \
a ld
d om
d own
f c
i loc
l ru
m arker
n ers
o unter
r aries
u in
v et
w arp
} ):<
å ±
è ī
é ĥ
ê ³¼
Ġ $
Ġ limit
in clude
Ġi p
Ġt d
Ġt am
Ġw on
Ġc lear
ar m
an e
an um
Ġf name
ur poses
Ġb s
Ġb it
Ġin st
la p
ex clusion
un patched
tr ack
tr aceback
th or
get env
ĠS ection
ĠS VG
ap ters
end ar
ĠP anel
id point
ab ly
ĠL inux
for c
Ġdi d
and roid
Ġth us
ation Failed
Ġg uess
ĠB ad
Ġby te
Ġst ore
Ġe moji
ĠR FC
In lineKeyboard
Ġen viron
Ġ% ')<
ĠH idden
Ġ`` "
Ġpr i
Ġpre c
AN T
AR Y
add Handler
ir a
iv ers
wh l
wh ite
Ġro aming
vel y
Ġle ss
Ġ| =
ĠDistutils FileError
Ġdet ect
files ystem
Ġparse s
ĠConsole Renderable
Ġsp e
ign Key
fer ences
åı Ĥ
Ġì Ĥ
0000 00
Ġcom m
Ġ'. '<
ĠĠĠĠĠĠĠĠĠĠĠĠĠĠĠĠĠĠĠĠĠĠĠĠĠĠĠĠĠĠĠĠ ĠĠ
ĠK NN
Pro cess
Ġwheel s
cent ual
room s
Ġsu c
To Win
Ġ12 3
off set
åĮ º
std lib
go ogle
Ġ... ]
Ġiniti al
PRE TER
SU FFIX
artic le
ph anum
ä¹ ī
pan el
su ch
GPIO ListenerPins
åĩ º
ĠDan I
è¡ Į
LEG RAM
Ġdisable d
operator s
OU P
Ġoccur s
ĠVer tical
ker nel
ĠAnsi ToWin
Ġwrap s
Ġinv oked
ĠRun timeError
ĠMax imum
ĠEX TENSION
Header Dict
ĠPool Manager
åĪĹ è¡¨
Ġinstan ces
bound ary
GR OUP
Ġps util
INTER PRETER
Ġcert ain
alet te
æ»¤ æ³¢
Ġwild card
ENTR Y
Ġappropri ate
Ġìł ķ
Ansi Token
ĠAccur acy
ELE MENT
èī ²
SUFFIX ES
' \
' }<
) *
) +
0 6
5 5
5 12
8 9
A re
A ttribute
A CY
B ook
B asic
D D
D ownload
E moji
H ACK
I f
I s
K ING
P hot
R U
V ariant
W M
` :
a ut
a fter
b box
h g
l inux
m ar
o id
s orted
s itting
w ill
z ed
¡ ç®
å ¾
å Ģ
æ Ĺ
ç ¼
Ġ Ke
Ġ #############################
er ce
on ts
Ġi req
int o
en or
pr ot
Ġs end
Ġs ites
Ġs olution
Ġs ince
de clar
Ġp p
Ġp ause
Ġf ig
Ġre st
Ġo w
ac ed
Ġn ul
la sh
ot onic
Ġr ot
th is
get TreeBuilder
ĠC offee
ĠS ystem
ĠA c
Ġv cs
Ġv ariant
as sets
Ġint egers
ĠI d
ul ate
Ġse cure
(' --------------------------------
(' .')<
Ġcon stant
ist ory
et ed
ĠD is
ĠF ull
ĠO perator
file path
ai x
ĠM ac
SE xception
Ġst ill
Ġst udent
inter n
Ġe p
ind ices
ĠR Lock
ĠE ach
out files
ĠV alue
ON S
time s
Ġ% .
Ġme ans
data Elements
pl t
Ġ3 1
Ġ3 6
Ġ3 000
Ġlist ed
Ġlist enerMatrix
RE D
RE AD
Ġsh uffle
sh uffle
oc al
Ġcan onical
), (
ĠCon v
qu er
Ġcomp le
Ġcomp arison
Ġcomp onent
Ġhas n
CHE MA
Ġlo ck
DE LL
ĠSe arch
lay ers
Ġapp lied
cs i
ä¸ Ń
Tr ie
Ġback wards
ign Attributes
fer red
co erce
Ġì Ħ
ension s
ĠX CP
Ġsc reen
FI LEN
fil ters
TR OL
Ġfind ing
Ġma de
Ġdat o
Ġfr actions
Ġsupport ing
win reg
Ġstart ing
Fr agment
Console Error
Ac cept
Ac tive
FF FF
Ġword s
TE MP
åĲ ¦
Ġhand lers
ĠHTML Parser
IG NO
ĠNew s
ATH ONS
Ġunpack b
Ġexec ute
Ġresol ve
Ġcr iterion
Ġimg lbl
Ġfull name
Retry Error
ĠFore ignKey
~~~~~~~~~~~~ ~~<
Iter ation
Link s
Ġmk dir
Ġkind s
warn ings
LEG AL
norm al
ä¼ ł
Ġcel ery
ĠCacheControl ler
GE ST
hist ory
ateg ories
Ġchild ren
WOR KING
Fore ignAttributes
Ġdigest s
Ġnet loc
Ġconnect ing
real path
child ren
Menu Bar
ĠTOML DecodeError
åŃ¦çĶŁ çļĦ
Ġtur n
ĠJohn DL
Import Error
Ġautomatic ally
Out put
Ġ'{} /
è¯· è¾ĵåħ¥
Num ber
Ġhapp ens
acc ines
Ap plication
Mutable Mapping
lin en
Represent s
urder er
åıĤ æķ°
HACK ATHONS
Phot o
¡ç® Ĺ
åĢ ¼
FILEN AME
è¯·è¾ĵåħ¥ åŃ¦çĶŁçļĦ
) ?
* <
, '
9 0
9 8
: ")<
> (
> âĸĪâĸĪ
@ @
A V
A uto
B LE
B AS
G ER
G aussianNB
H ash
J og
J upyterMixin
R O
S ender
T k
\ /
] ):
_ |
c ool
c ython
e val
f ree
l m
n omes
o ki
p g
s HelpFormatter
t ab
v ices
w ine
w ay
y our
} },
¡ °ì
© ê²©
¼ ë¬´
Î ±
æ Ľ
æ ¯ı
ç ªĹåı£
é Ĺ
ë ³
Ħ æµĭ
ł é
ĠĠĠĠ čĊ
in has
er m
er minal
st ed
en log
pr ite
Ġw intypes
le ach
le tra
(" ../
Ġp join
Ġp ager
Ġp enlog
an h
it ing
it all
Ġre vision
__ ",
ur inha
ge ther
ic ao
Ġb el
Ġb right
ent ly
.< /
la in
la ke
ed Dict
ot ing
un ch
Ġ( ?:
Ġr ailroad
tr action
Ġto gether
ĠC O
ĠC ython
sp aced
sp itall
Ġd an
ĠP ango
id na
as ol
ĠI SO
Ġse qu
(' <
(' )<
Ġth ink
Ġ< <
Ġ[ ]
ro g
Ġg ot
ĠD ateTime
__( *
ĠF ind
mat riz
Ġget gr
par sers
:// ...
Ġl inha
EN CO
ĠM ap
set opt
pre vious
Ġst op
Ġst uff
ow els
os Search
ĠR ec
IN ST
In gre
In completeRead
ĠRe quire
ĠIn t
ĠIn secure
Ġ`` .
qu it
Ġcomp are
ango li
Ġhas hed
cr ap
iter tools
Ġad dition
ug ins
ir d
wh at
Ġro bot
ĠSt udio
Ġle ast
Ġformat ters
Ġco oki
back ground
Ġz ero
Par sedVersion
aliz ar
Ġup dated
ast ype
prop erties
ìĿ Ģ
ĠBase Transport
ĠBase Environment
EP T
([ ])<
au dio
Ġgener ation
ĠSet s
Ġ[" _
(( -
ĠEn d
Ġfr action
Control ler
tree builders
Ġhelp er
ĠRes olution
ĠRequest Error
Ġ~~~~~~~~~~~~~~~~ ~~<
... ,
KEY S
char map
Ġcase s
ĠZ IP
Ġhand le
Image Formatter
Enum Key
Enum Value
ĠDe termine
Ġrefer enc
Ġ'/ ',
Ġ'/ '<
Inter valo
man tic
Ġque ue
CC EPT
ĠTr ans
Test s
åĬ ¡
search python
mac ro
çĽ ´
rev ision
Ġlex ers
æł ı
ĠMutable Set
ĠFormat Control
OK U
ç§ °
Require ments
>.. .</
éĢ Ł
irc u
¬ì ¡°ì
åľ ºæĻ¯
Ġunique ID
ĠVer boseLogger
åº Ķ
ĠLay out
oper aciones
ĠFI LES
Ġescrib e
ĠLOG GER
ĠStr ictVersion
(': )')<
(': (')<
é¢ Ħæµĭ
Default sHelpFormatter
ĠUnpack Exception
ĠPool Error
ĠHel per
hand lers
initi al
initi alize
ĠEngine ering
ĠProxy Scheme
ipad x
ipad y
mono spaced
ĠMultiplo s
mk dir
ĠLocation ParseError
------- ')<
Int Enum
asc time
msv c
Security Warning
pac o
Ġrecurs ive
REC ASE
Ġ~~~~~~~~~~~~~~~~~~~~ ~~~<
ĠVide osSearch
ĠBG M
Ġêµ ¬ì¡°ì
Big Auto
Ġyoutube searchpython
HER OKU
phanum s
Ġnul lable
('-------------------------------- -------')<
IGNO RECASE
Jog ador
Ġsequ ences
Ġgetgr nam
://... ``)<
ENCO DING
Ingre se
Ġêµ¬ì¡°ì ²´
BigAuto Field
. {
/ #
/ "<
4 4
> \
> /<
A C
D ate
H ost
I mp
L AT
M Y
M ismatch
P ack
S Q
T O
T ypes
U ser
U LO
[ \
] {
] ")<
c pp
d temp
d raw
h itespace
i k
i er
i od
n ative
o tify
p ha
p air
s ug
t ls
u me
u ed
u ch
w alker
w rong
} '
¦ ģ
¬ ¬
Ã º
é ħ
ì ļ
Ġ ^
Ġ kw
Ġ extensions
Ġ urlopen
ĩ å®ļ
Į ĩå®ļ
in ued
re ference
re verse
Ġa i
Ġa udio
"" ")<
al ive
Ġs imp
ti tion
Ġp ower
__ :<
ac ent
di gits
ĠT ABLE
Ġm odern
Ġr ound
tr ics
Ġis file
ĠC ate
ĠS ans
ĠS cheme
ĠS CHEMA
sp otify
am ily
ab s
ab ility
Ġ1 8
Ġ. ._
ĠI P
con f
ĠF uture
ĠF ixed
ct ypes
Ġex tras
par tition
ag ename
ĠU p
lib rary
Ġl inux
Ġde clar
ĠM in
ĠB ASE
ĠB ea
SE S
pre s
pre tty
ore set
code point
Ġpro xies
sc hed
version control
pack agename
im write
Ġon es
Ġwh ose
ĠIn teger
Ġu uid
Ġpass word
Ġ3 02
OR Y
Ġab ove
mo st
qu are
ml ink
chat db
ST ART
iv es
Ġout files
ĠSt atic
Ġle ading
ĠDistutils Internal
EX C
cont inued
Ġback ward
Ġrender ed
cryp to
Ġid entifier
Ġmin or
tra Data
image s
Ġimplement ing
width s
Ġbut ton
vo ke
MO VE
erti fi
TER MIN
Ad min
Ġdiffer ence
Method s
å¤ ±
å¤ ´
engine ering
}) >".
Ġmo ve
ĠPre tty
Gener ic
gor ical
Ġbet ter
ng w
Ġprocess ing
Ġdisplay ed
ANG ULO
ĠPar sedVersion
Ġgr adi
App Name
App Config
over flow
âģĥâģĥâģĥâģĥâģĥâģĥâģĥâģĥ âģĥâģĥâģĥâģĥâģĥâģĥâģĥâģĥ
Ġreplace ment
ĠApp Config
Ġuti lity
æĴŃæĶ¾ å¤´
ĠControl ler
Ġadj acent
So up
ĠNOT E
SER V
Ġè® ¾ç½®
Uti lity
WR ITE
hook s
Ġmeta var
ĠSup ports
REPO SIT
åĽ¾å ĥı
ĠIndex Error
æį¢ æĪĲ
Table Scene
shortcut s
ĠTraceback Type
ĠAlign Method
ìĦ ±
UNK NOWN
åģ ľ
BLACK LIST
Ġprot ocol
ĠDecision Tree
utiful Soup
NT L
ĠHidden Text
Ġpri ority
Ġsuc cess
RU Cache
ĠEngineering TableScene
éħ įç½®
ĠCate gorical
ĠBea utifulSoup
ĠDistutilsInternal Error
TERMIN AL
Ġgradi ent
REPOSIT ORY
ĠCategorical CrossEntropy
" >
" ')<
" [{
$ ")<
' ^
- ]
5 9
< /
C ould
D jango
F ON
F ail
G P
G iven
L D
L Y
L BRACKET
L PAREN
L PHANUM
M IC
P rogram
P UN
S c
S CK
T A
U P
U sed
U ATION
U rl
b az
c mp
c alled
c lock
f ancy
g al
g db
j mar
l ings
l ice
m any
n ao
p ager
p wn
r el
s im
s uffix
s ilon
t b
t f
t wo
t Color
z one
» ĺ
æ ¸
è ¦ģ
é »ĺ
ì ĥ
í ĺ
ð Ł
ĉ ĉ
ī ĩ
Ĭ ¸
ĺ ±
or ing
Ġi glob
Ġt rees
Ġa ver
(" ,
(" {
al bum
al phanums
Ġs our
Ġs gr
Ġs hell
de o
de precation
de velopment
Ġc ould
Ġc amera
Ġp op
Ġp lease
Ġf i
Ġre gistry
ic ial
Ġb eg
Ġb asename
Ġin sert
Ġm ark
Ġm akes
Ġm ultipart
Ġ' {
Ġr ow
tr ace
tr iplet
get TrackbarPos
ĠC UR
ĠS canner
Ġd f
ĠP ress
ĠA SGI
ĠA LPHANUM
Ġv is
Ġv oid
for wards
Ġ. __
() [
() ):<
Ġ[ ],<
Ġg zip
ĠD ropout
um b
path name
ĠF un
ĠO ut
ib lings
Ġex act
Ġex ceeded
Ġget pwn
Ġos c
`` :
par tial
Ġl iteral
Ġde que
EN V
ĠM al
ĠM ain
ĠM ake
ĠB utton
Ġ{ __
SE PAR
eg round
Ġpar dir
val ent
Ġst ates
qui valent
os en
Ġe ff
Ġe valu
pack ed
In dividual
im it
ĠE very
Ġwh ite
ĠUn defined
Ġu id
Ġme mory
comp ilers
RE G
Ġsh lex
Ġch osen
are Mixin
ĠCon vert
ĠW hen
ĠW SGI
ĠThe y
Ġcont act
=" %
=" \
min utes
cr iterion
Ġlo ss
ST AT
Ġconfig ure
model ine
art board
Version TypeVar
ep silon
ĠSt op
Ġle arning
cl f
ä¸ »
her oku
AL PHANUM
Ġcheck ers
Ġwr itten
OT IFY
not hing
Un defined
Not In
Ġ[' /
') ")<
sub class
sub dir
ĠBase Cache
:` .
Me dia
AS GI
Ġì ĭľ
enti ty
ĠVersion Predicate
run Tests
LO G
frame s
ĠInvalid Wheel
ĠInvalid Header
Ġgener ating
Ġac comp
CT UATION
dep endenc
Ġ'. ')<
Comp areMixin
win inst
Ġæ Įĩå®ļ
Ġover load
Ġhe uristic
play mode
check list
Ġstart project
extern ally
Ġ8 0
cv tColor
Ac cess
Ac curacy
ĠSU PPORT
gb an
åĽ ¾ç
WS GI
18 0
Ġign ored
ĠPR OPS
Ġlib raries
Ġimg Path
cy an
Ġhighlight ing
INE SE
create Trackbar
Environment Name
Gener ate
Gener ated
ĠID ENTIFIER
Ġne ver
ĠWe b
No vo
gener ator
:`~ .
æ¨¡ å¼ı
æł ¼
trans form
ĠST ART
OL ON
è¿ ĩ
ĠComp ileError
LEG ACY
ĠInlineKeyboard Button
METHO DS
top ics
--- <
SP OTIFY
(". "):<
åıĺ å
Run ning
Ġattemp ted
?) -(?
Contain er
Ġproble ms
ĠQu ick
("" ,
ĠMax RetryError
ĠEX TRA
Ġedge s
Ġca ption
cooki es
åŃ¦çĶŁ ä¿¡æģ¯
7894 25
="" ,
Segment ation
Ġ'' ')<
termin es
ĠBack end
ĠWr ite
Ġcompute Accuracy
long opt
ĠâĶ Ĥ
From Page
ĠSplit ting
88 59
ë¦ ¬ì
ï¼ļ ")<
ĠConnection Error
recogn ized
Based CompareMixin
ĠCH INESE
93654 9
HOST S
>.+ ?)-(?
Be fore
InlineKeyboard Button
Ġturn ed
what wg
FON T
MIC OLON
PUN CTUATION
ìĥ ģ
ðŁ ĺ±
Ġaver age
ĠCUR SOR
Ġvoid Elements
Ġgetpwn am
SEPAR ATOR
dependenc ies
åĽ¾ç īĩ
) $
4 7
> ''
A lign
D el
D on
D ateTime
G ENT
G REEN
L at
O n
T ENT
T ERS
X GB
Y ELLOW
] '<
_ *
c id
c ert
c fg
e z
f onts
i ho
i hat
l ates
l chemy
m idpoint
s election
u ish
y class
} '.
¨ ì
ã Ģ
ì ŀ
Ġ ing
Ġ eg
Ģ í
Ħ ë¡ľ
Ĭ ½
Ń ç»
in line
el iho
re st
re pl
int en
en ing
lo ss
lo ud
se en
le ction
al ls
Ġs y
Ġs en
de str
fr action
Ġc he
Ġp orted
Ġp ayload
Ġp ublic
an ose
Ġf all
Ġre po
ing uish
__ '
Ġ" ?
ex ml
ĠT R
fi df
Ġ( {
Ġr and
Ġr atio
Ġfor ce
Ġan si
ĠS how
Ġd ot
Ġd ue
ĠP ri
ĠA s
ĠA CT
ĠL ib
ĠL ive
() :
() }<
ul er
Ġth ing
ext end
Ġcon n
all pap
00 5
Ġ[ -
pro vid
Ġg it
Ġg reen
ĠD NS
ĠO ne
Ġh i
Ġl ang
Ġ{ !
Ġpar a
pre p
ER T
ow ner
Ġe poch
Ġrange s
ĠE M
ĠRe try
ĠV ariable
ĠV oting
form data
Ġun supported
py t
ĠW in
valid ate
valid ator
to o
Ġtime stamp
ud ing
SI TE
Ġsup press
AT A
dat aclasses
ST ANT
Ġlog ical
Ġkey ring
ĠSt ore
Ġle gacy
cl uding
back wards
Ġuser name
ĠDistutils Setup
arg max
DO CTYPE
aliz er
aliz ation
Ġtemp late
by te
SSL Error
Ġat t
sub directory
ĠBase Model
cryp tography
Ġend s
Base Model
ID NAError
Ġoutput s
Ġac count
{} .
Se e
Ġpkg util
Ġnode s
Ġimplement ed
ĠEn code
ĠQ ueue
æĸ °
cond s
ĠFile Cache
Ġè ¯
Ġload s
Ġloc als
TER M
TER N
åĲ Į
Ġdist inguish
NAME S
ĠDe v
å¤ į
æĶ ¹
ĠLink Error
äº º
LA lchemy
Session Control
Ġcal endar
second s
TYPE S
ìł ķ
ĠSSL Transport
âķ Ĳ
Ġsepar ate
æī ĵ
Ġparsed ate
æĺ ¾ç
sign ed
ever seen
ç§ »
ĠCont ain
201 7
ĠPip Error
Ġexpression s
Of View
æ³ ķ
ĠMethod s
fin alize
look s
Ġinstan ti
ĠRead TimeoutError
WHITE LIST
Ġsm all
Ġê° Ĵ
Ġcop ied
125 2
laz yclass
ĠUti ls
ORMAT TERS
Ġrepe at
ĠTyp edDict
Ġevict ed
Main Window
ASSI STANT
ĠDiagnostic SessionControl
Ġprec ision
Ġbel ow
rog ate
ĠProxyScheme Unsupported
GENT A
XGB oost
fonts ize
ihat exml
Ńç» ĥ
eliho od
inten ance
anose conds
ĠLib Error
allpap er
ĠDistutilsSetup Error
æĺ¾ç ¤º
lazyclass property
" (\
' [{
) """<
. ",<
/ '
3 7
4 2
4 9
7 6
: ,
= ['
> [
> **
? #]*
A LE
B IN
C am
C LE
D istlibException
E d
G GEST
I ST
L os
M USIC
N E
N on
O verflowMethod
P in
P lease
P ORT
P AP
S LE
T HE
U D
W ith
W INDOWS
W ARE
] ],
` """<
b uilt
c ss
c un
c as
c amera
d l
d Temp
d ropout
e asy
g mail
k itchen
l ack
l and
m ero
m ypy
n gs
o ices
p atch
p ick
p ush
q r
r an
s las
t aken
u FE
v Options
y ann
| {
} ;
} \
} }):<
· ®
ä ¾
ç ī
ç ķĮ
Ġ END
į åĬ¡
ĵ į
Ķ åĽŀ
ļ Ĥ
er oku
Ġi g
Ġi ss
at ely
en um
en neth
lo aded
Ġt u
Ġw ere
Ġw ait
le cun
Ġs itting
Ġs ynonyms
ti le
Ġimport s
Ġimport ant
Ġc ause
Ġp ida
Ġp ublished
Ġre verse
Ġre trie
__ ":
ic ates
ut ors
Ġn x
Ġn est
Ġn ecess
Ġn Ãº
Ġb uffer
Ġin dividual
la re
ex db
ĠT ER
ĠT akes
ĠT CP
Ġm enor
Ġ' %
ad apters
Ġr out
th rough
th reshold
us d
us l
us ing
Ġ# /
Ġan s
ath er
Ġd er
Ġd type
Ġd omain
ĠP art
ĠL O
ĠL RUCache
con stant
con strain
Ġprint s
all files
Ġ< /
Re String
Re Sub
Ġ[ ],
pro xies
ĠD on
Ġnot hing
if est
ĠF ed
", "
Ġh al
Ġos crypto
Ġl iter
file type
Ġde v
ser ializer
set Window
ver sed
Ġst ored
Ġe mit
im er
ĠE moji
ĠRe itz
ĠRe vOptions
ĠV ision
ĠUn parsedVersion
Ġun its
Ġ3 00
Ġch oice
Ġop ts
ĠCon strain
Ġpre served
valid ation
Ġcomp iled
ated b
Ex change
LE X
min utos
parse String
ust ed
AT CH
DE LETE
Ġal go
Ġal tura
iv atedb
Ġresponse s
ĠSt ack
Ġformat ting
Ġco un
12 0
12 8
Ġsub command
Ch unk
Ġsp aces
ans db
ĠBase Reporter
Ġk nown
ĠName dTemp
Ġadd s
Ġadd ing
Ġì ķ
enti fy
ĠVersion Control
Ġtest ing
Request Field
ĠInvalid Codepoint
lean o
ED IT
ĠHTTP Response
Time stamp
Ġnump ngw
cre ated
isc ord
Ġmin utos
Ġtoken ize
Ġconver tid
mb ers
ĠEn coding
sa vet
Ġdel ta
res ado
level name
ĠRequest Field
Ġ~~~~~~~~~~~~~~~~ <
Ġprob ably
zip file
char set
FF FE
bl acklist
Ġbot oy
UN D
Ġevent ually
Connection Model
regex p
ĠGener al
Token Type
host name
web p
anch ard
Ġexec uted
äº ĭ
ĠVER BOSE
ĠRo bot
Ġencode d
clo ud
Pool Exec
hor as
music as
lic it
hex lify
ĠSoft max
[[ _
è¯ ¯å
CRE AT
~~~~~~~~~~~~ <
Ġí Ļ
ALL PAP
cap tcha
ĠâĸĪâĸĪ <
Ġmk dtemp
cel sius
è® ¤
CUR SOR
(.* )")<
STR ING
Stream Handler
norm alize
HEAD ER
Ġcap tcha
ecur s
æĸ¹ æ³ķ
±Ĥ çļĦ
ĠRich Renderable
Ġextract ed
Ġattemp ting
ìĪ ĺì
Ġsum mary
LAY ER
Ġconstruct or
Ġè® ¡ç®Ĺ
Render ing
Ġç ³»ç»Ł
orary File
Def ines
Auth entication
fin alized
åį ķ
ĠThread PoolExec
Ġrec ord
CODE S
ĠConfiguration Error
|~|--|~|-- |~|--|~|--
Ġcorrect ly
ĠPlatformDirs ABC
Activ ity
æŀ ľ
Factory Factory
disc os
Ġhor as
Legacy Version
wi ki
wi kipedia
At temp
93 64
ertion Error
Ġadjust ForeignAttributes
ĠLibrary Loader
ê· ¼ë¬´
Ġartic les
Ġcare ful
§åĪ ¶
å¸ ĥ
ĠExit Stack
æŃ ¢
("################################ ####
Ġbad ly
ĠBor land
PLAY LIST
ĠCol lection
Ġbyte array
Ġspe ak
Are a
Basic Auth
declar ar
ĠCoffee Scene
ĠFull ConnectionModel
quer ies
ä¼ł åħ¥
ĠDecisionTree Classifier
é»ĺ è®¤
ĠStop Iteration
Ġing resado
loud Rendering
ĠTR UE
âķĲ âķ
GGEST ION
SLE EP
THE ME
slas hes
ĠnÃº mero
ReString Match
ReSub Callable
ĠVision er
ĠNamedTemp oraryFile
Ġconvertid os
è¯¯å ·®
ALLPAP ER
ĠThreadPoolExec utor
! '<
' m
* _
* ",
/ .
4 6
8 00
> "<
> ``.<
B AL
B old
C or
D river
F loat
H H
H KEY
K G
N ow
N ew
P S
P ick
P ALE
R ITE
S ome
S ao
S cal
S plit
S peed
T EXT
U BE
W ER
W hat
W hen
W HEEL
[ _
_ |\
a ist
a ich
b est
b athroom
b lake
c trl
d st
d ar
d umb
g in
g id
g win
h ave
h idden
i Ã
i ro
k h
l on
l le
m ro
m tree
m agent
o spitall
r odu
r ill
s en
t age
t Type
t ech
u uid
w intypes
x key
y Re
³ ĦìĤ°
¸ æĪ
Å Ł
ç ³»ç»Ł
è ´
ë °
ì ŀħëĭĪëĭ¤
Ġ er
Ġ uri
Ġ ÎĶ
Ģ âĶ
ı Ĳ
Ł å¤±
or n
in ates
in icial
re t
re tries
lo od
(" ["
ld flags
al cul
ti ps
fr agment
hel pl
Ġimport ing
Ġc c
Ġc id
Ġc wd
Ġc fg
he ets
me g
me mbers
Ġp adding
Ġp olic
Ġf oo
Ġf actor
it o
Ġre comm
Ġre members
ur inhas
ge d
ic ed
di strib
di fy
Ġ" :
es el
># :
ot ui
ĠT H
ol ation
un o
un it
un ique
un used
fi las
-- <
Ġm d
Ġm ixed
Ġm arkers
Ġ' *
Ġ( )<
Ġr gb
Ġto day
ĠN on
ĠN UM
ĠC ur
ĠC andidates
ĠC rossEntropy
ĠC reating
ĠS creen
ap q
ap ture
ĠP ix
ĠP WM
ĠA t
Ġv ari
Ġv owels
Ġint rodu
ab out
ab stract
ab box
ĠL exer
for got
Ġdi spose
ig mo
name spaces
() ),<
() ``,
Ġ__ |
ĠI T
con st
Ġse ver
ui de
(' {}
Ġ< !
---- <
ro s
Ġg u
Ġg asto
Ġg libc
ĠD B
ĠD UR
um ask
um my
ĠF ill
ĠF lood
Ġ_ *_
ys crap
mat rix
ct ype
Ġh our
Ġh old
Ġh ospitall
ag ram
so Ser
Ġl r
file post
ai ves
ĠM USIC
ĠB ecause
ache d
quest ion
version s
Ġe ar
ĠR enderable
Ġtr ange
Ġtr ansport
out p
out file
Con nectTimeoutError
ĠV t
ĠV accines
Ġme an
Ġun less
ĠH E
ĠH OR
Ġpath To
Ġch unks
Ġar m
are a
HE S
Ġab spath
Ġpr ivate
ĠW RITE
ĠW aist
read able
read the
qu ite
=" #
Ġunder lying
Ex tType
SI soSer
po tify
Ġsup pres
PI P
.. .<
ak ref
Ġtext o
TT E
Ġdefault s
Ġ4 40
Ġ4 500
auth users
St d
back port
Ġcheck er
ĠPy OpenSSL
test set
DO C
Ġcolle ct
param s
Ġtemp d
Un ion
Ġsp eed
ĠJ OG
ĠBase Specifier
Ġes paco
Me mory
Ġ\ __
([ [
enti al
Ġspec ifiers
num bers
Ġmax size
Ġyour formatter
LO BAL
ID F
TR AN
"] .
åĪ «
Ġser ial
Ġtree builders
Ġ200 2
Ġmin uto
{} ".
dep end
Se mantic
Ġcom bin
Ġrepresent ative
Ġå ¡«åħħ
ĠĠĠĠĠĠĠĠĠĠĠĠĠĠĠĠĠĠĠĠĠĠĠĠĠĠĠĠĠĠĠĠ ĠĠĠĠĠĠĠĠĠĠĠĠĠĠĠĠĠĠĠĠĠ
AD ATA
ĠK database
sa ved
ĠFile List
ĠFile Controller
sl iced
ĠMessage Type
IO Error
åħ ³
Ġover flow
Ġhe apq
sv c
hash lib
ĠString Builder
HTTP Warning
system Wheel
Ġ~~~~~~~~~~~~~~~~ ~<
II II
To Image
element Tree
Build System
Ġweb driver
rt f
Ġ-- >
Ġê ³ĦìĤ°
Parse Results
ĠHTML Input
>` .<
>` _<
ĠCh en
IL LEGAL
Ġdon ate
ĠConfig Option
ializ ers
ĠCache Value
ensiti vely
imp l
node Type
go od
auto end
ĠFound Candidates
ĠFound Links
qual ity
HAS HES
Ser ver
media Library
âĶ ĢâĶ
Ġtk video
ingle Byte
xml rpc
ority Queue
Ġpyp a
ĠSSL Error
rev ctrl
Iter ate
Color Tuple
Ġtrans forms
Link Source
Ġgr ad
secure transport
Ġtar info
æİ §åĪ¶
Platform Dirs
over load
Ġplay list
oot strap
ĠTLS v
ĠTodo Serializer
Child Nodes
OUT UBE
exp and
CON TROL
Ġgo als
Ġdefinition s
Ġsug gdb
Al gor
ĠPack et
BL UE
Ġregex es
COMP AT
+) "')<
Ġautoend db
playlist s
Def ine
Ġmon th
("" )<
connection pool
ONG O
ĠUnpack er
Ġquot ed
tid as
Ġfree GPIOListenerPins
Ġreport ing
comple tion
Ġë° °ì
blue print
================ ================
Ġhead ing
Ġgre test
ĠMA IN
éŁ³ä¹Ĳ æĸĩä»¶è·¯å¾Ħ
å° ı
stand ing
="" )<
ĠSocket Error
SCHEME S
asc ade
Ġhor a
ĠCode c
Ġëį°ìĿ´íĦ° ë¥¼
pap el
Ġë³ ´ë
('\\ ')
ĠDI R
don ate
ĠSte pper
ĠDat aset
Ġ`- '
ĠGame State
Ġgnui ze
Ġgnui zed
oun ded
Ġcalcul ate
raise s
Ġmor adores
Ġsur list
ĠUD SIsoSer
Ġfront end
EM ERGENCY
Ġpic otui
ĠSecure Transport
éĿ ¢
çĽ® åīį
ä¼ĺ åĮĸ
éĥ ¨
forc elist
Ġcomm unicationLTD
Ġcomple tion
BAS IC
æĽ ´
Ġcooki e
éĢŁ åº¦
åľºæĻ¯ çļĦ
Fail ure
gal Response
æ¸ ¸æĪ
Ġaccomp lish
æł¼ å¼ı
recognized Format
Lat in
_* _<
ĠACT ION
PALE TTE
Scal er
aich ia
dar win
iÃ ³
lle galResponse
magent a
rill ic
helpl ine
Ġrecomm ended
unique ID
ĠNUM BER
ĠCandidates FromPage
abstract property
abbox es
igmo id
Ġsever al
ĠDUR OU
ĠHOR A
ĠpathTo Name
readthe docs
Ġsuppres sed
ĠJOG O
BuildSystem Details
ĠHTMLInput Stream
ĠConfigOption Parser
ingleByte Char
PlatformDirs ABC
ĠUDSIsoSer vices
æ¸¸æĪ ı
! !
! "<
" ):
" ])
) /
+ <
+ \
. )<
/ '<
4 1
8 2
= """
= {}
> >
> """)<
B ound
C AL
D im
E qual
G raph
H W
H istory
I LS
L P
L U
M on
M en
P rotocol
R ed
R UN
R GB
T elegram
W ill
W ARNING
Z ipFile
] ])
_ %
a sp
b a
b utton
c d
c python
c ertifi
d ry
f amily
g ing
g allia
i mple
j ob
n eed
p k
p v
p ed
s age
s ay
u ce
} /
¡ ë
£ Į
¶ Ī
æ Ŀ
æ ¦Ĥ
è ı
ì ĸ
Ġ âķ
Ġ ç±»
Ĩ ¡ë
Ĭ łè½½
ļ ä¹ī
ľ åįķ
or ld
or der
in secure
>< /
er ts
er nel
on s
Ġt ail
Ġt ake
se e
Ġa ge
Ġa mount
Ġa way
Ġs ol
de st
ti r
ar ily
Ġp ure
Ġp lain
Ġf h
Ġf it
Ġf ix
Ġre plac
ge tr
Ġb ranch
ed Graph
Ġ" '
># ###
ol l
ol ated
un ame
ers ist
Ġ( -
Ġr ank
up dated
ip es
th Image
ĠN orm
ter nal
get TreeWalker
ĠC opy
ĠC alled
ĠS pin
ĠS ph
ĠS imple
Ġd uration
ĠP ATH
Ġint ranges
ĠL e
ĠI ssue
con s
com ments
ist ants
Ġ2 7
tp lib
Ġg id
ĠF ORMATTERS
ĠO ption
Ġex cluded
ĠU sage
Ġl on
Ġ* _
ser ver
ser ialize
ĠM S
ĠB L
ĠB rand
Ġe mp
ĠR GB
In iti
In teger
im ary
ĠE num
Ġwh itespace
ĠRe move
time zone
py c
ĠH ere
ĠH AS
Ġsh are
split ext
OR ITE
Ġar r
ĠCon straint
ĠW ill
under line
Ġtime s
ff ine
Ġ@ _
po ss
iter ia
ĠG o
DE O
DE V
Ġrun s
CO UN
process Error
UT ILS
ĠSt art
Ġle ave
St udio
Ġpl ugin
iti ve
Ġwr iting
DO UT
Ġcolle ction
Un expectedNegativeResponse
Ġinstall ations
64 0
Ġk ernel
åı ª
åı ¯
with out
Ġì ŀ
Ġglob ally
LO CAL
iss ue
Base Cache
"] [
Ġter m
cre ating
{} \"
encode d
Ġ100 000
Ġcom ments
Config Parser
ĠEn try
Ġå Ĭłè½½
Ġ'. /
Ġzip import
scan ner
Ġdel eted
vo ices
âĢ ¦
Ġfield OfView
Ġlook s
TE LEGRAM
ĠZ ip
ç» Ħ
ç» ĵ
ĠCh r
output s
Ġvalid ate
Sh ift
}) ".
ĠDistribution Version
æľ įåĬ¡
vious ly
Ġchange s
rot li
var s
eni ence
Qt Widgets
Qt Core
rec ord
Ġpyp lot
Ġtrain ing
Ġsepar ators
Ġprop erly
font face
æł ĩ
Ġsi de
Ġtrans form
Sub Method
ĠĠĠĠĠĠĠĠĠĠĠĠĠĠĠĠĠĠĠĠĠĠĠĠ ĠĠĠĠ
è¾ ¹
è¿ Ļ
Require s
ĠUnicode DecodeError
Stream Writer
SO CKS
VI DEO
dot s
Ġ-------------------------------- --------------------------------
å½ ķ
Ġuti lities
åıĺ éĩı
38 4
ĠSer vice
ĠAuth Info
assert Equal
Ġprim ary
Ġmy Data
ĠCel ery
Ġreference Matrix
SUPPORT ED
------- <
æİ¥ åı£
Ġsm tplib
msv ccompiler
uc tur
ICE AC
Ġå® ļä¹ī
ĠDirect edGraph
non admin
bu gs
lik elihood
>################################# ################################
Ġ\" {}\"
endency Warning
ĠInter action
Ġorigin ally
Ġregard less
Dep thImage
Process Error
mlink s
SERV ICEAC
Ġevalu ate
Ġ"? "<
ĠContain er
ä¼ĺåĮĸ åĻ¨
Dim ensions
RUN TIME
æ¦Ĥ çİĩ
èı ľåįķ
Ĩ¡ë £Į
getr oot
ĠCalled ProcessError
ĠSpin ner
ĠSph inx
COUN T
Ġ\"{}\" '.
SERVICEAC COUNT
' ]:<
' >)<
' ``).<
( ['
) ``
) ])<
) **
) ://",
. ]*
1 024
5 30
5 60
7 50
= \
= _
= (),
> '
> ]
? \
A I
A ct
C s
C our
C sv
C ooki
E m
F ER
G AT
G IT
L AL
M ULT
M BER
N AB
N ao
P ACK
P rop
R T
R ecurs
S ecure
T op
U pper
] .*
a ste
c ircu
d r
d s
d rop
e ign
f ac
g iven
h i
h yp
h ind
i or
i et
k top
m m
m or
q q
r up
s qlalchemy
u ste
v ers
w allpaper
y i
} .
} ')
¯ æ
° ĥ
· ç§
Ã Ń
å ĵį
ç º
è °ĥ
ë ħ
Ġ ìĿ´
Ġ æĸĩä»¶
ĥ Ŀ
Ħ ë
Ħ çĲĨ
ĩ Ĵ
Į ģ
Į æĪĲ
Ķ ìĿ´í
Ĺ Ĳ
Ļ ¤
Ļ ĺ
or age
in place
el ect
re source
int ranges
en ar
Ġt ask
om an
Ġw indow
(" (?:
al low
Ġs Max
Ġs Min
de sc
de velop
ar map
Ġp ins
an is
an ho
Ġre ce
__ ")<
ac ao
Ġb und
Ġb ox
Ġ" ,<
Ġ" âĸĪ
ĠT erminal
Ġm usl
ue st
ad apter
Ġfor eign
ĠC ustom
ĠC ounter
ĠS ize
ĠS can
ĠS kip
ĠS CHEME
Ġd ummy
ĠP i
ĠA ct
am s
Ġv Max
Ġv Min
Ġv ars
class ifiers
Ġint ended
ĠL INE
for ward
ig lob
ate ver
() `
ul ly
ch anis
Ġth row
log y
ation Error
Re aj
Ġ[ (
pro b
Ġg anho
ĠD el
path sep
ĠF inal
Ġh ig
Ġex pos
Ġget opt
Ġget pass
Ġget Csv
:// "<
ag ic
ĠU P
ĠM on
ĠM anager
ĠB athroom
ver ify
Ġbe hind
Ġtyp ically
ow ers
Ġpro mpt
os h
os name
02 0
ĠR Pi
In stalled
ĠE IGHT
Ġwh atever
ele ss
Ġen counter
user db
IC AL
Ġme ant
Ġme chanis
RE SP
RE SET
RE MOVE
ive TreeWalker
sh al
are st
ĠCon nectTimeoutError
ĠW ork
ĠW HEEL
ĠW hitespace
Ġpre t
Ġpre ferred
attr s
Ex it
CHE MY
ard s
typ ed
=' ')<
ĠG NU
Ġmodule FactoryFactory
ax is
01 0
Ġal g
Ġal tern
spec s
iv ing
ber ry
Ġapp name
join path
NU MBER
Ġpl ugins
Ġdo ing
Ġcheck s
EX CL
ĠMe mory
entr ypoint
ast ian
Ġbuild er
Tr aceback
ĠJ ustifyMethod
File s
File Handler
File Attributes
') ]<
') ))<
Ġback off
Ġat exit
EP TIONS
co very
run time
Ġspec ification
Base Exception
Base Specifier
ĠEx ceptions
Ġsome one
ĠStyle d
ann oun
Ġid entify
22 4
require d
{} '.
LS cheme
AB EL
Ġrel width
Ġrel height
ĠEn sure
Ġå ħ
ĠK itchen
work ed
Ġæ µĭ
Ġæ ¯ı
Ġë ĭ
Ġauto complete
åħ ¨
ĠTh at
Ġwidth s
Ġrenderable s
For ward
check sum
EL L
del item
Ġdepend s
bl ack
ne ss
Ġind ic
Ġensure s
Ġthread s
unk nown
Ġreq s
Ġper centual
ĠDe termines
æĶ ¯æ
Ġwork s
det ector
Us age
å® ¹
å® ŀçİ°
Ġresol ver
node s
Ġ... ]<
Ġgroup by
æľ ¬
Ġmo ving
Ġprodu ct
Ġprodu ced
SU GGESTION
defin ing
Gener ates
Py PI
Ġxml rpc
åĬ ¨
åĬ ł
Ġ30 8
CRE TE
dis k
Ġí Į
æĢ §
ipp ed
Ġgr aph
Sub processError
GPIO Sender
ĠInput Media
ĠInstallation SubprocessError
ä½ įç½®
BG R
hour s
Stream Reader
ĠData Loader
ĠModule Type
Ġsal ario
Ġman ip
TIME OUT
ĠNum Py
CON CRETE
ĠAbstract Provider
thread ing
ĠControl Type
COMP LETE
ĠSer ializer
Ġsign ed
child Nodes
Ġpartic iple
åĪĨ å¸ĥ
74 98
ĠProxy Error
HO W
ighb our
Ġë° Ľ
Ġest im
Ġstrip s
"^ (
ĠPO SIT
memory database
(?: [
Abstract Distribution
Lay out
boot strap
Ġë³ Ģí
åĲİ ç¼
Add ress
çĽ¸ åĲĮ
ĠExt Type
ĠExt ension
Ġ~~~~~~~~~~~~~~~~~~~~~~~~ ~<
Ġmor ning
Ġpyt g
SK IP
Incremental Decoder
Incremental Encoder
ĠIncremental Decoder
ĠIncremental Encoder
idi Error
ativ o
Ġfeed s
ĠSource Distribution
Ġtab ulate
semb le
Ġrc dataElements
Ġspecific ally
CRIT ICAL
Ġpair s
Fed XGBoost
Ġneg ativo
Ġnatur ally
Ġmar shal
ĠNE GAT
ĠIN FO
å± ŀ
Ġinst allable
Ġenviron ments
å¾ Ĺ
Ġow ner
ĠAc tiv
ĠInt Enum
SQ LAL
sug gestion
EXC EPTIONS
TA CT
Individual Specifier
ĠInvalidWheel Filename
pyt tsx
Non Recurs
Ġiss ues
Ġnest ed
Ġnecess ary
asp berry
cons istent
Act ual
Cour ier
Cooki e
NAB idiError
Prop erty
åĵį åºĶ
ĶìĿ´í Ĭ¸
ĠTerminal Theme
Reaj uste
Ġexpos ing
ĠgetCsv Dataset
ĠBathroom Scene
Ġencounter ed
RESP ON
entrypoint s
announ ce
LScheme Unknown
ĠKitchen Scene
Ġæµĭ éĩı
æĶ¯æ Įģ
GPIOSender Pins
ĠPOSIT IVE
Ġë³Ģí Ļĺ
åĲİç¼ Ģ
ĠNEGAT IVE
SQLAL CHEMY
NonRecurs iveTreeWalker
" '
" (?
# ")<
( """<
) ).
) ").
, "
- ]*
. "))<
/ ...
1 50
4 56
6 6
8 7
9 7
: **
: ].
; <
; ').
> `<
> ~~~~~~~~~~~~~~<
A U
A vailable
B B
B ody
C ase
C oin
C TR
C ERT
D K
D LL
E mpty
G n
H SV
I A
K EL
K alman
L im
L ABEL
M D
M icrosoft
N ormalized
O rdered
P ed
P AT
P art
P LA
P LAT
R atio
T ube
T ensor
U I
U sted
W idth
W ALLPAPER
Z a
[ ...,
_ {
a fe
b zip
b roken
b ansdb
c n
c u
c ategories
d ger
e i
f eed
f ake
f etch
g host
g uess
h int
h uman
j ustify
m ist
m ultiple
m odern
m ira
o om
p b
p ay
p has
p ull
p erson
p du
p ublished
r x
r code
r ks
r mtree
s z
s ynonyms
u ation
v s
v is
x ied
y o
} ",
¡ Ĩ
¢ ŀ
¥ åħ
© ìŀ
¯ åĲ¦
³ å®ļ
µ ëĭĪëĭ¤
¶ æķ
¸ ë
ã Ĥ
å Ł
å ¢ŀ
æ ±Ĥ
æ ¡Ĩ
ê ¸
ì ĭľ
Ġ ]
Ġ ]+
Ġ err
Ġ ~~~~~~~~~~~~~~~<
Ĩ åı
Ĭ µëĭĪëĭ¤
İ Ĩåı
Ķ Ħë¡ľ
ĸ è¾
ĺ ¯åĲ¦
ļ ©ìŀ
Ľ ç¨
ľ ìĿĺ
Ŀ ìĪĺì
in p
in fer
er ature
re ply
at ten
st udent
se ct
le Speed
Ġa head
(" ]
(" --
(" ########
al one
Ġs r
Ġs atis
Ġs andbox
Ġs lice
ti st
Ġc re
Ġc ategory
ar ms
ar gest
Ġp o
Ġp oss
Ġf alse
Ġf ailed
Ġf ash
Ġf ounded
Ġre str
Ġre fi
ss h
ic search
Ġo th
ac ion
ac cess
Ġn ative
Ġn anoseconds
Ġb d
Ġb lock
Ġin voke
di git
di rection
ex pr
ex ports
li ant
ot p
ot or
ot ools
ec tr
un i
un ct
un ded
un nel
fi d
Ġ' '.
Ġ( ~
Ġr an
up channel
Ġfor eground
Ġan ame
Ġan im
ĠS H
ĠS yntax
is otp
Ġd os
ĠP er
ĠP ass
ĠP attern
ĠP urposes
ĠA ttributes
am d
ĠL ookup
Ġdi gits
ĠI pv
ul che
ub lish
Ġse curity
(' /')<
Ġth ree
00 1
00 2
Ġ2 34
Re gex
Ġ[ \
et work
Ġg bansdb
ĠD ep
um en
ĠF L
ĠF ast
ĠF ernet
iz es
par sed
ag raph
Ġy et
Ġy ear
Ġde velop
Ġde termin
ĠM o
ĠB B
ĠB ut
set Formatter
ange s
pre pare
ER IA
sc ope
ass ignment
In formation
In Active
fo und
######## #<
ok ens
ĠE du
ĠRe po
ĠRe mote
text o
user bot
py openssl
ĠH KEY
RE PLA
Ġab is
Ġpr ivatedb
ĠW inter
ĠW hat
Ġpre processor
Ġcomp ression
Ġcomp ressed
Ġit alic
Ex pi
Ex ists
SI MP
], [
min us
Ġno se
cache str
cache points
Ġclass Dict
En code
Ġtext variable
wa ist
wh itespace
Version Error
UR CE
Ġout p
SL ACK
Ġle dger
################ ####
IT ER
Ġformat ted
back trace
back slashes
cs ize
Ġpl atlib
]) ):<
Ġwr iter
Par ameters
Par tial
Ġparse Fragment
Ġbuild sys
Un available
Ġsp inner
ĠJ ugador
File Name
cation al
ĠBase SSLError
main loop
lower case
train set
Request s
ach ing
ID D
VER IFY
Ġac tive
Ġac curacy
22 31
match ing
cre te
ĠAr ms
Cache Key
This Lim
tle Ped
Ġdjango chat
Ġ'. '
ha ha
DI O
Pro mpt
ĠFile Exists
Get Console
Get Std
color ama
no ise
Ġæ ĺ¯åĲ¦
åħ ¬
ĠSo ulche
obj p
ins ensitively
11 1
filter name
ĠString Var
HTTP ConnectionPool
system Id
Data Frame
Data Trans
MENT S
CH ANG
TE ST
UN C
íķ ĺ
íķ ©ê²©
Ad mission
ĠGener ate
De velopment
ĠCh ange
ĠCh ats
æĶ ¶æķ
Ġseg undo
Cont ours
Sh ow
hic leSpeed
ĠLink s
äº Į
Di rect
ĺì ľ
Ġsel ected
rot tlePed
prec ision
Ġne ighbors
ĠPro vides
Ġinclude s
Vi deo
Test Case
hex digest
Ġfe ature
fir m
He ight
su me
Ġsepar ated
gener ate
Message Pr
Ġjust ify
Ġprop erties
æł ·
Ġí ĶĦë¡ľ
fl atten
ĠâĸĪâĸĪ âĸĪâĸĪâĸĪâĸĪ
ched uler
Ġcons istent
(.* ?)
resp ond
namespace URI
ä¼ °
Child ren
cal csize
ĠApp Engine
Ġuti li
Ġ{} '.
REQUIRE S
Function NotSupported
¬ì ļ©ìŀ
itable Partial
ĠDec odeError
Ġcontrib uted
ĠRaw CAN
Ġescrib io
Ġescrib iÃ³
ali ases
Ġattemp t
CE MENTS
So cket
SER VER
Ġoptim izer
optim ize
Ġascii Upper
Ġaccess ible
Ġsimple json
mission Range
BACK END
1234 5678
Do ck
Pre processor
Ġquot ation
pri ority
Ġdownload ing
æĢģ åĵįåºĶ
Ġfree ze
ĠLog Loss
separ ator
Ġtur ns
Ġcor respond
ĠBinary IO
ê° ľìĿĺ
convert To
ĠSocket Timeout
åĲį ç§°
Ġredirect s
ìĪĺ ë¥¼
pac a
å½¢ å¼ı
}% "<
çĽ¸ åħ³
JSON PATH
ë¦ Ħ
ĠSte p
Ġconv ention
public Id
ê· ¸ë
Ġpyt tsx
Ġartic le
bu leano
å· ¥åħ
Installation Candidate
As ync
vol umen
å¹ ¶
lik ely
>################################# #########<
Ġask ed
Ġinterpre ters
åĨħ å®¹
CRIT ERIA
ĠåĽ¾å ĥı
ê³ ł
ĠLo ad
ĠLo ck
ĠëĤĺìĿ´ ë¥¼
('% .
Conflict ed
Ġdescrib ed
ĠìĤ ¬ìļ©ìŀ
ĠDanI Admission
Ġwildcard s
æĹ ¶
Ġrot ation
Ġsecure transport
ĠDis content
ë³ Ģ
Ġgot s
çĽ´ æĸ¹
Imp ossible
ĠIP v
Sc ope
UP STREAM
jmar otools
suffix es
Ġbeg in
Ġinsert Before
Ġrow s
ĠFun ction
ĠSplitting Info
ðŁĺ± ðŁĺ±
DateTime Field
destr oy
ĠPri orityQueue
provid ers
Ġatt ack
æīĵ å¼Ģ
Ġder ived
Ġliter als
Exchange List
ĠíĻ ĺìľ
Ġer ros
unit test
Ġintrodu ced
Ġmean ing
Algor item
ingleByteChar Set
Traceback Lexer
åĬ¨ æĢģåĵįåºĶ
æĢ§ åıĺå
consistent Candidate
456 76
AU DIO
CTR L
PAT TERN
Part y
³å®ļ æĢ§åıĺå
å¢ŀ å¤§
ìĭľ ê°
İĨåı ²
ĸè¾ ĳ
Ľç¨ ³å®ļæĢ§åıĺå
Ġfash ion
Ġrefi ere
Ġoth ers
ectr onic
unct uation
Ġanim ation
InActive Session
ĠEdu cational
REPLA CEMENTS
Expi red
Parameters Info
ThisLim n
ĠFileExists Error
GetConsole Mode
GetStd Handle
ĠSoulche mist
DataTrans mission
CHANG E
æĶ¶æķ Ľç¨³å®ļæĢ§åıĺå
rottlePed al
MessagePr io
ĠíĶĦë¡ľ ê·¸ë
ĠRawCAN Transport
missionRange NotIn
å·¥åħ ·
ĠìĤ¬ìļ©ìŀ Ĳ
ĠDanIAdmission Scene
ĠíĶĦë¡ľê·¸ë ŀ
" [-
( ("
) ^
* (
- _
. ")
6 8
8 3
9 2
: (
: ])<
> }
> ----------------
? ([^
A X
A VE
B ox
B oost
C an
C ython
C ast
C ATION
D eleg
F ORMAT
H AND
I DE
J I
J ustifyMethod
L inear
L ocation
L ocal
M S
M an
M ulti
M ONGO
N ORM
O AUTH
Q LAlchemy
R out
S ample
S quare
S elect
T ool
W here
[ (
[ ^
[ {}
] "
] ",<
c lib
c ould
c ategory
c erts
d ark
e il
f allback
g m
g res
g roff
h f
h os
i re
i ron
i kipedia
j y
j ython
j oy
k alman
l ue
l ugin
m ark
m yscrap
n ally
n ump
o space
p tim
p ower
r st
r ip
s ul
s imilar
s lash
t z
t cp
u ssion
v ant
w indll
} (.*)")<
¡ çĲĨ
¸ ª
½ ¬
Â ł
å Ŀ
å ±ĤçļĦ
æ ¯
è ¸ª
Ġ --------
Ġ urls
Ġ quite
Ġ likelihood
ĸ çļĦ
in ion
in spec
re pository
re curs
at ter
Ġt f
Ġt ensor
om as
se c
le and
le ave
al ys
al abel
al pha
Ġs yste
Ġs iblings
de e
Ġc reating
Ġc aching
Ġc eil
ar ri
Ġp ur
Ġf g
Ġf ancy
it ect
Ġre ported
Ġre ports
ur n
Ġo b
""" ,<
ac ity
Ġn om
Ġb ec
Ġb ind
ent e
ex pression
ex pires
li ps
># ##
ĠT ools
ĠT fidf
ec ker
un c
Ġm ute
Ġm ulti
Ġm agic
## #<
Ġ' (
Ġ' **
ad ers
ce pts
tr i
tr ust
Ġis olated
th ough
ĠC ould
ĠC PU
ĠS lack
ĠS QLAlchemy
Ġd rop
Ġd lm
ĠP err
ĠP alette
ĠA da
ĠA PP
am ic
id om
as d
ab e
ĠL a
Ġstr to
() ).
() ``<
ch unk
ch mod
con ditions
con sume
Ġse gments
(' &
log its
00 20
Ġ2 56
Re ferences
ro ute
ve m
Ġg pu
Ġ""" \<
ĠD oc
ĠD IS
Ġx term
if f
ĠO VER
Ġfile path
Ġfile cmp
ib r
iz ing
Ġh igh
Ġh uman
Ġex ternal
par ation
ĠU N
so las
Ġde comp
Ġde ep
Ġde cor
Ġde dent
Ġde signed
Ġ* ,
EN ABLE
ĠM se
ĠM SV
ĠB e
ĠB uffer
ĠB roken
ĠB ecker
Ġ{ :.
pre fs
Ġpro vid
Ġtr iple
ĠE MO
ĠE mpty
ĠRe ading
ĠV endor
ON LY
ele vant
ĠIn herit
ĠIn tro
ĠUn known
Ġu ds
Ġme trics
Ġun hexlify
Ġ3 60
ou se
ĠH ook
ĠH andle
ĠH SV
Ġch oose
Ġch oices
split lines
gr ay
ved References
Ġpre tty
Ġpre pare
Ġpre paration
yn amic
AN Y
io us
ff ee
Ex traData
LE AVE
po sed
Ġsup posed
Ġno ise
Ġno inspec
ens ity
ĠG it
cache able
dat ing
dat asets
Ġnum eric
add Menu
ren cy
En coding
Ġal ter
Ġal ph
wr apped
Ġ/ <
Ġbase s
Version Control
ĠSt oll
mon key
Ġco variant
12 7
Ġdo uble
ä¸ ²
ä¸ ĭ
Ġsub dirs
") )
ĠPy Un
ĠMe dia
Ġwr apping
Ġass ertion
Ġass ignment
sup ports
ast Square
Ġcache able
Tr y
Ġshould n
UDS Request
Ġinter nally
Ġk itchen
red enti
red uce
co ord
çļĦ åĽ¾çīĩ
enti ties
doc ument
Ġsc ope
Ġglob als
Request Warning
Ġend points
has hed
ong o
au sed
Ġgener ator
Ġplatform dirs
ĠSet up
ĠHTTP HeaderDict
Ġac ross
Ġac cepts
Ġtree walker
Ġid entifi
Ġdat os
Ġread s
ci al
AB ASE
(( (
Ġcom ma
Ġcur rency
NA O
ĠEn cap
Ġentr ies
ĠK enneth
tree builder
ĠTh omas
cmd line
Ġdoc uments
Ġover write
Ġhelp ers
sv g
Ġreg ion
ĠY ork
]] ]<
Console Fe
HTTP Connection
HTTP HeaderDict
Ġè ½¬
Ġ~~~~~~~~~~~~~~~~ ~~~<
render DepthImage
Ġlanguage CB
Ġ". ".
MA P
Ġhand led
ĠDefault Dict
ç» ı
åĽ ¾
åĽ Ľ
De e
Token Formatter
post gres
case s
}) '<
Ġresol ved
Ġ... ,
Ġ... ]:<
]+ ")<
ĠRo bin
}] *)
resol vedReferences
Ġbl end
ĠTr ain
Ġdebug ging
make file
Ġkeep ing
iction s
Ġtrans l
Check s
cap it
(\ (.*
éĩ Į
PATH S
cp u
MODE L
tok ens
ĠComp at
æİ ¨
Ġconnection s
789 5
Ġtrack s
Size Enum
Ar ch
SV C
Ġtable s
cal ls
([^ }]*)
Ġuti me
201 5
CON TENT
åľ °
ĠWindows ConsoleFe
38 5
Ġred act
ĠLinear SVC
Ġexp ect
ĠYou Tube
Ġnet box
_. ]+")<
Ġhex lify
Ġè® Ńç»ĥ
Ġç ¬¬
Ġlower case
ĠQu an
DAT ABASE
Ġmon otonic
Ġmon ospace
*) \
position s
ĠHel p
ĠHel ler
Ġ"/ "
ĠAuth entication
assert True
ĠCandidate Lookup
cooki e
Ġgre mio
ĠMA X
Ġest ab
Stack Error
Rec ord
walk ers
Ġwalk ing
Ġaio files
Ġcor ners
Ġknow s
Ġthrough out
gen shi
Ġly r
ĠWr itten
Ġspecify ing
ç® ¡çĲĨ
ĠPadding Dimensions
ĠLayer Param
By Identifier
è§ Ĥ
Ġrecurs ion
ĠFr action
ĠDat asets
ĠPet SizeEnum
Norm alize
SH ORT
We b
ĠHe aders
âĢĶ âĢĶ
ĠParser Element
ĠUD SException
clean up
çĬ¶æĢģ åıĺéĩı
>`_ .<
dec imal
Ġph one
ĠEd ge
Ġbar code
Ġhack ed
ĠHash Mismatch
Trans form
å¼Ģ å§ĭ
Ġip address
lap se
exclusion s
Attribute Error
aut oreset
ĠKe ys
prot ected
ĠXCP Service
Photo Image
)? $
éĹ Ń
TO ML
Ġsimp ly
ĠSupports Int
æį¢æĪĲ åĪĨå¸ĥ
("{ ([^}]*)
REG EX
Ġche ssboard
ĠVoting Classifier
ĠDev Studio
Ġinstanti ate
NE WS
ĠEmoji Variant
Ġcoun ts
Chunk Length
depend ent
Ġë°°ì Ĩ¡ë£Į
see k
ĠLe astSquare
ĠEntry Point
Ġ---------------------------------------------------------------- ---<
Ġåħ ³
Kalman æ»¤æ³¢
ĠDep endencyWarning
ĠRemote NotFoundError
"[- _.]+")<
Tool Bar
[{} ]
iron python
sul ates
Ġtensor flow
Ġsyste ms
itect ure
Ġbec ome
lips is
ĠTfidf Vector
Ġdlm ath
ĠPerr y
ĠAda Boost
Ġstrto bool
consume s
ĠDoc ument
ĠMSV CCompiler
Ġprovid ing
ĠEMO JI
ĠIntro Scene
ĠHook Missing
Ġnoinspec tion
Ġalph abe
ĠPyUn resolvedReferences
redenti als
ĠEncap sulates
ĠWindowsConsoleFe atures
("{([^}]*) }(.*)")<
ĠLeastSquare Loss
$ ",
% +
( %
( ('-
) ",<
) ),<
) ):
) }"<
+ {
+ ':<
, (
- {
. :
/ ")<
0 8
1 32
3 60
6 9
8 22
8 74
: ",
; '
> âģĥâģĥâģĥâģĥâģĥâģĥâģĥâģĥâģĥâģĥâģĥâģĥâģĥâģĥâģĥâģĥ
@ -
A F
A G
A tras
A CCEPT
B it
B NC
C lean
C amera
C DATA
C apture
D om
D raw
E C
E V
E ix
E LS
F al
F ig
F ib
F OR
F RA
F etch
G if
G MENT
G reen
G LOBAL
G UI
H U
H i
I R
I V
I llegalResponse
J ar
L et
M OT
M MENT
M IDD
N OT
N OF
N aives
O w
O DD
P M
P ers
P ango
P ager
R ich
R ENT
R enderResult
R oot
R angoli
S ound
S SION
S prite
T P
T erm
V u
W G
W ord
X Frame
X CP
Y ES
Z EN
_ ,
_ /
_ ]\
b b
b li
b io
b idi
c ar
c ing
c am
c os
c gi
d ic
d ers
d type
e m
g ive
g asol
h one
h ouse
j ack
l ls
l inha
n fc
p ang
r n
s b
s or
s kip
s prite
t forms
t wine
u z
u er
u as
u ctions
v en
v ic
v os
w er
w ap
x term
z ma
z io
} },<
¢ å¤į
© è§
¸ ìļ
¿ «
í Ĵ
Ġ ìĿ
Ġ åĪĿå§ĭåĮĸ
Ġ ä»¥
Ġ ataque
Ġ ä¿ĿåŃĺ
Ġ åĪĹè¡¨
Ġ ä¼łåħ¥
Ġ helpline
Ģ ê²©
ģ è®
Ħ ¸ìļ
Ī ìĿĺ
ī æĭ
į ç§»
Ĵ èī²
ĸ ¼
in a
in o
in stead
in ho
in ja
in ners
in Î±
er no
re name
re size
re map
re pe
mp lot
Ġ= "
at tle
en semble
pr ice
mport ar
lo se
Ġt c
Ġt it
Ġt wine
om arkup
om eless
Ġw xkey
Ġw tforms
se gments
le ading
Ġa ce
Ġa label
al ise
al cool
al uno
Ġs f
Ġs ay
Ġs lic
Ġs ending
Ġs wap
fr ase
Ġimport er
Ġc as
Ġc arr
Ġc pu
Ġc words
ar ded
Ġp i
Ġp il
Ġp ull
Ġp urposes
Ġf ac
Ġf oot
it ow
it os
it yn
Ġre ally
Ġre ached
__ )
__ `
__ _/
ut s
ut ing
ut ch
Ġn ull
Ġb on
Ġb ol
Ġb ug
Ġb athroom
def late
ent ro
Ġin str
Ġin cluding
di esel
la ve
ed u
ex cel
ex change
ex traction
ot ed
ĠT AR
ĠT EXT
ĠT elegram
ĠT anh
un defined
fi la
Ġm f
Ġm i
Ġ' :<
Ġ' ))<
Ġ' +':<
ue print
Ġ( /
ad as
ip y
ip ython
Ġfor a
tr ape
od Config
th an
ĠN B
ĠN O
get ChildNodes
ĠC A
ĠC reated
ĠS at
ĠS igmoid
ĠS uer
ĠS lave
is lower
sp inners
Ġd t
Ġd ump
Ġd uas
Ġd entro
ĠP oint
ĠP LAY
id entity
Ġv ery
Ġv ez
as hes
Ġint ention
ab ling
ĠL AB
ĠL oss
ĠL BRACK
ĠL imit
for a
Ġdi f
Ġdi ff
Ġ1 50
Ġstr ide
ki lls
and BG
Ġ__ _
Ġ+ <
ĠI s
ĠI tems
ul li
(' #
Ġcon fid
ation Function
00 7
com mit
ist ing
Ġ2 3
pro c
il li
Ġg round
Ġg roff
ĠD om
ĠD TC
Ġx shape
ĠF ollow
ĠF lat
Ġ_ `
iz ers
ject Build
Ġh ours
Ġh eroku
Ġex cl
Ġex traction
:// ``
ag ain
ĠU S
Ġy t
que es
Ġde vice
ai yi
Ġ* ********
ser ializers
ĠM Y
ĠM ust
ĠB U
ĠB Z
ĠB asic
ĠB ox
ĠB leach
ĠB ootstrap
ĠB erno
und ant
Ġel im
url ToImage
Ġname prep
fig urinha
Ġbe st
Ġst arg
Ġst derr
ER MAN
ma ker
Music Library
code c
sc ente
vi val
ĠR BRACK
ĠR angoli
ĠR PM
im o
ĠE C
ĠE poch
ĠE ven
Con vert
ĠV AI
ĠIn completeRead
ĠUn ix
Ġu label
Ġu vic
Ġme s
Ġme t
data Base
Ġun expected
Ġun known
ĠH X
ĠH old
ĠH ighlighter
pec tive
Ġar du
are house
Ġare a
ĠW arehouse
Ġpre ference
qu ar
Ġwe akref
=" (\
Ġunder stand
ff ff
Ġ` __
son g
LE WARE
Response Exception
sol ve
=' \
ĠG ET
label t
label er
** *<
AT WG
ST EM
Ġal gorith
Ġal though
spec ial
Ġlog tools
UR VI
Ġiter ator
Ġ4 0
Ġ4 27
Ġle tras
): .
cl ick
Ġ| -
Ġ| /
Ġ| __
Ġ| _<
St atic
mon otonic
Ġ5 000
Ġ5 03
IT AL
wait Key
Ġformat date
NU LL
Ġco mportar
12 35
cs rf
dist ort
") ]<
AL LED
Ġsa o
EX EC
reg ular
ĠPy Pi
si mple
Ġass istant
Ġass ume
Ġnew line
Un recognizedFormat
Un distort
Ġren ders
ĠJ ust
ource Cache
File Wrapper
Set Reader
expected Response
ans itow
sub ject
sub string
Ġes cap
Me di
AS K
Ġì ĥĿ
ĠX Z
Ġsc ipy
Ġ"" )<
Ġ"" ))<
other file
Ġbreak point
Request Error
Ġmax imo
Ġsome file
Ġsome otherfile
COM PRE
"] ,<
[: ]<
åĪ łé
ĠSet FileAttributes
ĠHTTP Adapter
angu lo
Ġdat asets
Ġread ing
Ġ200 5
context j
context o
platform s
Ġmat ched
Ġ6 00
Ġtoken izer
loc show
Ġlabel t
17 9
Ġconver ting
fe ito
gi ao
Ġentr adas
ä» İ
ä» ĸçļĦ
Ġ7 2
Ġå °
Ġå Ĩ
ĠQ Application
Ġ'. '.
Ġla z
ĠK aichia
Comp at
Pro vide
Pro jectBuild
lot hes
ĠFile systemWheel
**** ***<
Ġlink ed
Ġcover ed
Ġpos icao
Ġæ ıĲ
åħ ±
åħ ģè®
ĠTh en
content types
filename s
USE S
ìĿ´ ì
Options Middleware
Ġhe ss
new s
new List
BO LD
ĠY OU
Ġoption ally
img lbl
Invalid Codepoint
Ġ~~~~~~~~~~~~~~~~ ~~~~~~~~~~~~~~~<
... ")<
Ġ8 00
Ġ8 000
CH ANN
Ġloc show
Ġattribute Map
Ġlook ed
MA GENTA
Install er
Install ing
gn b
regex es
Ġsession maker
ĠGener ator
>` _.
Ġper c
Ġper feito
De ja
IL INE
Ġthere fore
uff t
det ect
40 4
ĠAPI s
Ġ"\ "
ush ort
Ġmo v
ertif icates
RA Y
cy rillic
ful ly
Ġlocation s
Ġpick ling
Session Middleware
PRE V
FO UND
}] "<
Ġ9 9
Ġcal ibr
Gener ationFailed
WN ER
Min imum
Py ProjectBuild
ĠColor System
TRI ANGULO
OP TIONS
Fun cs
IM PORT
Wr ap
hex version
He uristic
Ġsystem Id
]* [
gener ated
Message Middleware
event s
static files
OL LOW
ĠPar ameters
çĶ¨ äºİ
Sub Funcs
awn ser
Ġusage s
CUR RENT
ĠResponse Error
SON G
ä½ įç§»
29 0
Platform Warning
å¯ ¼
Ġplay mode
Ġmap s
>`` """<
ĠData Loss
ĠData SetReader
View Middleware
gument DefaultsHelpFormatter
ĠRE QUIRE
US AGE
éĢ ļ
éĢ īæĭ
ĠTemp late
Read TimeoutError
æĸ¹ ç¨ĭ
CY AN
Missing Warning
Ġgo od
Ġgo ogle
Ġ(_ |
Ġlocal rev
Doc ument
Ġred o
Ġred undant
27 28
Ġsug gest
oper ations
Start Tag
Ġpositi vos
Markup Formatter
Ġextract ing
Ġkeyword s
az ing
rf ViewMiddleware
ĠStr ings
ĠStr ucture
State Error
WH ATWG
predict ed
Ġentrypoint s
ĠGeneric Meta
Ġoptim izers
Def ect
combin er
åĪĿå§ĭåĮĸ å¯¹è±¡
("" .
Do uble
åį ·ç§
Ġclean up
valor es
ĠTimeout StateError
Ġrec ogn
Ġvirt ual
cooki elib
Ġdec imal
ĠRead s
Ġprim o
Rec ogn
å° Ķ
Ġbrand s
Activ ityn
ea f
åĽ¾å ±Ĥ
æīĢæľī åľºæĻ¯çļĦ
çŁ© å½¢
APP S
Ne arest
Ne ighbour
ĠPO ST
("/ ",
Import er
roff Formatter
Lay er
Lay ers
Security Middleware
Val ores
å»º æ¨¡
sax utils
tmp l
Ġperson s
Ġê° Ģê²©
Ġ'- ')))<
ĠSh ift
ĠSNI MissingWarning
ĠDI FF
Ġparticular ly
ĠMetadata GenerationFailed
plac as
Ġå® ŀçİ°
dent ro
comm unicationLTD
Ġdeprecation s
Ġdigit o
Ġdigit al
Ġenc odings
Unpack Exception
Unpack ValueError
Fe b
Form erly
Pip Session
brand s
Installation Result
09 6
ĠBl ueprint
Ġenti ties
Common Middleware
>~~~~~~~~~~~~~~~~ ~~~<
col lapse
Ġsuffix es
Ġtermin als
Log o
Ġrename Files
Ġdirec ao
Ġnatur al
Ġmar quees
ĠNE WS
ĠCallback FileWrapper
ĠSpec ific
ĠPr ivate
Ġengine ering
Ġmedia LibraryManager
mong odb
Valid ationError
Ġdescrib ing
Your Formatter
ĠìĤ ¬
ĠDanI InterviewScene
è¡Į äºº
Emoji Variant
ĠKe ep
Ġfig urinha
Ġfig urinhas
Ġ36 5
linen os
@@ @
pg user
ently Used
ĠCO MMENT
INST ALL
INST ALLED
ĠInsecure RequestWarning
ĠInsecure PlatformWarning
Ġreferenc ing
Ġreferenc ed
ĠBGM Service
44 3
Pack er
}' ".
Ġdeclar ative
åĽ¾åĥı è·¯å¾Ħ
Ġsuccess fully
Url ValidationError
tf Formatter
Ġsour ces
ĠOut put
ĠMal a
ĠMain GUI
ĠEvery time
STAT USES
Ġìĭľ ë¦¬ì
ĠæĮĩå®ļ åħģè®
ĠSUPPORT ED
ĠWeb Driver
ìĥģ íĴ
Ĭ½ è±¡
Ġpublic Id
ĠDiagnosticSessionControl Response
CLE AR
UD SException
dl p
ä¾ Ľ
çī ©
Ġrout ines
ĠLO WER
Ġhal f
Ġdev pi
äºĭ çī©
Ġç³»ç»Ł å»ºæ¨¡
Authentication Middleware
_|\ __,
ĠÎĶ t
Łå¤± åĩ½æķ°
ĠTH AT
Ġ<! --------
Ġhospitall ngs
Ġear ly
ĠHE AD
TRAN SL
xmlrpc lib
Ġë³´ë Ĥ
('\\') [
æ¸¸æĪı ä¸»
Men lo
pk gs
Ġsol ve
Ġ*_ :
>################################################################# ############
Cs rfViewMiddleware
MULT ILINE
Top level
circu lo
hyp hen
iet f
mor adores
çº §
ĮæĪĲ æīĢæľī
Ġbund le
ĠAct ually
Ġthrow ing
ĠMon o
Ġmechanis ms
Ġaltern ative
ĠMemory Wheel
Ġindic ating
Ġpytg calls
FedXGBoost Tree
ĠActiv ationFunction
Cookie Jar
published At
Regex Lexer
ĠFast API
Deleg ate
Location ValueError
Ġ-------- ><
tri angulo
ĠVendor Importer
dating DefaultsHelpFormatter
ĠMedia LibraryManager
UDSRequest Config
è§Ĥ æµĭ
Web Engine
(('- '.
Atras o
EV EN
Eix o
Fig ure
FRA GMENT
HU B
IV ATE
Let ters
MOT OR
MIDD LEWARE
NOF OLLOW
Pers pective
Word Unicode
XFrame OptionsMiddleware
bli que
cam el
cos Î±
jack ing
pang omarkup
©è§ Ĵèī²
Ħ¸ìļ Ķ
repe tidas
Ġtit ans
Ġace itos
Ġslic ed
Ġcas as
Ġfac il
Ġinstr uctions
trape zio
ĠSuer te
ĠLAB ELS
Ġdiff ers
Ġconfid ence
ĠFlat ten
again st
Ġ********* *******<
ĠBerno ulli
Ġstarg azing
ERMAN ENT
Ġuvic orn
ĠHold s
Ġardu ino
Ġalgorith ms
URVI VAL
click jacking
ITAL IC
Ġcomportar am
ansitow in
ĠìĥĿ ìĦ±
COMPRE SSION
åĪłé Ļ¤
ĠæıĲ ä¾Ľ
CHANN EL
Deja Vu
Ġcalibr ation
PyProjectBuild Requires
ĠDataLoss Warning
éĢīæĭ ©è§Ĵèī²
Activityn um
Ġê°Ģê²© ìĿĦ
entlyUsed Container
Ġìĭľë¦¬ì ĸ¼
ĠæĮĩå®ļåħģè® ¸
ĠWebDriver Wait
ìĥģíĴ ĪìĿĺ
" %
" (
" (?:\
' ])
) '
) ",
) '<
+ (\
+ -]
, )
- *.
2 4
2 34
4 03
4 48
7 9
: {
: ]}
; ").
= ["
? )<
@ ").
A m
B lock
C S
C ur
C EL
C ertificate
C ounter
D es
D artboard
D iscord
E EX
F D
F ORM
F PS
G ui
G INE
H ighlight
H Max
I tem
I BLE
J K
J ohn
M U
M ac
M sg
M ake
M urderer
P ower
R aise
R IGHT
R BRACKET
R PAREN
S ex
S Max
S andbox
T odo
T itle
T imer
T ADATA
U U
V Max
V ORITE
W ay
Z eroOrMore
[ ]")<
_ .")<
a abboxes
a ffine
b f
b et
b path
b und
b ca
b asename
c are
f ec
g ular
j u
l strip
n y
n an
p c
p ets
p olic
r ack
r ailroad
s id
s ome
s andbox
u a
u ec
w itch
x ff
z a
z il
¤ åı·
¥ ½
¬ ¦
° æį®
´ é
» åıĸ
¼ âĶ
Ã ¡
æ ¬
ç ı
è İ·
é Ľ
é ľĢ
ì ľ
Ġ ort
Ġ low
Ġ ),
Ġ ])<
Ġ ],<
Ġ editable
Ġ ~~~~~~~~~~~~~~<
Ħ ìĿĺ
Ĳ ",
ĵ åĲį
ķ °æį®
ľ èī²
ľ âĶĢâĶ
Ŀ å®
ŀ æİ¥
Ń çº§
or ated
or arily
in crement
re w
re port
Ġi a
Ġi e
ort h
en ge
en gin
pr imary
Ġt t
Ġt ails
Ġt reated
Ġt unnel
le ine
Ġa len
Ġa mong
(" ("
(" \\
(" >=
(" )").
(" ;").
(" @").
al er
al ter
Ġs id
ti ce
Ġc ython
Ġc enter
Ġc ategories
he m
he et
ar ity
me an
Ġp are
Ġp ublish
Ġf lex
Ġf resh
Ġf mt
it elist
it alic
Ġre sources
__ ))<
Ġb o
Ġb unch
Ġb rotli
def s
ent ype
Ġin sensitive
di ag
la red
Ġ" (
ec ode
ol tage
un named
-- [
Ġm arker
Ġm svc
Ġdef ects
Ġ( :
Ġ( ((
ment al
Ġr fc
Ġis dir
Ġis Empty
od oc
Ġ# <
Ġan alys
Ġan gular
ĠC all
ĠC atch
ĠC alcul
ĠS IG
ĠS election
ĠS peed
ĠS DK
Ġd artboard
ĠP ic
ĠP DU
ĠA T
id am
as semb
ĠL EX
and ard
() )("
ĠI mplements
(' ',
(' %(
Ġprint ed
Ġcon straint
all enge
Ġ2 30
Re f
Re ject
Re set
Re parse
Re move
Re gistry
ro i
Ġg c
Ġg reate
Ġg uide
Ġ""" ``
ĠD ownload
path items
ĠF e
ĠO ver
ĠO verflowMethod
ct or
iz able
Ġh Max
Ġex ha
Ġex clusion
`` :<
par sing
ĠU NI
ure Tree
file controller
Ġde init
EN GINE
ĠM an
ĠM CC
ĠB ot
ĠB astian
Ġel en
Ġel ectronic
set TrackbarPos
set Property
SE MICOLON
Ġpar agraph
pre fer
url patterns
Ġst ale
inter face
gs heets
ma intain
ma intenance
Ġpro c
qui et
Ġe ager
ĠR BRACKET
ĠR PAREN
ĠR SS
ĠR aspberry
ĠR anges
IN SER
ite on
In tr
In stance
In FileName
fo ld
fo unded
ĠE quality
ĠRe place
Ġset Up
ĠIn stan
ĠIn stead
Ġme asure
data Frame
Ġun n
Ġ3 3
Ġ3 01
Ġ3 600
Ġpy gsheets
Ġlist ing
key word
Ġpath name
RE TR
RE SH
Ġj ugador
Ġsh own
Res olution
": "
sh ort
Ġcan ny
Type Registry
PE ER
ĠCon text
gr ad
gr ading
gr ade
ĠW H
mo dified
append Child
Ġcomp ilers
ud a
ud rate
ff set
ff ects
ĠPython Version
Ġhas Children
iter keys
Ġlo aded
ST ALL
Ġclass name
ME TADATA
Ġrun py
ak yRe
Ġal paca
Ġlog its
Ġapp lying
Ġro i
ep at
Ġfiles ize
ĠSt andard
Ġdate fmt
Ġco ord
12 3
Ġpl us
env build
ä¸ Ĭ
") ("
arg types
temp o
temp t
temp lates
ĠPy Py
aliz ing
oken izer
ENT ITY
Ġup grading
Key BasedCompareMixin
Ġbuild s
Un able
Not Available
Ġsp am
ĠJ oy
File Cache
LT okenizer
Ġarg v
message Content
Ġtok list
als Image
fer enc
co ffee
pos ix
run And
Ġsc ale
Ġsc aler
FA VORITE
num eric
10 4
Request History
Ġmax imal
Ġend ing
Ġsome how
ĠInvalid Marker
Ġfind er
au ses
Ġhash able
Ġac c
Ġid x
Ġid le
Ġid entic
Ġma ster
ĠCommand s
22 1
Ġread er
ĠAr ch
loc als
Ġdict s
fe ature
Ġ() ))<
Id List
Ġentr opy
Ġneed les
ĠK leine
)) ]<
Control Type
Control Code
.* ',
tree Type
Ġæ ¨¡
Ġæ ļĤ
Ġæ ķ°æį®
res izable
Ġdep th
obj s
Ġstat s
play type
ĠRes olver
img Path
ĠRequest Methods
PY PI
Invalid Marker
Data Base
replace ments
>) ("_
... \
Ġ12 34
bar s
ĠFor ward
CH INE
ES CA
TH RESH
ĠSO L
MA CHINE
token izer
NAME D
ĠCh oice
Class Var
NI ST
Sh ort
ĠParse Float
Ġdis continued
å® ŀ
Ġfilter name
Ġusers db
]+ \
Ġact s
Ġver b
Ġver tical
15 00
cy gwin
Ġiniti alization
Di agram
Ġstand ing
Ġstand alone
Ġchange d
var fmt
ĠLegacy Specifier
ĠReg ression
âĶ Ĥ
Qt Gui
local time
local host
Py gments
Py Chain
ten ded
graph ic
rec tive
column s
Ġauth entic
Ġauth userdb
ĠDi rection
ĠKey BasedCompareMixin
ĠUnsupported Extension
ĠGet ting
su med
CRE ATE
ho graphic
ref resh
send to
trans forms
Hook Missing
æĢ §åĪ
ç±» åŀĭ
Ġgr id
quot es
App lied
ĠImage Font
ĠImage Draw
ĠĠĠĠĠĠĠĠĠĠĠĠĠĠĠĠĠĠĠĠĠĠĠĠ ĠĠĠĠĠĠ
the ta
fn match
è® ¡
è® ¾
å§ ĵåĲį
è¿ ŀæİ¥
86 01
tok entype
ä½ ĵ
STR ONG
over write
å¯ Ŀå®
namespace HTMLElements
Ġtrack bars
SO URCE
norm alizer
Ġcap ture
kind s
ĠApp le
åŃ¦ åı·
ĠSE MICOLON
Ġgo es
ĠTree Node
oper ador
Ġchats db
HTML Parser
Ġexp val
Al bum
Ġquery set
Ġexit code
+) *\
Le akyRe
day InFileName
Ġnet work
Ġstd lib
Ġjoin String
Ġsign ature
Ġascii Letters
EXTR A
ĠQu oted
é¢ ĺ
é¢ ľèī²
combin ing
1234 45676
Auth or
card s
Ġmac osx
Ġquot e
Det ector
ĠYukki Bot
mono font
My MainWindow
Ġest a
align ed
Activ ation
"^ \
("- _.")<
APP ENGINE
Ne ighbors
æŀ Ħ
Ġsudoers db
Ġ"âĸ Ĳ",
5678 12345678
disc over
bound s
Legacy Specifier
disable d
=[ ('
ĠâĶ ľâĶĢâĶ
By Address
Add Th
Back end
19 6
ming ju
utc now
ĠPet Kind
ĠPet Sex
Ġconv enience
Norm alsImage
Ġchunk ed
Pip Error
å· ®
Ġref resh
çŁ©éĺµ çļĦ
Match er
sur rogate
å¹ ´é
ĠTyp ically
ĠNAME D
å¸ ¸
Ġè¿ ĶåĽŀ
"[ ^
Per centual
Ġopt sep
ĠPART Y
Ġcond ic
ĠMissing Response
ĠEd itablePartial
=", ",
Ġqui rks
ĠIN STALL
ĠMy Widgets
.*? \
Ġregard ing
ĠRegion Dock
Valid ator
ĠBad Command
ivers al
æĹ łé
Ġrot ate
linen o
tab lename
your Discord
éĹ ´
ĠRec ord
ĠRequire ments
ird Party
ĠResolution Impossible
conf str
Ġdeclar ation
sched u
Program ming
(", ").
Ġmark s
Ġeff ect
ĠUndefined Comparison
ĠUndefined EnvironmentName
Ġconfigure d
Undefined Comparison
Undefined EnvironmentName
ĠBackend Invalid
ĠBackend Unavailable
ĠâĶĤ âĶĤ
Align Method
rest ype
Ġrand int
ĠEM ERGENCY
Ġè¯ »åıĸ
setWindow Title
LEX ER
best Split
lon gest
("[" ).
ĠCur rent
ĠAt tempt
Ġvari ants
Ġgu ard
matrix File
ĠVaccines Applied
Semantic Segmentation
Ġplaylist db
expand user
COMPAT IBLE
ìĸ ´ë
ĠNorm alize
Initi alize
poss ibly
enar ate
uest ion
ĠDel care
å±ŀ äºİ
vis ible
åŁ º
Ġ]+ ")("
("] ").
Ġsatis fy
Ġcre ates
Encode Error
Prompt Type
ä¼° è®¡
ĠAppEngine Manager
Ġcorrespond ing
çĽ´æĸ¹ åĽ¾
å·¥åħ· æłı
æİ¨ çĲĨ
Ġdump s
Ġå° Ĩ
+(\ .\
448 60
EEX IST
Murderer Scene
Raise s
UU ID
polic el
rack ets
zil la
¼âĶ ¤
çı Ńçº§
éĽ Ĩ
éľĢ è¦ģ
Ġort hographic
("(" ).
Ġflex ible
Ġanalys is
assemb ly
ĠLEX ERS
Reparse Exception
maintain er
Ġeager ly
INSER T
Instance Segmentation
ĠInstan ces
ĠStandard Scaler
runAnd Wait
Ġidentic al
ĠKleine idam
Ġæ¨¡ åŀĭ
ESCA PE
æĢ§åĪ «
å¯Ŀå® ¤åı·
LeakyRe LU
ĠQuoted String
ĠâĶľâĶĢâĶ ¼âĶ¤
AddTh irdParty
ĠPetKind Enum
ĠPetSex Enum
å¹´é ¾Ħ
ĠRegionDock Widget
æĹłé ľĢ
yourDiscord Token
ĠDelcare MurdererScene
AddThirdParty Camera
" ',
" '<
# ]+
# (.*
# \/
' [
' "<
( {}
* =\
+ ",
- '
/ "
/ ?#]*
1 000000
4 00
5 8
5 40
6 1
6 50
7 00
9 1
9 01
: '
: ],
> .<
> --
> âĸĪâĸĪâĸĪâĸĪ
> ~~~~~~~~~~~~~~~<
? !
A ss
A lso
C o
C at
C ls
C loudRendering
D ER
D omain
E str
E ST
E LEGRAM
F ull
F irst
F older
G it
G uild
G COMPLETE
H am
H ub
H ashes
J U
L ook
L ower
M ay
M ASK
N SP
O VER
O ri
O per
O ne
O ffset
P ts
P KG
Q R
S x
S ur
S ol
S um
S PI
S VE
S creen
T G
T e
T yp
U AL
U DO
V ED
W ID
W ARD
Y OUTUBE
] (
] ])<
_ (
a e
a is
a udrate
b ad
b ind
b ert
b cpp
c oc
c mode
d as
d text
d ang
e Error
f undo
f actory
g g
g Error
h ren
h Min
i ally
l c
m ulti
n Tree
n ull
n Enter
n Users
o v
o very
o logy
p or
p ub
p ix
p ersist
p aste
p owers
r ely
r strip
r ank
r oman
t odo
t rees
u label
u ant
w c
w on
w idget
w Cam
x cp
x ox
y u
z te
z bar
| <
| ".
} ',
} '<
} |{
¤ åı
¥ ŀ
¦ ĺ
§ ĿìĪĺì
¨ ê³
® æĶ¹
¯ ä»¶
² æŃ¢
´ Ī
´ ìĦ
µ æį
µ ç§°
µ ë³Ģ
¹ åıĺ
» ä¼ĺ
Ð µ
Ð ½
Ð ¾
Ñ ĥ
å ¿
å ¡«åħħ
å İĨåı²
æ ĥ
æ ĩĴ
ç ¡
ç Ĩ
ç ³»
ç ¤º
ç ¬¬
ç ¬¦
ç ¥ŀ
è ¶
è Ģ
è ĥ
è Į
é Ķ
é ļ
ì Ķ
Ġ li
Ġ ########
Ġ kg
Ġ íķĺì
Ġ éĺ
Ġ },<
Ġ é¢Ħæµĭ
ĥ åĽ
Ħ ľ
ħ ¨ì
ĩ çĶ¨
ĩ è®¾
ī çĨ
į ä¸º
İ Ł
Ĳ Ń
Ĳ ë³
ĳ ç»
ĵ åīį
Ķ ¹åıĺ
ľ æ¨¡åŀĭ
ŀ ¬
ł ë¬´
or mo
in el
in correct
)< /
er as
er elease
el lipsis
on es
re structure
re itz
re versed
int osh
en vi
en acao
pr erelease
lo x
Ġt b
Ġt alk
Ġw ins
Ġw ww
se cret
"" ]
(" ^
(" {}
(" ############################
al y
al to
al gorithm
al phas
Ġs quare
ti fac
fr ont
Ġc ron
Ġc ost
Ġc ards
Ġc leand
Ġc lose
Ġc uant
ar di
me trics
Ġp v
an ced
an aly
Ġf mode
Ġf ov
Ġre ct
Ġre versed
__ ',
__ }({
ur ther
ic u
Ġb z
Ġb ast
Ġb row
Ġb ash
Ġb roug
Ġb laz
Ġb rackets
Ġb audrate
Ġin f
Ġin ser
Ġin dependent
ed Query
Ġ" *
># ############################
ot h
ot ating
ĠT ile
ĠT itle
ĠT ELEGRAM
ec tive
ol ves
Ġm al
Ġm id
Ġm as
Ġm ts
Ġm apped
Ġm uch
## ")<
Ġ' #
Ġ' ).
Ġ( [
ad ditional
Ġr elevant
up time
ip e
Ġfor ms
Ġto uch
Ġto das
th ird
ĠC r
ĠC ap
ĠC Python
ĠC loudRendering
ĠS Y
ĠS ecurity
ĠS ince
ĠS HOW
ĠS AX
is hed
is upper
end time
end point
sp read
Ġd r
Ġd ynamic
ĠP e
ĠP ets
am l
id s
id ent
Ġv enc
ack s
ab er
ect ors
Ġof ten
() .<
() ["
(' [\
Ġth reshold
ext ended
Ġprint ing
all ing
ation Name
ist ian
Ġ2 1
Re alizar
Ġ[ ("
Ġ[ ('
pro vides
pro fundo
ro aming
ĠD ET
Ġnot ation
if lags
path finder
ĠF OR
Ġ_ )
list en
ĠO R
ĠO r
ĠO pen
ĠO ptim
Ġh ad
Ġh im
Ġh ard
Ġh mac
Ġget ting
Ġget uid
Ġget TreeWalker
Ġget Filename
Ġget next
app author
`` ,<
Ġy aml
Ġor dered
Ġde bt
Ġde gre
Ġde bund
ĠM P
ĠM ongo
ĠB ACK
ĠB EL
ĠB ody
ĠB ond
Ġ{ })<
set Filter
"< {
Ġby ref
pre ferred
url encoded
fig ure
Ġ: -
Ġst ay
Ġst armap
github user
os ity
sc atter
Ġe ss
Ġe as
Ġe ste
Ġe quivalent
ass istants
ĠR AM
ĠR otating
In side
input stream
ok es
cept Handler
ĠE vent
ĠE mail
ĠE last
Ġwh o
ime s
Con straint
ĠRe dis
ĠRe porter
ĠRe alizar
time frame
Ġen ormo
Ġpass ing
Ġpy key
py OpenSSL
ĠH IDE
key words
RE F
RE T
our ces
Ġj ie
Ġsh im
load Image
ive Info
lob al
oc r
Ġar t
Ġar tifac
Ġcan tid
ĠW hether
mo ving
mo zilla
append s
Ġcomp lex
Ġcomp liant
ich r
=" ([^
Ġte e
ĠPython s
LE VE
Response Mismatch
AR GCOMPLETE
Ġurl encode
202 0
Ġlo s
ĠG iven
cache s
DE SK
ST DOUT
add ToolBar
Ġclass ifiers
ord ing
En h
ME DI
Ġal bum
Ġlog s
Ġlog in
process ing
install ation
Ġ4 5
Ġso lo
): )?
tic le
back img
cs Info
ĠDistutils Ar
ĠDistutils Module
ä¸ ĵ
Ġsub packages
tern o
") ))<
Ġcheck sum
ĠPy So
Ġwr ites
entr al
Par sing
Ch at
sup ply
Ġnew s
Ġcache control
ĠJ oin
ĠJ ob
django chat
') )
Ġresult ado
Ġback track
32 4
ĠBase HTTPError
ces sed
fer net
". /
åı ĳ
The se
çļĦ åĲį
çļĦ åĨħå®¹
Ġì ķĮ
Ġì §ĿìĪĺì
Ġattr getter
doc info
doc uments
Ġ"" ),<
FI LES
Request Unsupported
find iter
Text IO
json æĸĩä»¶
Ġend time
Base Version
Base Distribution
ĠEx traData
ĠEx ceptHandler
author ization
"] ["
åĪ ¤
ĠHTTP Connection
Ġma intenance
Ġchat username
Command s
cre ts
Ġ6 60
Ġtoken Types
Ġconver tir
Ġq rcode
Ġå ¾
Ġå ¦Ĥ
ĠK g
ĠUR LSchemeUnknown
ĠFile path
ĠFile Proxy
per iod
Ġprefix es
Get Book
Ġæ ĲŃ
Ġæ Ķ¹åıĺ
Ġhttp x
ĠTh reshold
res ses
(* [<
play ing
my Data
Ġim c
Ġim box
ĠRequest ResponseMismatch
Ġ~~~~~~~~~~~~~~~~ ~~~~~~~~~~~~<
ĠURL s
Ġwin api
... "<
Parser Element
Ġ8 750
Ġ12 8
bl anchard
MA C
Ġind ice
token ize
Ġevent s
row ed
íķ ´ìĦ
Ġimp ossible
Ġimp licit
100 1
ĠDe precated
Token Types
ĠNew ConnectionError
ĠCh annel
emp ates
å¤ ĦçĲĨ
Ġthere of
Ġtag TokenTypes
part ner
ĠConfig Parser
anch o
ĠMapping Proxy
Ġunpack ing
Spec ial
tuple s
det ection
Ġdis k
20 83
Ġfilter ed
Ġcr iteria
äº ¤åı
Ġresp ons
]+ "
Ġhighlight ed
Ġsel ect
Ġsel ection
ä¸º r
ä¸º å¼Ģå§ĭ
ĠCON TACT
Ġ9 7
ĠID NABidiError
è½ ¯ä»¶
Ġarch ives
Ġarch itecture
TRI P
ìł ģ
Ġauth or
Fun ctions
Vi olation
ĠGet Book
è¯ »
virt ual
mac os
~~~~~~~~~~~~ ~<
Message Forward
¯å ģ
æĺ µç§°
Ġprop erty
ĠWheel Distribution
ä¸Ģ æķ°åŃĹ
æĴ ¤
Ġí Ľ
Ġí ĻĢ
ä¿ ®æĶ¹
ĠPar ams
Ġoper aciones
quot e
Ġoff ice
App ly
ìķ Ħì
ĠâĸĪâĸĪ âĸĪâĸĪ
struct s
ĠFormat Error
ĠĠĠĠĠĠĠĠĠĠĠĠĠĠĠĠĠĠĠĠĠĠĠĠ Ġ
Ġchar set
cel ery
éĩ į
éĩ ĩçĶ¨
ç½ ĳç»
Ġstandard s
IP v
tok dict
ĠComp are
ĠComp ute
ĠCont act
ĠClass ifier
ĠClass Var
ĠClass ification
789 39
variable s
å¯ »ä¼ĺ
VI RT
Ġcel sius
Ġcap abi
ĠRE AD
dot env
Ġ-------------------------------- --------
pace Characters
å½ ĵåīį
Ġ"{ :,
([^ ?#]*
±Ĥ åĪ
REQUIRE D
Ġtemperatura Us
Ġ16 384
Ġeasy ocr
Reg alame
}: {
ĠDec ode
Sup press
Sup ports
Ġaut oreset
oper ationName
change d
ĠRich Handler
ĠRaw TokenFormatter
Ġescrib a
#! .*
ker Cat
Ħì ŀ¬
Ġord enacao
Ġbehavi our
cost o
users db
Hel lo
Hel per
ä¸į åıĺ
ä¸į åĬłè½½
Of Data
(': ')<
Ġconstruct ors
Ġgn b
Cre ating
Pr odu
Ġinv olves
optim izer
serve Elements
å®ļ ä¹ī
åĪĨ æ¯
Pre serveElements
Ġaddress ing
FILE SIZE
åŃĹ ç¬¦
300 2
fin ished
ê² ½
SET DESK
ĠTimeout s
Ġpage s
Ġ"/ "<
Ġshort en
OTP Transport
æ¨¡åŀĭ åĴĮ
Module s
Package Finder
ĠCheck s
('- ',
mono space
Ġë° ĶìĿ´íĬ¸
|~|--|~|-- <
System ParametersInfo
Up load
WR ONG
WR ONLY
tar b
Ġdec ision
Ġdec lared
Ġprim er
Ġoverride s
Range RequestUnsupported
Ġcor por
ĠSup port
ĠSup ported
Ġpreprocess ing
month ly
Temp Directory
block ed
gre mio
Ġrepr odu
ĠSub ject
7894 45
æŀ ¶
ĠPO INTER
ARE D
Win DLL
ken neth
Ġpatch ing
Ġreal path
### ")<
Ġly ing
ĠHTTPS ConnectionPool
Load Coin
Ġsent inel
ĠElementTree Comment
uc ion
Ġcolumn s
ĠAdmin Actual
å»º åħ¨
tmp dir
ention ed
Ġperson a
ĠURI s
åĲİ åĪĨæ¯
By tes
}% ",
Ġdescr rip
JSON DecodeError
ĠMIME Image
ĠDirect ories
named tuple
Ġconv olution
Ġ~~~~~~~~~~~~~~~~~~~~~~~~ <
BLOCK SIZE
SH ARED
ĠLabel er
ĠUti lities
Ġ``/ ``,
è½¬ æį¢
Pip eError
ĠHe ader
ĠHe imes
sur list
vol ume
Ġíķ ©ê²©
ativ ely
ĠMarkup Error
ĠBl anchard
Ġenti re
Ġenti rely
93654 1
Escape SubMethod
ĠAss ertionError
Ġblue print
ç¨ĭ åĻªå£°
ĠåĽ¾å ±ĤåĪ
#]* ))?
fs encode
("################################ ###")<
Ġconflict s
ĠBor rowed
ĠInter face
Ġappend Child
0000000000000000 0000
0000000000000000 00000000000000000000
Ġèİ·åıĸ æĸĩä»¶
Ġqui eras
ĠNull Formatter
ĠNull Handler
ĠCallback Query
ĠPr int
formed Response
ĠIS OTPTransport
ĠDO CTYPE
ĠJSON DecodeError
åĨĻ æ¨¡å¼ı
Ġinst alls
ĠBad ZipFile
Process ing
ĠVertical OverflowMethod
Ġìłķ ìĪĺë¥¼
ç¼ ĸè¾ĳ
Ġow ed
ĠAc tive
ĠId entifier
READ ME
Ġcomponent s
ĠìĦ ł
RO OT
æ¯ı ä¸Ģ
æ¯ı ä¸Ģä¸ª
çªĹåı£ çļĦ
('< '):
çĽ´ æİ¥
reference Matrix
Ġsimp lify
ĠMin utes
æĴŃæĶ¾å¤´ ä¸ºå¼Ģå§ĭ
æĴŃæĶ¾å¤´ ä¸įåıĺ
åģľ æĴŃæĶ¾
åģľ æŃ¢
'^ #!.*
Could n
íĺ Ħìŀ¬
ĉĉ ĉ
Ġvis it
ĠOut OfData
ĠMal formedResponse
imit ed
ĠWeb Client
ë¦¬ì ¦ĺ
On ly
Ġeg gs
Ġsy mlinks
ĠLive Render
Ġconn ected
Ġepoch s
ìłķ ìĪĺ
BIN ARY
built in
cas os
Ġig ual
ĠFed Dir
ĠStack Error
Ġìķ ±
ĠInvalidCodepoint Context
Ġminutos y
|~|--|~|--|~|--|~|-- |~|--|~|--<
9364 03
ê·¼ë¬´ ìĭľê°
("#################################### #")<
("#################################### ##")<
ĠTRUE COLOR
âķĲâķ Ĺ
New s
ĠRenderable With
Ġcombin ed
Mon key
¶Ī íķ©ê²©
æĿ ¥
Ġreplac ing
Ġlon ger
Ġarr ive
ĠZip Info
ç»ĵ æŀľ
ĠChr istian
uctur as
Ġå®ļä¹ī ä¸º
.]* ([
PACK AGE
].* )?$
mm detection
è°ĥ çĶ¨
ëħ Ħ
ĠìĿ´ ë¦Ħ
typed b
covery Scanner
Ġëĭ µë³Ģ
PyPI RCCommand
ĠíĮ Ĳë³
Ġmanip ulate
Ġë°Ľ ìķĦì
Ġestim ate
RESPON SES
Ġë³ĢíĻĺ íķ´ìĦ
vs code
yo lox
æ±Ĥ å¯¼
æ¡Ĩ ä¿¡æģ¯
sect ors
ĠMo ck
äºĮ æķ°åŃĹ
ĠâĸĪâĸĪâĸĪâĸĪâĸĪâĸĪ âĸĪâĸĪ
ê³ł ë¦¬ì¦ĺ
ĠíĻĺìľ ¨ê³
ĠìĤ¬ìļ©ìŀĲ ìĿĺ
ĠíĶĦë¡ľê·¸ëŀ ¨
>---------------- ----<
?([^ #]*))?
NORM AL
mark et
nump y
arri age
Ġpur ge
ĠAPP END
('& '):
ĠDIS K
ĠBuffer Full
ĠBroken PipeError
ç»ı ç½ĳç»
åĽĽ è¾¹
capit alize
ĠCompat JSONDecodeError
7895 93
Ġè®Ńç»ĥ æ¨¡åŀĭåĴĮ
Ġlyr ical
éĹŃ json
æį¢æĪĲåĪĨå¸ĥ åĪĹ
Ġåħ³ éĹŃjson
ĠTfidfVector izer
ĠAdaBoost Classifier
Wrap s
éĢļ è¿ĩ
çŁ©å½¢ æ¡Ĩä¿¡æģ¯
ĠSpecific ally
some thing
report ers
ĠCatch ing
ĠPic Handle
ĠRegression Model
è¿ŀæİ¥ ç¥ŀ
#\/ @
/?#]* ))?
>-- |~|--|~|--|~|--|~|--|~|--|~|--<
Ass ertionError
Domain BasicAuth
Estr ucturas
Ham kerCat
Look Up
NSP s
Oper ation
QR Code
Sol ucion
SVE M
WID TH
coc o
dang er
hren heit
pub Date
persist edQuery
widget s
xox b
zte il
²æŃ¢ æ±Ĥå¯¼
´Ī ê³¼
èĥ ½
èĮ ĥåĽ
ìĶ ¨
Ġíķĺì ħ¨ì
Ġéĺ ²æŃ¢æ±Ĥå¯¼
īçĨ µæį
restructure dtext
envi o
("############################ ")<
Ġcron tab
Ġcleand oc
Ġcuant as
ardi sed
Ġbast ardised
Ġbrow sers
Ġbroug ht
Ġblaz ing
Ġinser ted
ĠTile Name
Ġmas a
ĠDET ECT
ĠgetFilename Inside
Ġdegre es
githubuser content
ĠRotating FileHandler
ĠEmail Str
ĠElast icsearch
ĠRedis Cache
Ġenormo us
Ġpykey board
Ġjie ba
Ġartifac ts
Ġcantid ad
LEVE LS
ĠDistutilsAr gError
ĠDistutilsModule Error
ĠPySo cks
Parsing Error
çļĦåĲį åŃĹ
ĠìķĮ ê³łë¦¬ì¦ĺ
Ġì§ĿìĪĺì ĻĢ
Ġå¦Ĥ æŀľ
ĠæĲŃ å»ºåħ¨
ĠMappingProxy Type
äº¤åı īçĨµæį
MessageForward ing
éĩĩçĶ¨ æĩĴ
VIRT UAL
Ġcapabi lities
åŃĹç¬¦ ä¸²
SETDESK WALLPAPER
Ġë°ĶìĿ´íĬ¸ ë¡ľ
Ġcorpor al
kenneth reitz
LoadCoin s
ĠElementTreeComment Type
åĲİåĪĨæ¯ įä¸º
Ġdescrrip tion
ê·¼ë¬´ìĭľê° Ħ
].*)?$ ')<
ĠíĮĲë³ Ħ
Ġë°ĽìķĦì Ħľ
Ġë³ĢíĻĺíķ´ìĦ ľ
ĠíĻĺìľ¨ê³ ĦìĤ°
ç»ıç½ĳç» ľæ¨¡åŀĭ
Ġè®Ńç»ĥæ¨¡åŀĭåĴĮ å¯»ä¼ĺ
è¿ŀæİ¥ç¥ŀ ç»ıç½ĳç»ľæ¨¡åŀĭ
èĮĥåĽ ´
Ġíķĺìħ¨ì ĬµëĭĪëĭ¤
Ġéĺ²æŃ¢æ±Ĥå¯¼ åĲİåĪĨæ¯įä¸º
ĠgetFilenameInside Folder
ĠæĲŃå»ºåħ¨ è¿ŀæİ¥ç¥ŀç»ıç½ĳç»ľæ¨¡åŀĭ
" \\
" ``.<
$ \
' ``
' ."""<
) }<
* /
* ([
, ),
. %
. '
. [
/ ><
1 3
4 20
5 15
7 3
8 4
: ]))<
= [<
> '<
A li
B D
C ar
D R
D T
D X
E CU
F MT
H ow
J son
K O
L F
L Vec
M IS
M ira
M ATCH
N G
O M
P ass
Q Action
S k
S ave
S paceCharacters
T arget
T ask
T ALL
T CP
T erminal
T aiyi
U se
U NA
V EL
Y es
Y AN
] ['
_ )<
a log
b r
b le
b order
d uration
e ived
f inal
g bo
i mat
m er
m ul
m icrosoft
m uted
n ormalized
p time
r ab
s n
u el
v cv
w t
} ":
© º
Ã ©
Ä ±
â Ĩ
æ ļĤ
ç Ĥ
ç Ļ
ç Ń
ç ©º
Ġ light
Ġ çĶ¨
Ġ çĽ®åīį
Ģ åĩº
ī ä¸ª
Ĭ Ĭ
ı æĸ¹
Ŀ âķ
in herit
on gs
re po
mp l
st orage
en o
Ġw ish
le arning
le gacy
Ġa lign
(" .")<
(" âĨ
Ġs ig
Ġs cheduler
ti vely
Ġc ircu
ar tist
Ġp or
Ġp ut
Ġf m
Ġf ace
Ġf ew
Ġf air
Ġre init
Ġre ply
Ġre moving
ss o
ac count
Ġn ic
Ġn ec
Ġb oot
Ġin cre
la g
ed ded
Ġ" *",
li m
li es
ĠT otal
fi ll
Ġm ut
Ġ' ',
Ġ' ',<
ĠN e
Ġ# :
ĠC YAN
ĠS ample
ĠS TR
ĠS potify
ĠS ingleByteCharSet
is abs
ĠP os
ĠP ING
ĠP ost
ĠP ATCH
ĠP KG
ĠA D
ĠA LL
ĠL ook
ĠL ocal
ĠL ik
op ef
Ġdi strib
Ġ1 02
(' /
(' --
(' ')<
com ment
Ġ[ ^
pro ber
ro ve
il ing
ĠD iscord
Ġfile type
ib s
Ġex pi
Ġget Node
app le
app ly
ĠU sing
ĠU SER
lib s
Ġy iel
ure n
ĠM ode
ĠM ay
val Scene
inter actions
sc i
ĠR elease
ĠR ED
In voke
fo v
right x
Con nect
ĠRe pl
ang le
time gm
ĠUn likely
Ġpass words
Ġun like
Ġun changed
pl ugins
comp ression
Ġ3 5
Ġ3 9
Ġpy test
ĠH TT
RE SS
Ġop inion
Type Error
PE xception
read lines
ĠAn d
Ġcomp ose
Ġcomp ared
Ġtime it
ff ic
LE AV
LE VEL
cr op
parse Fragment
=' %(
ĠG IT
ĠG REEN
Ġnum eros
En ti
wr ites
ĠSe ssion
lay list
Ġus ually
ster ior
---------------- --------
Ġall files
back ed
ĠDistutils Temp
ä¸ īä¸ª
Ġsub c
Ġsub tle
Ġsub direct
") ):<
arg spec
DO TALL
not e
ĠJ ython
File Source
LT ER
LT ERS
Ġ[' *.
Ġback slash
000 5
python lib
fun ctools
Ġadd resses
EP S
([ <
The ta
main window
Ġsc op
Tree Structure
Ġ"" ).
FI LTER
prefix ed
Ġmodel ine
Ġid ent
Ġcolor ed
ri valScene
Ġmin imal
ĠAr ticle
ĠAr rivalScene
we ight
est imat
Cache Control
mb edded
ĠEn ter
ä» £
ä» »
ĠQ r
ĠQ Name
æĸ ¯
æĸ Ń
AD DR
Ġ10 5
Get ting
Ġdoc s
For Socket
late Error
del eted
ĠY outube
ĠY ELLOW
ĠY OUTUBE
filter warnings
Ġdepend ing
To Wait
bar code
Ġsk ipped
CH UNK
Ġloc ated
Python Lexer
row s
wrap ed
admin s
ĠDe velopment
ĠCh aracters
Ġ'/ '
IS REG
decor ator
Ġexec uting
äº Ĩ
æľ º
æľ Ģ
RA W
Ġhighlight er
ph p
ph one
Pool Manager
ĠTr y
Test Loader
ĠNo Active
ĠLogger Handler
Ver tical
gener ic
æĪ ĸ
Check ing
location s
è® ¾ç½®
è¿ ĺ
è¿ ĶåĽŀ
Ġtrack er
SO CK
channel play
éĢ Ģåĩº
left x
Reg ression
Reg OpenKeyEx
Reg EnumKey
Reg EnumValue
Ġequal ity
Ġ"- ",
ĠFI LTERS
users ite
task s
Ġconstruct ing
Ġexit ing
Ġindent ation
Ġoptim ization
Pos itive
bit wise
Ġmon key
æģ ¢å¤į
åį ¡
åį ıæĸ¹
Ġdownload s
ĠThread s
ĠTest ing
ĠAN D
ĠLog istic
My MenuBar
MIN S
mk path
Ġdec lare
ĠMA GENTA
Rec eived
upper case
("- ")<
("- ",
Dan iel
("/ ").
Ġedit ed
Ġperform ance
ĠPreprocessor Mira
ĠPreprocessor Taiyi
ĠPreprocessor Theta
ars all
Ġstep s
è½¬ ç§»
recogn ition
PU D
full argspec
ĠVide o
Ġupper case
Ġmaintain er
Ġ------------------------------------------------ -<
Ġpad x
platlib dir
clean mode
ĠAss istant
Ġè¿ ĩ
Ġverify ing
Ġfa ster
Ġdirec tive
Th read
ĠNull Highlighter
ĠIniti alise
ĠHash Missing
77 7
Group Call
éĥ ½
Ġlimit ed
forc ibly
ĠVertical FedXGBoostTree
)+ $",
prot ocol
Ġlock file
free GPIOListenerPins
free GPIOSenderPins
ĠMin imum
rel path
Ġexact ly
)$ "<
>'' '
>'' ',
ãĢ ģ
ãĢ Ĥ
Ĭ½ æł·
Ġdot env
ĠVariable s
Ġtimestamp s
ĠDiagnosticSessionControl Request
"(\ .
çķĮ éĿ¢
tile Param
Ġans wer
charset prober
queries db
Pick le
Ġpolic y
Ġ'* '
æĽ´ æĸ°
ĠBL ACK
ĠBL UE
ĠmyData List
FER EN
rup t
Ġhig her
Ġprompt ly
ĠInputMedia Photo
Ġpo sterior
ĠLookup Error
Video Capture
(.*?) \
Ġmulti path
ĠLa Te
ĠQuan tileParam
sb charsetprober
Ġpi ece
ĠBU ILD
ĠREQUIRE MENT
+-] ?\
Way ToWait
ĠOver ride
Ġcoord inates
å·® çŁ©éĺµ
schedu les
paste bin
åĪ¤ æĸŃ
$\ {
Ali as
MIS MATCH
Pass word
gbo ost
vcv arsall
çĤ ¹
Ġcircu it
ĠSingleByteCharSet Model
ĠPos itive
ĠLik ely
opef ully
Ġexpi re
ĠgetNode Details
Ġyiel ded
ĠHTT PException
LEAV ING
ĠDistutilsTemp lateError
Ġsubdirect ories
ForSocket Error
ĠNoActive GroupCall
åįıæĸ¹ å·®çŁ©éĺµ
ĠLaTe X
WayToWait ForSocketError
! ".
" ><
" })<
" },
" /><
' }
' ")<
' ")
) #
) ),
) ],<
) (.*
* ")<
+ .
+ ')<
- {}
- {}".
. ',
/ {}
/ \/
0 32
0 600
1 10
1 30
1 34
3 0000
4 50
5 7
7 234
8 1
9 6
= !
= ([
> %
> ')<
? >
? """<
A E
A ur
A IN
A AR
A DS
A lt
A pi
A MA
A CE
B Z
B oolean
B DIR
B uffer
C l
C ol
C as
C losed
C SS
C offee
C alcul
C uda
D er
D est
D eni
D WORD
E G
E SE
E asy
E TreeBuilder
F U
F ET
F RO
F UNC
G re
G ot
G ear
H Min
H AAR
I tems
J oy
J acks
K T
K LE
K ET
K Neighbors
L i
L ive
L ever
L VAR
L LEGAL
L argest
L ITER
M M
M ag
M OR
M AT
M ultipart
M apped
M COLOR
M ove
M NIST
N ONE
N etwork
N FD
O RE
O ther
O UND
O WNER
P u
P ON
P ark
P open
P arent
P ART
P air
P ending
P LINE
P unctuation
P lugin
Q å¢ŀå¤§
R IC
R ST
R Vec
R å¢ŀå¤§
S X
S us
S HE
S ep
S ign
S OF
S Min
S OL
S yntax
S uffix
S InterviewScene
S AV
S witch
T p
T IC
T AR
T alk
T here
T WARE
T okens
U PD
V C
V T
V is
V IN
V Min
V alues
V isual
W ARN
W hitespace
[ %
\ .
\ ))
] """<
] "<
] ],<
^ (?
_ ))<
_ ][
` )
` ),
` ).<
a ug
a exec
a mental
b ing
b ig
b gr
c H
c le
c red
c ascade
c Mag
d d
d ct
d key
d ash
d omain
d Diagram
e of
e ffects
f tp
f ely
f actor
f jmar
f modern
g Formatter
g uide
h y
h ip
h ard
h its
h ref
h older
k B
l r
l icate
l xml
l ats
m en
m ad
m grid
m cc
m ismatch
n b
n n
n od
n adata
p m
p el
p ol
p un
p alette
p lain
r al
r ag
r ome
s iz
s ck
s headers
s ktop
t WM
t lm
t ecode
u ing
u di
u cl
v or
v in
v oked
v accines
v gFormatter
w orld
x label
x FF
y code
y ield
y label
y gwin
z b
z h
z mat
z ero
| (?:\
} -
} }<
} >".
} !".
« ãģ
¶ æĸ¯
¹ çĽ®
¹ å¾
º «
¾ ĵ
Ã §
Ä Ł
æ Ħ
æ ħ
æ ¶Ī
æ ĬĬ
ç ľ
è ģ
è º«
é Ļ
Ġ ####
Ġ um
Ġ ))<
Ġ ä¸
Ġ ])
Ġ 000
Ġ enter
Ġ live
Ġ åıĤæķ°
Ġ quality
Ġ -------<
Ġ ä¼ĺåĮĸåĻ¨
Ġ ####################
Ġ ENABLE
Ħ æ
ĭ æľº
į Łå¤±åĩ½æķ°
ı æĺ
Ķ âķĲâķĹ
Ŀ ı
Ŀ åı
ł çİĩ
or que
or Scene
in ate
in ser
in ations
in Range
in cluding
el en
el ÃŃ
el hos
on off
on na
re ason
int s
ort hand
at os
at ly
at Request
pr od
lo pe
Ġt ile
Ġt imer
om ent
Ġw get
Ġw ks
Ġw ikipedia
se ss
le ctor
print able
Ġa wn
Ġa abboxes
"" ,
(" >
(" (\(.*
(" +{
al en
al tern
Ġs ing
Ġs ap
Ġs il
Ġs izes
Ġs vem
Ġs lope
de ste
de sign
ti ck
ti ally
from file
Ġc ut
Ġc la
Ġc up
Ġc ore
Ġc tags
Ġc ross
Ġc ElementTree
Ġc ascade
Ġc aused
Ġc redentials
he st
he app
ar ge
ar ange
me sh
Ġp f
Ġp et
Ġp list
Ġp ay
Ġp db
Ġp wd
Ġp ending
Ġp ersist
Ġp elÃŃ
an cial
Ġf ar
Ġf ol
Ġf id
Ġf und
Ġf Name
Ġf actory
Ġf allback
Ġf ully
Ġre pl
Ġre ach
Ġre connect
ing w
ing Box
ing Activation
__ =
__ [
__ """<
__ ',<
__ '])<
ur ations
ge s
ic ition
ic rop
Ġo cc
""" ^(?
ac tice
ut ral
import er
Ġn a
Ġn th
Ġn one
Ġn tp
Ġn tlm
tion s
Ġb yp
Ġb po
Ġb ook
def path
def ine
def ects
Ġin s
Ġin file
Ġin form
Ġin ner
Ġin fer
Ġin finit
Ġin crement
Ġin complete
di f
di str
ion al
ion ro
ion error
ed ger
ed Bound
Ġ" >=
ex port
ex isting
es c
str g
str ator
ot s
ĠT k
ĠT ele
ĠT okens
ec ond
Ġm icro
Ġm varfmt
Ġm oment
## <
Ġ' ')<
Ġ' "{
ers hip
Ġ( >
Ġ( `
Ġ( (-
Ġr r
Ġr ather
Ġr atos
Ġ- <
up ied
up licate
ip v
tr b
tr im
Ġis class
Ġis lice
th rottlePedal
us yRe
ĠN etwork
Ġan ter
ter Cl
ter Lever
get filesystem
get mro
ĠC S
ĠC OR
ĠC lasses
ĠC SV
ĠC SS
ĠC JK
ĠC ygwin
ĠS y
ĠS PI
ĠS ound
ĠS PEC
ĠS ONG
ĠS uc
ĠS afe
ĠS econd
ap ackage
is y
is ite
is digit
Ġd out
Ġd NS
Ġd uplicate
ĠP C
ĠP age
ĠP artic
ĠP ublic
ile ges
ĠA S
ĠA ction
ĠA uto
ĠA udio
am ble
Ġv iz
Ġv im
Ġv acc
as m
Ġint ensity
ab iflags
ĠL anguage
ĠL RC
ĠL eaf
ĠL edger
for eground
Ġstr m
Ġstr ateg
() ]
ĠI LLEGAL
ul ated
ul ename
ub ar
ch dir
ch ann
ch oose
con tra
Ġse x
Ġse ts
(' >
(' \
(' {
(' /',
Ġth ough
Ġcon f
Ġcon form
Ġcon tra
Ġcon sumed
Ġ< ,
Ġ< ><
ation Or
ation Point
00 22
com ma
Ġ2 2
Ġ2 03
Re voked
Ġ[ _
---- -<
il mi
ve hicleSpeed
ĠD et
ĠD ictionary
ĠD ra
__( **
Ġx y
if terLever
path set
ĠF F
ĠF ang
ĠF ield
ĠF irst
able Body
Ġ_ ):<
Ġh istory
Ġex port
Ġex cess
Ġget File
Ġget ETreeBuilder
Ġos name
`` ),
par ty
:// <
ĠU T
ĠU sed
ĠU ART
ĠU NC
te gr
Ġl g
Ġl argest
Ġl bpath
Ġl arge
file object
file types
Ġde mo
Ġde ÄŁ
Ġ* ****************
EN C
EN CODE
ĠM ET
ĠM LP
ĠB lock
ĠB oolean
ĠB RIGHT
SE CU
ver ts
ver terCl
pre t
pre amble
url fetch
Ġst oring
Ġst orage
inter cept
inter pret
dir tools
ow s
code tag
Ġpro of
Ġpro xied
sc hem
ind ableBody
ĠR O
ĠR out
ĠR ES
ĠR pm
IN VAL
Ġtr uth
Ġtr ies
Ġtr uec
In d
In Entry
In consistentCandidate
In tegr
right Branch
ĠE valu
ĠE LF
Ġwh y
Ġwh itelist
Con solas
Con verterCl
ĠRe set
ĠRe tries
ĠRe ference
ĠV ector
ĠV oltage
ly Received
time delta
Ġen sur
Ġen gin
Ġset attr
ĠIn fo
ĠIn stalled
ĠIn spect
ĠIn consistentCandidate
ĠUn rew
data Set
Ġun i
Ġun able
Ġun link
Ġun defined
Ġun installed
Ġun parsed
Ġun finished
comp onent
Ġ3 4
Ġpy compile
Ġpy audio
Ġpy wt
py o
py cache
py dist
py epat
ĠH EL
ĠH eroku
Ġ`` (
Ġ`` **
Ġ`` --[
RE AL
RE BO
our Area
Ġj f
Ġj n
split Comparison
ay Not
OR I
Ġar ra
Ġare as
Ġpr actice
ĠCon crete
ĠCon verts
ĠW ait
read line
mo dify
attr name
Ġtry ing
qu xx
qu isite
AN CH
AN MODE
AN ESE
AN KLE
Ġwe ight
Ġtime d
Ġcol lis
Ġunder line
(). ")<
Ex tra
SI X
min idom
Response From
Response Pending
cr iteria
sol ution
iter able
iter dir
AR RAY
ĠIter ate
ens ure
Ġurl join
202 3
Ġlo st
=' ',<
=' .',
ĠG ithub
ĠG libc
ĠG AE
Ġversion ing
ust er
Ġad ap
Ġad apters
Ġraise s
AT AL
DE PRE
DE LVAR
PI PE
PI LED
dat apackage
ST O
ST UTILS
ren dered
01 00
En sure
fix ed
Ġconfig urations
Ġdata Frame
Ġdata Table
ir it
iv o
iv ationFailed
iv ileges
CO SX
can not
Version Predicate
base s
lay out
Ġout side
Ġkey val
Ġcode base
Ġcode point
Ġiter ate
Ġiter keys
Ġiter values
Ġ4 00
Ġ4 05
cl uster
St ore
IT I
IT ION
Name dDiagram
Ġco elhos
12 80
back ward
Ġright Branch
Code Formatter
ĠDistutils Byte
Ġdo is
Ġdo ctype
ä¸ ¤
Ġsub package
AL T
iti es
Ġsa id
Ġsa fely
Ġopen ing
cur ious
temp erature
ĠPy Chain
test cases
entr opy
cont ourArea
Ġass istants
Ch oice
Ch rome
sup er
Ġnew list
Ġnew Image
Ġnew Height
Ġnew Parent
Key word
Key Cre
not ated
Ġinstall er
Not Al
Not Accept
Not Running
Not Closed
Ġstyle d
Tr ust
Ġsp i
Ġsp lash
Ġsp irit
ĠJ upyter
ĠJ ustify
ĠJ AP
by tecode
Ġarg complete
Ġ[' .
Ġ[' __
Ġtok s
32 16
\\ "
000 3
000 8
sub types
sub func
sub parsers
sub FunctionNotSupported
ress o
ĠReturn ing
Ġinter cept
Ġinter action
Ġk B
Ġk h
Ġk jmarotools
cryp tion
Me an
EP ATH
fer Data
ft ware
AS SES
çļĦ æķ°
çļĦ æĸĩä»¶
main Lo
Ġattr name
ĠX ML
lower key
Ġnumber ing
ĠText Color
ĠText Span
Ġ"" ,<
Ġ"" .<
FI ED
FI ERS
FI RST
Requirement Information
find all
find Contours
Ġmax Height
Ġyour style
Ġyour filter
Text Type
Text Field
LO UD
LO ADS
Base Transport
Base Reporter
ID NA
frame Size
TR AD
Ġfind Entropy
Ġ(' ',
COM PILED
author ize
åĪ °
Ġser if
Ġser ies
Ġac tively
Time Callable
Time TooLow
Time Per
Time Del
LI BDIR
LI FIED
Ġid nadata
Ġma is
Ġcolor ize
Ġread able
isc ell
isc losed
Ġ201 7
target s
ting Access
pen ded
dep ot
dep endency
tra de
tra iling
Ġtoken source
Ġconver ts
Cache Value
fe ac
net Comp
Ġcur so
ä» ħ
Ġ7 20
Ġå ¤
Ġå ¯
Ġfunction ing
ĠĠĠĠĠĠĠĠĠĠĠĠĠĠĠĠĠĠĠĠĠĠĠĠĠĠĠĠĠĠĠĠ ĠĠĠĠĠĠĠĠĠĠĠĠ
ha zmat
ĠK alman
ĠK ORE
Comp ose
Comp ileError
ĠFile s
Ġlink ing
per i
Get opt
color ize
tree walkers
Ġæ ī
Ġæ ľĢ
Ġæ įŁå¤±åĩ½æķ°
Model s
vo ice
ĠTh us
ĠTh rottlePedal
cor sheaders
Ġdoc string
Ġover head
Ġvi deo
play typedb
EL NAME
new line
ET NAME
BO OL
æķ ´
del ay
ĠY ao
hes ized
03 0
]] .
ĠRequest Exception
PR OP
PR IVATE
Ġscrip ting
HTTP Message
orig in
Ġsu ite
Ġè ¾ĵ
Ġload ers
Ġload Pts
Invalid Format
Invalid ChunkLength
Data VerificationFailed
Data Loader
Data Usage
ĠURL Fetch
Specifier Set
replace ment
let ons
To Tensor
Ġwin con
ĠPath Metadata
30 81
Ġ12 00
render NormalsImage
render SemanticSegmentation
render InstanceSegmentation
api Key
CH O
CH AT
CH AIN
Ġweb site
Ġloc n
Ac cMag
Python TracebackLexer
ne ighbors
åĲ Ī
Ġind ices
service NotSupported
ular ly
regex opt
Ġdist s
ĠGener ates
NAME SP
>` ,
>` )<
>` ,<
contain ed
Timeout Expired
Ġimp ly
Ġimp oss
copy ing
Ġper cent
current Token
pin High
ĠDe e
De ep
De precated
IG H
ĠCh aracter
ĠCh allenge
post ureTree
SC REEN
case Tokens
remove Child
web site
engine Is
uff f
Inter face
20 6
Ġfilter false
Correct lyReceived
ĠCache Key
40 96
imp ar
åĮ Ģ
Ġcr ash
Ġcr iteon
Too Deep
Ġresp ect
Ġlib c
Ġ... '<
Ġmo vi
Ġimg path
Ġimg aug
15 8
15 55
Ġpd u
Ġhighlight s
PRE FER
Ġfin ancial
ĠTime s
Ġque uing
ĠCON TROL
ĠCON TENT
var args
Ġ9 600
Ġloop s
Gener ally
eni us
ĠID NA
Ġprogram ming
hicleManufacturerSpecificConditionsNotCorrect FA
Ġne atly
Ġnorm ally
Ġvendor able
ĠPro ject
ĠPro mpt
resol vers
Retry Meta
Or InvalidFormat
ä¹ ±
ä¹ Ī
ä¹ łçİĩ
Ġauth entication
Ġbl ack
Ġbl ank
Ġxml ns
ĠDi alog
Test Run
ĠSSL Context
Ġ30 7
slo pe
ĠUnsupported VersionError
He ad
Ver boseLogger
âķ ¦
mac osx
æī ĭæľº
Message Length
Iter ator
¯å ±Ĥ
******** *<
font family
dis continued
trans missionRangeNotIn
ĠST DOUT
}, {
ç±» åĪ«
urls plit
urls afe
limit ed
ĠPar ses
:\ /\/
Sub netComp
secure DataTransmission
Ġ25 3
ĠĠĠĠĠĠĠĠĠĠĠĠĠĠĠĠĠĠĠĠĠĠĠĠ ĠĠĠĠĠĠĠĠĠĠĠĠĠĠĠ
ĠĠĠĠĠĠĠĠĠĠĠĠĠĠĠĠĠĠĠĠĠĠĠĠ ĠĠĠĠĠ
BR ANCH
insert Before
ĠFrozen Requirement
GPIO MODE
è® Ńç»ĥ
Context Manager
ç§ Ĵ
Ġcons ists
backend s
ĠInstallation Candidate
pe atRequest
Ġport X
Ġport ion
ĠResponse Exception
ĠComp iler
ĠPackage Index
ĠPackage Details
Ġdecode d
ĠUnicode EncodeError
39 5
39 86
mix ed
norm case
common prefix
ĠData Base
Ġcap acity
step s
Ġposition s
éĢ ıæĺ
ĠRegex Highlighter
Directory Source
rgb d
ĠTemp erature
ĠDo orScene
Str ictVersion
pop item
Ġ28 2
Ġlong opt
Ġshow s
irc ular
201 9
54 00
left Branch
åıĺ æħ
CA P
Ġ& ,
Ġtheme s
shi kh
Ġcustom ize
ĠAbstract Resolver
ĠDec orated
Ġdest inations
GET VAR
GET LOG
Sup ply
Ġparent hesized
('. '):<
ialize Error
Ġ19 50
Ġ19 03
Ġ19 60
Ġ19 20
Run time
Run TimeTooLow
dump s
ĠAnsi Decoder
ĠStr ip
0001 10
ĠVe hicleSpeed
MODU LES
PRO X
Of Range
Of Attemp
Of Trust
ãģ §
ãģ ®
ãģ «ãģ
Ġconstruct ed
oci ation
Ġtorch vision
Ġexpl oring
936 395
Pr ivileges
Ġinv ite
ĠSer ved
Ġjoin ing
DOWN LOADS
éŁ³ é¢
Ġ'& #
Loss Function
be fore
Ġ"\\ "
Ġmusic as
Default Type
Pre ferences
Ġpred icate
ä»¥ ä¸ĭ
Ġquot es
Ġclean mode
Ġ'_ ')<
SET VAR
Ġassoci ation
Ġmatrix Map
TooL ong
basic s
Ġfree GPIOSenderPins
Ġrec ipes
ĠAuth or
assert Raises
ĠEle ment
[:, :
åĪĹ çĽ´æĸ¹åĽ¾
ĠEngine Is
Ġconsider ations
|\ .
}" '.
Ġexecutable s
tar file
Ġest Ã¡
æĺ¯ åĲ¦
CR IME
Range List
Ġmy Color
Ġmy Output
Ġìŀħëł¥íķĺì Ħ¸ìļĶ
Temp orarily
ĠSub FunctionNotSupported
COLOR AMA
7894 73
Filename s
AP CA
AP PROX
CL ASSI
CL ASSES
Ne utral
Ġcp us
Ġ"âĸ ķ
End Tag
è¾ĵ åĩº
("/ ")
Ġevery where
ĠHTTPS Connection
pur ge
meta var
pred Tree
Sequence Error
Sequence Counter
Ġconverted IMG
))? -(?
Lock ed
Ġappro ach
ĠElementTree Implementation
sy mlinks
Ġdisc ord
Out OfRange
]} -{
mnist data
verflow Error
preprocess ing
Ġadmin list
Ġ'- '
ĠSh orthand
ĠDI STUTILS
ĠFr om
STY LE
requested Privileges
Ġleft Branch
BUILD ER
Back ports
JSON Error
Rights Failed
mime types
Ġpat ches
Ġpat ched
ĠUser bot
ĠMIME Text
ĠMIME Multipart
Ġlet ters
ElementTree Implementation
è¾ĵåħ¥ æķ°æį®
Final Form
Resolver Exception
Ġblacklist ed
VAL UE
Ġprot os
Custom er
Ġref Node
ĠAl pha
Ġmanage ment
çŁ©éĺµ H
QQ QQ
tx time
vol tage
Ġgets heet
Ġinterpre t
All Windows
Ġ"{} -{}
ĠAss ociation
å¤§ å°ı
ä¿ĿåŃĺ åľ¨
Structure d
epoch s
fd open
rake Switch
stack exchange
Ġfa vor
ceeded Number
ĠSecure DataTransmission
Chain OfTrust
**************** *********<
>.+ ?)<
symbol s
MT U
lat in
Ġqui et
Ġfs encode
Ġrecent ly
ĠCol on
ĠSpec ified
ĠIniti alize
Extension s
ĠStream lit
ĠStream Writer
æķ°æį® éĽĨ
ĠDiagnostic PipError
Go ogle
Raw ConfigParser
Raw Sample
vet te
ane ous
track s
thor ized
Ġspe ech
ELEMENT S
Download NotAccept
Emoji SubMethod
aut odoc
ĠMac Version
Ġcomple ted
ĠSearch Scope
\/ )(.*
ĠInt el
ĠEnd Tag
ĠTrans missionRangeNotIn
Requirements Conflicted
ĠLayout Render
é¢Ħæµĭ åĻªå£°
SQ LAlchemy
draw Contours
EXC ELNAME
Ġpriority Function
LY RIC
Sc ale
rel ative
Ġfi las
Ġeff ects
Ġmemory view
STAT US
NotIn Park
Access Deni
åıĺå ¿«
Del ete
On ce
Ġche ssboardSize
ĠOne OrMore
owner Document
ĠWin Style
ĠWin Color
æĺ¾ç¤º çļĦ
CLE ANMODE
Ed ge
PORT S
ä¾ ĭ
çī ¹å¾
Ġretrie ve
ĠTER MCOLOR
Ġrout ine
threshold warp
Ġhal t
äºĭ ä»¶
STRING BUILDER
Authentication Failed
Cor vette
HH H
lon gs
ÅŁ tir
ç³»ç»Ł çĬ¶æĢģåıĺéĩı
è´ Ŀåı
("[" )
distrib ute
distrib utors
Ġ": "
ĠAt tr
Ġgu arded
ĠPyOpenSSL Context
Ġspeed test
Memory ByAddress
Ġcombin ations
!! !
Mon to
job s
æĿ Ł
Ġlon gest
ĠGo ogle
ĠStart Tag
åı¯ ä»¥
ç»ĵ æĿŁ
ĠChr ome
è¾¹ çķĮ
ĠService NotSupported
æ¦Ĥçİĩ å½¢å¼ı
ĠSpinner Interface
GIT HUB
Secure Transport
Ġrece ived
Ġ"âĸĪ ",
ĠCustom Formatter
ĠSkip To
Ġhig hest
Installed Distribution
ĠWork ing
Ġæµĭéĩı åĻªå£°
Body AccMag
KEL Y
KEL VIN
Normalized Extra
Ordered Set
Ordered Dict
PLAT FORM
PLAT LIBDIR
Tensor Dataset
cu las
fake ip
hint s
ãĤ ĭ
("-- %
Ġsandbox ing
Ġposs ibility
Ġposs ibly
Ġrestr ictions
ĠSyntax Error
ĠFL node
ĠFL Vis
Ġdetermin ing
Ġdetermin ed
ĠBB code
SIMP LE
SIMP LIFIED
Ġactive video
åħ¬ å¼ı
UNC LOUD
firm ation
priority Function
convertTo Date
Ġbegin ning
ðŁĺ±ðŁĺ± ðŁĺ±
destroy AllWindows
åĬ¨æĢģåĵįåºĶ åıĺæħ
åĬ¨æĢģåĵįåºĶ åıĺå¿«
æĶ¶æķĽç¨³å®ļæĢ§åıĺå ¥½
æĶ¶æķĽç¨³å®ļæĢ§åıĺå Ŀı
-_ ]+\
FORMAT TER
HAND LE
MS G
Multi Scale
recurs ionerror
trust Info
ĠSlack Api
Ġdecor ator
ĠEmpty Tag
Ġidentifi ers
postgres ql
Ġtransl ator
ç®¡çĲĨ åĮº
[{}] ".
AF TER
bb code
dic ated
uz z
utch Locked
ĠUS ING
ĠUnix CCompiler
ĠåĨ ħ
detect MultiScale
åį·ç§ ¯å±Ĥ
>############################################################################# ###<
=[" //
Block SequenceCounter
Certificate Revoked
Dartboard Runtime
bet ween
pc build
èİ· å¾Ĺ
Ġbo ard
ĠSIG N
ĠSelection Preferences
ĠSpeed Test
Ġconstraint s
Ġ"""`` --
ĠDownload er
ĠFe ature
Ġexha usted
ĠContext Manager
PYPI RC
DataBase Structure
Ġ1234 5678
Ġauthentic ate
iversal Detector
ĠRequirements Conflicted
Programming Failure
policel ngs
icu las
ĠCr yptography
ĠBACK OFF
ĠActive State
Ġnic ely
ĠAD C
ĠAnd roid
estimat ors
usersite packages
Ġè¿ĩ ç¨ĭåĻªå£°
çķĮéĿ¢ çļĦ
$\{ [
130 7
134 00
Aur thorized
Boolean Field
Buffer ed
Cas o
Calcul ationFailed
Der ivationFailed
Dest ination
FET CH
FRO ZEN
Gre mio
KNeighbors Classifier
Li ke
LITER AL
MM ARY
MOR PH
Mapped Matrix
PON SE
Sus pended
SHE ETNAME
Sign ature
SOF TWARE
SAV EPATH
Tp d
TIC KET
TAR GET
UPD ATE
\)) ",
bgr a
dash board
eof s
fjmar o
men ubar
nod ot
pel iculas
pol y
pun ycode
rag ged
siz ex
æĦ ı
éĻ Ĳ
Ġ]) ),<
Ġ#################### ###
orque ConverterCl
inser tions
Ġawn ser
("(\(.* \))",
Ġsing letons
Ġsap os
Ġsil ently
deste k
tick er
Ġplist lib
ĠpelÃŃ culas
Ġfol lowed
Ġfund amental
icition s
icrop hone
Ġocc upied
Ġntp ath
Ġbyp ass
Ġbook s
Ġinner HTML
Ġinfinit e
ionro ck
edBound ingBox
ĠTele API
ership VerificationFailed
Ġ((- (?
usyRe peatRequest
ĠNetwork ConnectionError
Ġanter ior
getfilesystem encoding
ĠSound API
ĠSuc cess
ĠSafe FileCache
ĠSecond s
ĠdNS Name
ĠPage Validator
ĠPartic ularly
Ġvacc ine
Ġstrateg y
Ġcontra variant
ationOr DerivationFailed
ationPoint Elements
ilmi ÅŁ
ĠDra ft
ifterLever NotInPark
ĠgetFile Suffix
Ġ***************** *************************<
ĠMET ADATA
SECU RE
schem as
indableBody Error
ĠRout ingActivation
ĠRES PONSE
Ġtruec olor
Integr ationPointElements
Ġensur ing
ĠUnrew indableBodyError
ĠHEL PLINE
REAL M
REBO OT
ayNot Expired
Ġarra ys
Ġcollis ion
ResponseFrom SubnetComp
ĠGlibc Version
DEPRE CATION
ITION AL
ĠDistutilsByte CompileError
KeyCre ationOrDerivationFailed
NotAl lowed
ĠJAP ANESE
ferData Suspended
mainLo op
TRAD ITIONAL
TimePer iod
TimeDel ayNotExpired
iscell aneous
tingAccess RightsFailed
ĠKORE AN
DataUsage Failed
Ġwebsite Host
NAMESP ACE
CorrectlyReceived ResponsePending
PREFER RED
æīĭæľº åı·
MessageLength OrInvalidFormat
è®Ńç»ĥ éħįç½®
éĢıæĺ İ
shikh ar
OfAttemp ts
éŁ³é¢ ĳ
Temporarily NotAvailable
CLASSI FIERS
Ġ"{}-{} -{}".
rakeSwitch NotClosed
ceededNumber OfAttempts
DownloadNotAccept ed
\/)(.* )$"<
LYRIC S
AccessDeni ed
çī¹å¾ ģ
ÅŁtir ilmiÅŁ
è´Ŀåı ¶æĸ¯
BodyAccMag Mean
ĠFLVis Node
åĬ¨æĢģåĵįåºĶåıĺæħ ¢
ĠSlackApi Error
orqueConverterCl utchLocked
ResponseFromSubnetComp onent
! )<
! ':<
! %+
" +
" --
" ."""<
$ )
$ ").
& _
& ":<
' ".
( ~
( //
( ...
( #(.*
) (
) `
) ],
) ])
) ':<
) ï¼Į
) (\
) |\
) ``)<
) |(?:\
* (?
* (?:\
+ #
+ .<
+ '.
- (
- ?
- .<
. +
. ]
. |
. '<
/ ~
/ __
/ ",
/ "]<
/ >`
/ ]*[
1 99
2 0000
2 16
2 000000
3 01
3 50
3 70
4 3
4 32
5 3
5 000
5 50
6 5
6 22
6 98
7 10
7 20
7 123
8 000
9 60
< <
< ":<
= __
= "<
= >]
= $)
> $
> ")<
> ``<
> (.*
> ~~~~~~~~~~~~~<
? [
? !")<
? #]+
@ )
@ =
@ {
@ ':<
A g
A pr
A cess
A ug
A DO
A mb
A fter
A IL
A udio
B r
B el
B mp
B ould
B EL
B ANNED
B inary
B Interview
B leach
C V
C W
C c
C y
C SI
C amp
C WORD
C aused
C redentials
C IR
C lothes
C entral
D ig
D ON
D ies
D IT
D ERR
D TC
E Z
E mail
E InterviewScene
E verything
E quivalent
F T
F o
F el
F our
F ord
F allback
F SIZE
F lag
G H
G ree
G AME
G asol
G ran
G roffFormatter
H app
H ALL
H ttp
I r
I sent
I MA
I PP
I UM
I Metadata
I LED
I ANT
I WRITE
J an
J un
J ul
J ui
J pg
K GS
K NOWN
K enneth
K aichia
L ER
L az
L ints
M o
M ar
M ich
M oin
M arch
M iddle
M ALL
M enor
M LTokenizer
M ais
M iscellaneous
N SI
N egative
N EXT
N REF
O ct
O LE
O DE
O CT
O SC
O BLE
O blique
P N
P e
P ing
P SE
P UT
P lot
P ush
P anel
P ERMANENT
P KGS
R io
R ename
R oman
R tfFormatter
S a
S en
S al
S dist
S AL
S ong
S crip
S leep
S ized
S hell
S åĴĮ
S WER
S potify
S HOW
S cheduler
S ingleByteCharSet
S SubFuncs
S URVIVAL
S ectors
T hor
T ABLE
T ELL
U DE
U ST
U ses
U ALL
V t
V it
V ENT
V csInfo
W IN
W ell
W ho
W orld
W ikipedia
W orth
X ml
X TERM
Y OU
Z ip
Z IO
[ ()
[ "<
[ '<
[ ['
[ ([
[ ...
[ (.*?)
[ ""]
\ ]
\ ""
\ ])
\ .]*
\ [(.*?)
] /
] |
] //
] ``,
] |\
^ ":<
_ -
_ ()<
` )<
` :<
` -'
a v
a el
a utiful
a CCEPT
b ay
b bo
b ust
b link
b reak
b ash
b ecause
b ian
b leach
b rotli
b osity
c ai
c url
c word
c ake
c bg
c msg
c nts
c ElementTree
c iple
c iso
c ertificates
c auses
d Error
d ado
d ressed
e b
e qual
e quivalent
f re
f al
f ic
f ect
f ast
f lower
f aces
f aint
f ech
f alling
g l
g if
g ay
g room
g mplot
h ls
h ig
h um
h app
h ug
h mac
i am
i qui
i ew
i lia
i mplements
i Lexer
j k
j ar
j ust
j ection
j inja
k b
k q
k on
k ub
k ref
k ze
l u
l ater
l acao
l zma
m al
m us
m all
m issing
m achine
m Service
m entioned
n en
n ou
n ome
n cy
n hat
n itch
n It
n SERV
n anoseconds
n EMERGENCY
n FOR
n flower
o e
o ad
o ber
o Queue
p f
p print
p th
p end
p ango
p ared
p alet
q size
r g
r idden
r atio
s d
s ct
s ites
s inÎ±
s kills
t od
t oc
t ans
t co
t reshold
u ary
u ses
u cial
v n
v ari
v Config
v ador
v owels
w el
w ice
w ould
w tf
w xkey
y ond
z er
z on
z oom
z inho
| ":<
| .")<
} ={
} >"<
~ ])
~ ":<
~ /.
¢ å¯¹è±¡
¤ ë
¤ ìłľ
¤ ºæ
¤ ìŀ
¤ ìłķ
¦ Ī
¦ ĸ
¦ ä½įç½®
§ Į
§ æī
¨ ìĪĺ
¨ çİĩ
¨ å¿
© ¬
© íķ
© ¤ë
ª çİ
« ĭ
« æ¦Ĥçİĩ
¬ ìĿĦ
¬ ìĿĢ
® ä¿¡
¯ æĴŃæĶ¾
° åĬłè½½
± o
± Ð
± ı
± æĺ¯
² Ħ
² ´í
³ çļ
µ Ħæ
¶ ç±»
¸ í
¸ ìĿĢ
¹ Ð
º Ĳ
» å½ķ
» åħ±
¼ åħ¥
¼ ë¡ľ
¼ æ»¤æ³¢
½ í
½ ìĸ´ë
½ ¢å¯¹è±¡
¿ åľºæĻ¯
Ã ±o
Ð ¸
Ð Ł
Ð ±Ð
Ð ¹Ð
Ñ Ĥ
Ñ ħ
æ ıĲ
æ Ĭ½è±¡
ç Ī
ç ¤ºæ
ç «ĭ
è µĦæ
é ¦ĸ
é ©¬
ë ı
ë Ł
ë §Į
ì ĭ
ì ŀħ
ì ĹĲ
í ģ
Ġ čĊ
Ġ Er
Ġ ç»
Ġ Keyboard
Ġ âĢĶ
Ġ ä½¿çĶ¨
Ġ éħįç½®
Ġ ~~~~~~~~~~~~<
Ġ éŁ³ä¹Ĳæĸĩä»¶è·¯å¾Ħ
Ġ uts
Ġ ä½įç§»
Ġ éĢīæĭ©è§Ĵèī²
Ġ äº¤åıīçĨµæį
Ġ ä»£
Ġ layout
Ġ äºĭä»¶
Ģ ä¸Ĭ
Ģ ìŀħ
ģ ¬ì
ģ ´ë
ĥ Ħ
ĥ Ģìŀħ
Ħ ë¡
Ħ ¬ìĿĢ
Ĩ åĪ«
ĩ é¢ĺ
ī <
Ĭ ¤
ĭ ¤ìłľ
Į ìĿ´ì
Į æĹłéľĢ
į ¬
Ĳ ìĿ´
Ĳ æłĩ
Ĳ ¯åģ
ĳ ľ
ĳ å¤
ĳ ìĦ±
ĳ ĲìĿ´
ĵ ¤ìŀ
Ķ åģ
ķ åĪĨ
ķ ìĭ
ĸ éĥ¨
Ĺ ħ
Ĺ åľºæĻ¯çļĦ
ĺ æĸ
ĺ ëı
Ļ ìĿĢ
ļ âķĲâķ
Ľ å»º
Ľ ç¨ĭ
Ľ å¸¸
ľ ºæĻ¯
ľ Ħë¡ľ
ľ æľįåĬ¡
Ŀ ìĿĺ
ŀ ĳ
ŀ ĺì
Ł åĪĹ
Ł è¸ª
ł æĸ¹æ³ķ
ł ĩé¢ĺ
or iz
or ia
or ically
in f
in ar
in as
in finity
in formation
in direct
in spect
in hos
in eno
in ciple
er am
er ci
er ged
er kze
el ected
el ia
el apsed
on j
on ot
on te
on figure
re it
re ctions
re ally
re cent
re dis
re configure
re scente
re ferenc
mp licit
Ġi ms
int ers
ort e
at t
at y
at he
at us
at ype
at ory
at exit
st or
st ale
st armap
st ufft
en de
en di
en cl
pr ime
pr odu
pr Result
pr agma
lo ur
lo ve
Ġt om
Ġt ill
Ġt xt
Ġt reshold
Ġt aking
Ġt ech
Ġt anh
Ġt ire
Ġt iff
Ġt wice
om ic
Ġw atch
Ġw arp
Ġw ants
Ġw arm
Ġw kref
Ġw nhat
Ġw erkze
se cur
le aking
Ġa qui
Ġa fo
Ġa ix
Ġa ff
Ġa part
Ġa fore
Ġa ffine
(" :
(" )<
(" (["
(" *",
al lab
al ance
Ġs n
Ġs an
Ġs it
Ġs us
Ġs im
Ġs yn
Ġs can
Ġs light
Ġs we
Ġs ends
Ġs ns
Ġs qrt
Ġs ane
Ġs crap
Ġs igmoid
Ġs inÎ±
Ġs kills
Ġs vn
de s
de sp
de que
de precated
ti f
ti er
ti re
ti ger
ti tans
fr an
from numeric
Ġimport able
Ġc y
Ġc ar
Ġc ame
Ġc word
Ġc lock
Ġc ada
Ġc heap
Ġc ars
Ġc ertifi
Ġc lothes
Ġc ertificates
Ġc ircular
he uristic
ar mo
Ġp print
Ġp od
Ġp ok
Ġp ome
Ġp ulse
Ġp alette
Ġp owers
an o
an port
an ations
Ġf t
Ġf ib
Ġf ault
Ġf our
Ġf ast
Ġf ixed
Ġf ours
Ġf etch
Ġf amily
Ġf urther
it el
it ers
it ud
Ġre v
Ġre write
Ġre configure
Ġre covery
Ġre worked
Ġre giao
Ġre tire
ing Base
ing les
ing Elements
__ /
__ ("
__ ``
__ __/
ur t
ur on
ge m
ic ou
""" ((
ac i
ac m
ac re
ac cept
ut er
ut ely
import ing
Ġn s
Ġn at
Ġn is
Ġn ome
Ġn omes
Ġn atively
Ġb read
Ġb ump
Ġb other
Ġb aix
Ġb ran
Ġb ootstrap
Ġb attle
Ġb nitch
Ġb athe
ent Reporter
Ġin ve
Ġin place
Ġin cremental
Ġin compatible
Ġin jection
Ġin secur
di ffer
di reit
ed HelpFormatter
Ġ" ]{
Ġ" @@@
Ġ" |".
Ġ" ~/.
ex pl
es quer
es paco
li er
str action
str ado
ĠT ue
ĠT UR
ĠT oml
ĠT erm
ĠT area
ĠT urn
ec as
ec oder
ol fg
un ion
un set
un parse
fi bon
Ġm v
Ġm one
Ġm ul
Ġm im
Ġm ix
Ġm map
Ġm sv
Ġm modules
Ġm achinery
Ġm tx
Ġm idpoint
Ġm urderer
Ġm erged
turn o
Ġ' ^
Ġ' ('
Ġ' *.
Ġ' )]<
Ġ' "',
Ġ' !':<
Ġ' )':<
Ġ' @':<
Ġ( %
Ġ( ))<
Ġ( ...
ad mission
ad ra
ad just
ce il
ce iro
ce stor
Ġr ide
Ġr adi
Ġ- (
Ġ- /]*[
up grade
ip s
Ġfor med
Ġfor got
tr c
tr ary
tr ansp
Ġto gg
Ġis module
Ġis Custom
ror ai
th r
th s
th ree
th ick
ĠN T
ĠN ow
ĠN ao
ĠN aives
ĠN orte
Ġ# !
Ġ# ,
Ġan o
Ġan cestor
ter ceiro
get state
get Perspective
ĠC LI
ĠC AD
ĠC trl
ĠC losed
ĠC ERT
ĠC apture
ĠC ELL
ĠC arriage
ĠC DTC
ĠS il
ĠS AN
ĠS ong
ĠS cor
ĠS MT
ĠS URVIVAL
ĠS ources
ĠS TRIP
ĠS MALL
ĠS mall
ap a
ap Plot
is ing
is ode
is ch
is ao
is inho
end ers
ase d
sp kg
Ġd a
Ġd x
Ġd y
Ġd ado
ĠP as
ĠP UT
ĠP ager
ĠP au
ĠP ower
ĠP UNK
ĠP erm
ĠP aste
ĠP lugin
ĠP AG
ĠP ERMANENT
ĠP DT
ile tries
ĠA re
ĠA qui
ĠA ug
ĠA fter
ĠA QUI
ĠA CCEPT
ĠA RT
am apa
id le
Ġv ar
Ġv ai
Ġv env
Ġv now
Ġv lc
as ilia
ab sol
ab orn
ĠL if
ĠL yle
ĠL UT
ĠL OT
ĠL ines
ĠL ET
ĠL IST
ĠL iam
op s
op tparse
Ġdi a
Ġdi agnostic
Ġdi esel
Ġdi rections
Ġ1 7
Ġ1 10
Ġ1 0000
Ġ1 999
and p
Ġ. *
Ġ. ...,
Ġ. -.<
() (
() """<
() ",
() ``
() )))<
() '),
Ġ__ /
Ġ__ <
ĠI RC
ĠI llegalResponse
ĠI mplicit
ul ers
ul ating
ub s
ch d
con sult
con solas
Ġse aborn
Ġcon ditions
log o
log s
ĠNone Metadata
ation ale
00 6
com bine
ist orically
Ġ2 25
Re map
Re sted
Re giao
Re prResult
Ġ[ ])<
Ġ[ '{
Ġ[ %(
Ġ0 9
ro ok
ro utes
ro bust
ro uter
et tiger
ve e
Ġg ain
Ġg rp
Ġg uid
Ġg pg
Ġg anh
Ġg asol
Ġg iving
Ġg lue
Ġg mplot
ĠD ue
ĠD ate
ĠD ef
ĠD ID
ĠD isc
ĠD SC
ĠD ENTR
ĠD rake
', __
Ġx range
um ans
http bin
ĠF ree
ĠF orm
ĠF red
ĠF org
ĠF INE
ĠF AV
Ġ_ /
Ġ_ <
Ġ_ )<
list enerMatrix
ĠO F
ĠO K
ĠO SC
ĠO WN
ĠO BR
ĠO Red
ĠO blique
mat ched
~~~~ ~<
ject s
Ġh f
Ġh ot
Ġh key
Ġh ay
Ġh Min
Ġh ope
Ġh omeless
Ġh urt
Ġex ports
Ġex peri
Ġex erci
Ġget ter
Ġget file
Ġget doc
Ġget Event
Ġget Dom
`` -
`` ?<
par a
par dir
ag ile
Ġ== ================================
ĠU PP
ĠU su
ĠU rl
ĠU mm
lib Compat
Ġy nou
Ġl ate
Ġl arg
Ġl nist
Ġl zma
Ġl ineno
Ġor m
Ġfrom list
file wrapper
que Ã±o
Ġde e
Ġde al
Ġde served
Ġde ci
Ġde sign
Ġde script
Ġde termines
Ġde sktop
Ġde dicated
Ġ* "
ser ving
ser vices
EN ER
EN AME
ĠM D
ĠM E
ĠM ix
ĠM AN
ĠM oin
ĠM UR
ĠM ost
ĠM IT
ĠM ast
ĠM ED
ĠM ors
ĠM akes
ĠM ultipart
ĠM UST
ĠB E
ĠB ag
ĠB ay
ĠB IG
ĠB RA
ĠB lake
ĠB attle
ĠB rook
Ġ{ _
Ġ{ })".
set o
set state
Ġpar ar
ver ified
ver bosity
"< <":<
Ġwith draw
ange dError
pre ference
url parse
url norm
fig urinhas
Ġbe m
Ġbe ings
Ġbe autiful
Ġbe yond
Ġ: (")<
Ġst ubs
inter net
inter active
ER O
Ġpro vision
Ġpro vider
Ġpro cessed
sc aping
Ġe ase
Ġe ps
02 27
lab i
ĠR ay
ĠR ender
ĠR ename
ĠR ipp
ĠR ather
ĠR tfFormatter
ĠR ationale
IN CL
pack s
pack er
Ġtr ied
Ġtr igger
In fer
In sert
In variant
In dent
In tro
In jects
In seto
im iter
im ized
ine ss
ine Control
Ġon wards
ĠE OL
ĠE CON
ĠE mbedded
ĠE STO
ĠE DIT
ĠE scaping
Ġwh ene
ime tro
out encoding
out happ
Con serving
ĠRe map
ĠRe LU
ĠRe sso
ĠV AR
ĠV oice
ĠV iew
text area
ly n
ang led
ang ular
time tuple
Ġen ough
Ġen abling
user stats
user IdList
ĠIn spi
ĠIn tended
ĠUn recognizedFormat
ĠUn expectedResponse
Ġu chardet
IC ES
IC ODE
ll inux
data State
Ġun control
Ġun escape
Ġun used
Ġun ichr
Ġun adjust
Ġun verified
pl at
pl icit
Ġpy doc
Ġpy modeline
py x
py doc
py filesystem
Ġelse where
ĠH ave
ĠH ost
ĠH andler
ĠH ighlight
ĠH ope
ĠH omeless
ĠH oriz
ĠH istorically
ĠH ettiger
ĠH umans
error handler
pec ially
Ġ`` __
RE PYTHON
RE VENT
Ġj oy
Ġj inja
Ġj oe
Ġsh all
Ġsh quote
Ġsh ips
Res ourceCache
Ġch op
port ug
split ting
sh ot
sh allable
Ġar red
Ġar ising
are ce
are ncy
stan tially
ary NotFound
HE X
HE LP
PE ZIO
Ġab straction
Ġpr inciple
eld b
ĠCon trary
). ')<
ĠW IN
ĠW arning
ĠW List
ĠW Button
ĠW inner
ĠW Label
ĠW arned
ĠW arp
ĠW illi
ĠW hy
ĠW olfg
Ġpre ferences
Ġpre pend
mo ck
head ing
head lines
attr ibs
pp u
qu ina
qu adra
AN SI
AN TE
AN CE
AN SWER
valid ators
valid Package
Ġcomp any
Ġcomp uted
=" %(
og leM
Ġfil ls
io oo
Ġ` --
Ġ` -.
ield s
}< /
ener ate
Ġte m
Ġte ster
Ex ceptions
SI M
CHE S
ard uin
ens iv
Ġurl ToImage
Ġurl unparse
parse opts
chat stats
=' ))<
=' '):<
ĠG ord
ĠG OT
ĠG AME
ĠG aussian
ĠG aussianNB
ĠG MT
ĠG LOBAL
ĠG roffFormatter
ĠG oth
ĠG lobal
ĠG ENER
ron don
** <
cache d
DE D
DE F
PI EZ
ST DERR
add next
En t
fix up
Ġrun as
Ġconfig s
Ġal arm
Ġal cool
Ġal uno
spec ify
Ġdata Vector
wr itable
wr itel
iv el
Ġtext area
Ġ/ ,
Ġ/ .
Ġ/ __)
CO LS
wh en
wh ole
Ġbase string
package d
join Guild
UR LSchemeUnknown
ep ing
ep isode
Ġcode d
Ġfiles izes
Ġiter ating
ĠSt ale
ĠSt ufft
ĠSt atus
== =<
== "<<":<
Ġ4 56
SL ICE
Ġso le
cl icou
Ġ| (
Ġ| _|
Ġ| _|\
Ġ| .|
St uff
St ores
mon d
mon ster
Ġ5 2
Ġ5 5
Ġ5 12
Ġ5 60
Ġ5 78
Ġ5 43
ner GI
ner Song
Ġrelease s
IT O
Name Warning
Ġco uple
Ġco vari
12 432
back vid
enc oder
Ġdet ected
Ġdo or
Ġpart y
ä¸ İ
Ġsub string
Ġsub modules
Ġsub pix
Ġsub stantially
tem ber
AL PN
iti do
iti zer
Ġsa ving
]) ))<
]) ])<
]) }'
EX TERN
test ing
test ed
ant ins
Ke eping
Exception WordUnicode
entr ada
Par ses
style d
ĠConsole Error
param å¹¶
Ch angedError
link ed
âģĥ <
not a
not as
Ġcache s
Un install
Un expectedResponse
Ġren t
Not e
Not Be
Not Chunk
Not Http
Tr ied
Tr anport
âģĥâģĥ <
âģĥâģĥ âģĥ<
Ġsp hinx
Ġsp ots
ĠJ r
ĠJ ane
File List
File system
File Controller
File Could
File systemWheel
Ġ[< =>]
Ġ[' ',
Ġ[' ']<
Ġ[' ','
') ]
') ``?<
SSL Transport
ìĿ ¸ìĿĢ
64 7
aw are
Ġat omic
32 35
\\ )")<
\\ -_
\\ *)\
000 4
000 9
sub package
python æĶ¹
client Key
ĠBase Client
ĠBase Adapter
ĠBase Entry
ĠBase Resolver
ĠBase Heuristic
Ġes pecially
Ġinter change
Ġinter valo
Ġinter fac
Ġinter faces
Ġk it
Ġk alman
Ġk filecontroller
ĠName s
xt m
ï¼ Ī
ï¼ ī<
'] ")<
'] ).
'] ].
Ġ\ /
Ġ\ |
Ġ\ "{
ft qq
åı į
([ \
çļĦ æĴŃæĶ¾
çļĦ åĢ¼
çļĦ æł¼å¼ı
çļĦ æİ¥åı£
çļĦ çĬ¶æĢģåıĺéĩı
çļĦ Kalmanæ»¤æ³¢
çļĦ äºĭçī©
çļĦ ç»ĵæŀľ
çļĦ éŁ³é¢ĳ
Ġì ĭľì
Ġì ²´í
Ġì ĭ¤ìłľ
pos icao
enti fic
run as
Ġsc a
FA ILED
bin ation
10 80
10 647
Request Methods
Requirement Set
find ers
Ġyour self
Ġyour module
Ġyour lexer
Text o
Text Attribute
Text Area
Text TestRun
Ġend Menu
Base Environment
Base Client
Base Heuristic
ĠEx plicit
has ChildNodes
Ġsome times
ĠStyle Error
ĠStyle Stack
ĠStyle StackError
ĠStyle Syntax
ID NABidiError
ĠInvalid a
ĠInvalid Scheme
ĠInvalid ChunkLength
ĠInvalid PyProjectBuildRequires
ĠInvalid Sdist
Ġdir names
Ġfind s
Ġfind all
Ġ(' /'
COM SPEC
"] ]
"] +)"')<
[: :-
ĠSet Console
ĠHTTP Warning
ĠHTTP ConnectionPool
ĠHTTP BasicAuth
Ġser ializers
Ġser ious
ĠNot Renderable
Ġac cor
Time Warning
Ġtree Type
Ġtree walkers
help s
ĠĠĠĠĠ čĊ
LI FE
Ġid entity
ĠCommand Context
ĠCommand Ar
Ġdat atype
Ġcolor sys
22 9
ĠUDS Client
Ġread y
Ġread me
Ġ[" -
Ġmin idom
Ġany way
{} {}'.
AB IF
Ġ) ?
ĠAr gumentDefaultsHelpFormatter
Ġ6 1
Ġ6 5
Ġ6 10
Ġ6 56
Ġtoken ized
Ġtoken izing
Se m
ĠPEP s
(( _
we ar
we akref
game æĶ¯æĮģ
Ġcom mit
Cache d
state machine
org inal
net zteil
Ġcur ve
Ġrel ies
Ġrel oad
Config uration
BU FF
Ġimplement ations
Ġ7 0
Ġ7 1
Ġå İŁ
Ġå ±ı
Ġå Ĳ¯åģ
Ġå ľºæĻ¯
ĠQ WebEngine
ĠQ uestion
Ġla unch
ĠĠĠĠĠĠĠĠĠĠĠĠĠĠĠĠĠĠĠĠĠĠĠĠĠĠĠĠĠĠĠĠ ĠĠĠĠĠĠĠĠ
ĠĠĠĠĠĠĠĠĠĠĠĠĠĠĠĠĠĠĠĠĠĠĠĠĠĠĠĠĠĠĠĠ ĠĠĠĠĠ
AD RA
ĠK NO
DI FF
DI GEST
DI FEREN
Comp any
Ġfr agile
Ġmain ly
Pro bers
An iqui
database test
)) ))<
)) ?")<
)) })"<
per sed
liter al
Ġdel imiter
Lo aded
color ed
no logy
win nerSong
tree Walker
tree adapters
Ġæ ĩĴ
Ġæ Ĭ½è±¡
Ġæ łĩé¢ĺ
Ġë ©¤ë
start ing
Ġauto fl
Ġauto completion
IO US
rc dataElements
Model View
Model Serializer
Model Admin
res istant
cmd options
title s
USE D
USE REVENT
cor nflower
Ġover view
Ġover lap
Ġover dressed
Ġover ridden
Ġhe av
For a
Ġim read
ssl transport
check out
crip tion
glob ally
sv m
ET IME
seg undo
Ġreg ret
Ġreg enerate
Ġline a
del imited
ĠRes ourceCache
ĠY ne
ĠY ields
03 70
]] ):<
âģĥâģĥâģĥâģĥ âģĥâģĥ<
PR OTO
PR OPS
ĠString Field
HTTP Response
HTTP RangeRequestUnsupported
PY PY
PY TER
Ġsu ffer
COL LA
Ġpygame Pic
ĠDE LETE
åŃ Ĳ
Ġbytes íĺ
To iletries
Ġwin base
Ġwin nerGI
Ġ8 5
Ġ12 0
Ġ12 7
Ġ12 80
(? =\
(? =$)
char Name
char ref
ĠFor a
Build Tag
Ġtarget ing
Ġdirect ed
Ġali ased
Python Version
Ġ-- ")<
show Max
rand int
ne eded
ne trc
åĲ ¯
åĲ ĳ
çĶ »
ĠSO ME
ortcut s
ĠTO CA
Ġstream ing
Ġstream writer
Ġstream reader
UN ICODE
UN DED
save opts
Dec em
Dec rescente
Wheel s
Ġinvalid a
view sets
ĠHT MLTokenizer
íķ ¨ìĪĺ
ç» ´
ç» Ļ
usu ally
Style Error
Ġimp ar
Ġimp ending
Ġper formed
Ġper iod
div isao
100 2
100 3
100 4
mit Field
De velop
De vConfig
IG ADO
Token ize
ĠCh ild
ĠCh oose
IL ITY
å¤ ĸéĥ¨
Mix In
Infinity Type
Max imum
ĠException WordUnicode
Inter rupt
18 47
Ġign ores
NI X
det ach
Ġdis Char
Ġdis Start
Ġdis abling
}) |.")<
å® ĮæĪĲæīĢæľī
leM atch
ĠCache Command
40 698
imp ossible
node Name
ëł ¬ìĿĦ
Ġcr ucial
Ġcr ops
ĠPR OBLE
36 000
äº Ľå¸¸
Ġpack b
Ġpack er
Ġpack ed
go onj
last Four
LA GS
auto completion
auto commit
Ġmo ved
Ġprodu ce
Ġprodu cing
ITE M
ĠIt alic
Ġhighlight ers
Ġhighlight thick
dan iel
å¼ ĥ
ĠRo bert
Session Local
SU CCESS
Ġfin alization
ä¸º ä¸Ģ
ä¸º çĽ´æİ¥
Ser ial
Ġcommon prefix
}] '<
Ġctypes ë¥¼
Ġobj type
ĠPre ciso
ĠPre pared
ĠReg Error
ĠReg OpenKeyEx
ĠReg EnumKey
ĠReg EnumValue
ĠReg enarate
æĸĩä»¶ çļĦåĲįåŃĹ
QU rl
QU ADRA
Qt WebEngine
:% (
Py Filesystem
Py gameæĶ¯æĮģ
ph iLexer
======== ===<
ten acity
xml reader
è½ ¦ä½įç½®
Ġsave opts
Ġboolean Attributes
ĠColor ParseError
CU LO
No vem
music Name
bg mService
Ġxml Enti
Ġxml charref
ĠDi rective
Wr appers
Wr itten
Ġfe el
Ġfe bbo
escape Flag
ĠNo Emoji
ĠNo WayToWaitForSocketError
ĠSSL Socket
Ġview sets
ground Scheduler
Ġap sched
Ġap arece
ĠUnsupported Operation
Ġsplit ting
è¯ ¥
è¯ į
è¯ ĨåĪ«
Ġsepar ately
Ġiterable s
]* $").
mac intosh
æĪ ĺæĸ
æ¨¡ æĭ
ĠWheel Metadata
Color System
ho spitall
æł ¹çĽ®
ä¸Ģ äºĽå¸¸
Ġí ģ´ë
Ġí ĥĢìŀħ
Ġí ĳľ
ĠST OLE
Ġdisplay KO
Ġthan ks
ĠMutable Sequence
28 5
use cases
¾å ĴĮ
æĢ »åħ±
Ġtrans lates
!< /
Com bine
Com bination
Ġgr ade
quot ed
çĶ¨ çļĦæķ°
Sub package
Sub mitField
Ġ", ".
ìķ Ħë
ĠIO Error
ĠImage s
ĠFormat TimeCallable
Ġchar Name
Ġchar types
Ġchar No
Ġchar Dis
Dir Info
è¾ ¨çİĩ
Char s
04 82
Mat ting
è® ¡ç®Ĺ
ĠInput Required
ever ything
ru ary
ç§ ĳå¤
Ġ11 3
LES S
ĠInstallation Result
IP V
Ġnon admin
ama zon
ĠResponse NotChunk
(.* )",<
ie za
ĠComp iled
STR AT
STR IP
ear th
ĠDan iel
ĠDan SInterviewScene
ĠDan BInterview
first Child
over line
Ġplay er
Ġplay No
æĴŃæĶ ¾åĴĮ
mt x
ĠTLS ing
ĠTodo Config
ĠTodo View
ĠTodo Admin
View s
Ġcap able
Ġcap ability
ĠClient Config
Ar tist
Ar gumentDefaultsHelpFormatter
top db
top left
ze Command
ze zinho
éĢ łæĸ¹æ³ķ
Ġtable Insert
Ġman aged
Ġman ifest
OU LD
SP ORT
SP AC
cal endar
(". ",
ĠApp endi
ĠDo uble
Ġescr ito
([^ :/
([^ /?#]*))?
æĸ¹ å¼ı
åŃ¦ åĩ½æķ°
Function ality
æĴŃæĶ¾ ä¸įåĬłè½½
201 3
201 40
54 5
54 32
CON TACT
Missing Error
ĠSE CRET
Ġ(_ )
ĠPip Xml
Reg Error
Reg ister
Reg ular
ĠWindows CCompiler
ä¸ª è¡Įäºº
ä¸ª ç³»ç»ŁçĬ¶æĢģåıĺéĩı
Ġspace PreserveElements
Ġlocal Name
Doc ypes
Ġred uc
ĠVer a
Ġchild Nodes
It alic
Sup port
Windows Power
oper ate
Ġcontrib utors
ĠRich ard
ĠRaw Response
ĠRaw Request
ĠRaw ConfigParser
ĠRaw Sample
Ġpositi ves
35 78
WOR DS
Ġexp and
ĠControl Code
InstallRequirement Provider
==" >>
==" &":<
==" ^":<
==" |":<
==" ~":<
Al cool
IF IC
Run timeError
ade bay
ĠApr il
ĠAnsi Token
ĠAnsi Fore
ĠAnsi Back
æľī ä¸Ģä¸ª
?) (\(.*
?) \])
CE LESS
az ar
az gl
Ġext end
Ġext ensiv
Ġquery ing
("[ %
Ġsearch ing
Ġhost name
ä¸į ä¸Ģ
ä¸į çĽ¸åħ³
ä¸į è°ĥçĶ¨
Of Text
sphinx ext
Ġgn added
Ġgn onna
+) (.*)")<
Ġtorch summary
936 622
Cre scente
Pr int
Pr imary
Pr odConfig
Ġinv okes
ĠPY THON
Ġstd in
Ġjoin ed
Ġoptim ized
Ġhex Dig
Ġresolution s
Pos icao
è· Łè¸ª
Ġç Ĭ¶æĢģ
Ġç ªĹåı£
Ġent ers
Ġsign ify
Ġ'& ':<
ĠRun time
200 5
DAT ETIME
be m
Ġ"\\ ",
ĠTarget Python
Ġmusic Name
Ġ15 1
Ġ15 00
åĪĨ è¯į
çĶŁ æĪĲ
åĪĿå§ĭåĮĸ BGM
åĪĿå§ĭåĮĸ æĴŃæĶ¾å¤´ä¸ºå¼Ģå§ĭ
*) *)
Pre fix
Pre viously
Ġpred ictions
ä»¥ éŁ³ä¹Ĳæĸĩä»¶è·¯å¾Ħ
ä»¥ è§Ĥæµĭ
æīĢ ä»¥è§Ĥæµĭ
FE I
Ħ° ëŁ
Ġ'\\ '.
Ġtool ing
SET S
ĠTimeout Error
HASH FUNC
mod al
ps f
Ġca ptions
Ġrec ipe
Ġ"[ ]")<
ĠTest XCP
ĠAuth Base
ĠFlask Form
Ġhow ever
æ¨¡åŀĭ åŁº
æ¨¡åŀĭ æ¯ıä¸Ģ
ĠTempDirectory TypeRegistry
éĺ ŁåĪĹ
Ġide al
lis hes
ĠLog in
ĠLog Render
ĠLog Record
BOM S
ĠConfiguration FileCould
My App
My Company
Up date
Up datingDefaultsHelpFormatter
mk labels
Ġgre ve
Ġgre nal
æĺ¯ è´Ŀåı¶æĸ¯
è¡¨ æĸĩä»¶è·¯å¾Ħ
è¡¨ ç¤ºæ
éŁ³ä¹Ĳ æĴŃæĶ¾
éŁ³ä¹Ĳ æľįåĬ¡
éŁ³ä¹Ĳ éľĢè¦ģ
MP ANY
Rec entlyUsedContainer
Rec onfigure
SY STEM
XX X
bright red
bright blue
bright green
bright yellow
bright cyan
bright magenta
bright black
walk ing
å° ±æĺ¯
Ġtur no
Ġdown side
"^ ([\
qs f
stand out
("- "
ĠSub version
ĠSub commands
ĠLocation ValueError
Ġstructure s
åĽ¾å ±ĤçļĦ
7894 89
æīĢæľī æĸĩä»¶çļĦåĲįåŃĹ
CAN CEL
Callable Operator
Qu ote
ond ar
Ġ'' ',
ĠMet a
ĠBack space
ĠBack groundScheduler
clus ive
Codec Info
ĠJohn son
ĠSocket Kind
æį¢ éŁ³ä¹ĲéľĢè¦ģ
Ġchardet ect
Win Error
("/ ")<
Ġret ain
Ġret Str
nost osh
Ġsort ing
Ġsent ence
pygame Pic
pygame æĶ¯æĮģ
))? $")<
do or
do uble
ĠCode Type
Ġdisc um
rpc Transport
å»º å¯¹è±¡
å»º ç«ĭ
Ġëį°ìĿ´íĦ° ëĬĶ
)] '
Out ra
]} ')
extract or
ĠTo ASCII
ĠTo Unicode
Ġ'{} '".
Proxy Error
Proxy Manager
Ġê° ĻìĿĢ
Iterable View
Ġpost ed
Ġpost uralDatset
Ġ'- ':<
ĠSh ortcuts
('\\ \\
('\\ '.
ĠFr ame
ĠFr isch
ĠJon es
Ġperform ing
è¯· ä½¿çĶ¨
ĠMetadata Conflict
ĠMetadata MissingError
Back ing
Back packs
ca ption
don ald
pool manager
åģ ļ
ĠUser Config
ĠUser names
ĠUser Installation
ĠRepr Error
Ġ`- .<
Ġ`- '<
Ġ`- `.
ĠGame Event
Ġå® ĮæĪĲæīĢæľī
ĠDirect UrlValidationError
BGM andBG
BGM çļĦæĴŃæĶ¾
åĻ¨ æł¹çĽ®
Ġadjust ments
19 20
Final Typ
("_ "))<
Ġcop a
Ġhapp ening
125 3
125 3235
Ġèİ· å¾Ĺ
Ġ~~~~~~~~~~~~~~~~~~~~~~~~ ~~~<
Ġcalcul ation
Ġcalcul ated
Mode Elements
Norm al
VAL OR
bon aci
ĠTask s
four Ow
ĠConnection Pool
Ġ~~~~~~~~~~~~~~~~~~~~ ~<
ĠRegister ing
è½¬ æį¢æĪĲåĪĨå¸ĥåĪĹ
Custom ize
Fe ature
PU REPYTHON
SK IPP
full Tree
ĠAl ways
Ġmaintain s
Ġdelay ed
Ġ------------------------------------------------ -----<
Ġappropri ately
Ap ache
Mutable Set
å¹ ķåĪĨ
Ġíķ Ģ
Ġíķ ĺëı
ativ a
Ġsur rogate
Ġsur vival
Ġfeed parser
Ġrepe tidas
Ġinterpre ting
TRA PEZIO
DIST UTILS
)} \""
>~~~~~~~~~~~~~~~~ <
>~~~~~~~~~~~~~~~~ ~~~~~<
ÎĶ t
ÎĶ St
æĭ ³çļ
çĬ¶æĢģ è½¬ç§»
Ġ~ /
Ġ~ /.
Ġtermin ation
Ġtermin ology
Ġè¿ Ľç¨ĭ
åĨħ éŁ³ä¹Ĳ
åĨħ éĥ¨
å¯¹è±¡ ä»ħ
ĠåĽ¾å ½¢å¯¹è±¡
Dis play
Log ic
Per imetro
fd rake
inst allable
dec lare
Ġ"# ":<
Ġconflict ing
Ġconflict ual
ĠMissing Style
ĠMissing PyProjectBuildRequires
COMMENT ED
ä¸Ģä¸ª å¯¹è±¡ä»ħ
ä½¿çĶ¨ åĽ¾åĥıè·¯å¾Ħ
Ġèİ·åıĸ æ¨¡åŀĭæ¯ıä¸Ģ
=", ")<
>| ____/
highlight background
Ġfs decode
Ġinject s
Ġinject ing
ĠPr odConfig
Ġhack s
ĠMy History
Conflict ing
ĠIniti alizer
ĠIniti alizing
ĠHash Command
Ġchr ome
ĠStream Reader
.*? (?=\
åľ¨ åİĨåı²
åľ¨ é©¬
åĨĻ åĮĢ
ecess arily
Dep endency
Go als
Go ogleM
Null Handler
Pic Library
Your Lexer
ald ecoder
uin ho
warp Perspective
lap ses
Ġdid n
ĠBad Zip
Ġprec iooo
è¡Į è¸ª
åĪĹè¡¨ åĨħéŁ³ä¹Ĳ
æ»¤æ³¢ ä½ĵ
Ġìłķ ìĿĺ
Ġìłķ ëł¬ìĿĦ
89 7123
DD D
Ġsolution s
declar ative
Ġpp c
ĠSystem Exit
ĠSystem Pager
ĠSystem TimeWarning
Ġ36 000
ĠConv olution
ĠConv enience
ä¸Ń ä½įç§»
ĠìĦ ¤ìłķ
BAS ENAME
_| ___/
free ze
æĽ ¼æ»¤æ³¢
ĠCO MPANY
ĠPango MarkupFormatter
Ġ<< =
Ġ<< ')<
ĠFind XCP
ĠMap s
ĠRec ipes
ĠRec entlyUsedContainer
ĠRequire d
Ġcooki elib
ĠEnd Menu
ĠEnd OfText
ĠTrans late
Requirements Error
éĢŁ å°ı
åºĶ çļĦ
ĠPoolError s
initial ise
ĠBGM ä»¥
ĠBGM andBG
Ġêµ¬ì¡°ì²´ ë¡ľ
Host Type
ìļ ©íķ
ĠIP V
ĠUp load
ĠUp datingDefaultsHelpFormatter
SES SION
sched ulers
Admin CB
ĠPretty HelpFormatter
Ġreplacement Characters
"> {
GP G
GP W
GP ACK
TA GS
many linux
íĺ Ħ
Ġsour ced
Ġfi re
Ġfi la
Ġ'{ ',
Ġvis ible
Ġvis iting
Media Library
ĠæĮĩå®ļ å¤ĸéĥ¨
ĠWrite ByIdentifier
Del phiLexer
Don ate
Don ald
¨ì ľĦë¡ľ
Ġsy mlink
Ġsen se
destr ian
ĠPri or
provid ing
ĠEM PIEZ
ĠWin Term
byte array
Ġatt ached
{}. {}{}'.
æĸ° å»ºå¯¹è±¡
ĠDev Config
Ġê°Ĵ ìľ
/' +
:, :],
With Offset
css wg
Ġpublished At
Ġretrie ved
Ġretrie ving
Ġdomain s
ĠLO CATION
Ġemit ting
Ġç³»ç»Ł çļĦçĬ¶æĢģåıĺéĩı
Attemp t
9364 87
Ġcareful ly
ĠBorland CCompiler
é»ĺè®¤ åĽĽè¾¹
è¯¯å·® æĪĸ
Driver Manager
sen a
tech nology
è´ ¨å¿
ë° ĶìĿ´íĬ¸
ĠÎĶ Vt
Ġpolic ies
ĠTH IS
Ġ'* ':<
ĠCur sor
ĠPix el
ĠPix map
Ġ__| <
Ġhospitall ats
question s
Ġear lier
ĠRenderable s
ConnectTimeoutError s
ĠVaccines Schema
Ġcollect ing
Memory Wheel
Ġ\__ _|\__,
Ġ\__ |<
TRAN SPORT
Ġå¡«åħħ åĢ¼
Ġå¡«åħħ å¤§å°ı
ParseResults WithOffset
mediaLibrary Root
Ġgrad ually
æİ§åĪ¶ éŁ³ä¹ĲæĴŃæĶ¾
æİ§åĪ¶ BGMçļĦæĴŃæĶ¾
================================ ===========<
éŁ³ä¹Ĳæĸĩä»¶è·¯å¾Ħ åĪĿå§ĭåĮĸ
Ġë³´ë ĥĦ
('\\') [-
çĽ®åīį é»ĺè®¤åĽĽè¾¹
éĥ¨ çļĦæİ¥åı£
æĽ´ æį¢éŁ³ä¹ĲéľĢè¦ģ
éĢŁåº¦ v
éĢŁåº¦ ä¸º
Latin A
Latin B
æ¸¸æĪı å®ŀ
={} &
={} '<
Bound aryNotFound
cd jk
need ing
ìĸ ¸
Ġtake while
Ġfix es
Ġfix up
Ġ"' ",
ĠNorm ally
ĠMS G
Ġemp ates
Ġemp ieza
poss ible
DEV NULL
ĠStart BoundaryNotFound
Ġìŀ ĦìĿĺ
Ġìŀ ĳìĦ±
LOCAL TIME
ĠåĬłè½½ æ¸¸æĪıä¸»
è¿Ļ ä¸¤
Ġå®ļä¹ī æīĢæľīåľºæĻ¯çļĦ
ĠContainer Cls
)`` ,<
?\ ))?$")<
PACK AG
Secure Tranport
].* ?)\])
dr ivers
drop ped
è°ĥ åĩ½æķ°
ëħ ¸
ĠìĿ´ ìļ©íķ
Ġæĸĩä»¶ åľ°
develop er
Ġrece iving
Ġbox es
Ġpret as
Ġpret tier
Ġæ¯ı ä¸ªè¡Įäºº
Ġæ¯ı ä¸Ģä¸ªå¯¹è±¡ä»ħ
Ġëĭ ¨ìľĦë¡ľ
å®ŀçİ° ä¸ĢäºĽå¸¸
æľ¬ èº«
åĬł éĢŁåº¦
åĬł éĢŁå°ı
ĠíĮ ĮìĿ´ì
ä½įç½® åĿ
Ġmanip ulating
Ġë°Ľ ìĿĢ
Ġestim ations
"^( ([^:/
(?:[ @-
çĽ¸åĲĮ èĮĥåĽ´
Actual AdminCB
RESPON SE
Ġæµĭéĩı æĸ¹å¼ı
fetch ing
Ġpo inter
digit al
uni string
ĠSH A
ĠSH OULD
ĠPer fect
ĠPass word
ĠAttributes NSI
ĠLookup Dict
Ġæĺ¯åĲ¦ åĪĨè¯į
åħ¬ åħ±
Direct Url
Direct UrlValidationError
Ġutili se
ĠåĽ¾åĥı è·¯å¾Ħ
ĠFunction ality
)^ \
HAND LER
MS GPACK
Man ifest
Multi DomainBasicAuth
Rout ineControl
kalman Intro
åĿ Ģ
å±ĤçļĦ æ¯ıä¸Ģä¸ª
recurs ive
Ġob viously
Ġnom ber
Ġnom encl
Ġ'** /'
Ġdrop ped
ĠUN KNOWN
ENABLE D
ĠEmpty PoolError
ĠUnknown FileError
Ġchoose Char
Try ing
coord s
çļĦåĽ¾çīĩ æł¼å¼ı
çļĦåĽ¾çīĩ åĲİç¼Ģ
entities Trie
Ġidentifi es
ĠTrain ing
Ġtransl ating
Arch iveInfo
ĠHelp ers
Ġestab lish
Ġestab lishes
ç®¡çĲĨ åĻ¨æł¹çĽ®
TOML DecodeError
Kalmanæ»¤æ³¢ æľ¬èº«
ĠDocument Type
Ġalphabe ths
>âģĥâģĥâģĥâģĥâģĥâģĥâģĥâģĥâģĥâģĥâģĥâģĥâģĥâģĥâģĥâģĥ âģĥâģĥâģĥ<
>âģĥâģĥâģĥâģĥâģĥâģĥâģĥâģĥâģĥâģĥâģĥâģĥâģĥâģĥâģĥâģĥ âģĥâģĥâģĥâģĥâģĥâģĥ<
@- ~])
ACCEPT ED
Bit stream
Dom Implementation
Fal ta
Fal tam
Gif ImageFormatter
Pango MarkupFormatter
Rich ReprResult
Term Cast
rn div
ĠìĿ ¸í
ĠìĿ ½ìĸ´ë
Ġä»¥ åĽ¾åĥıè·¯å¾Ħ
Ġä»¥ è¿ĶåĽŀ
ĠåĪĹè¡¨ ä¼łåħ¥
Ġcarr y
Ġcarr inhos
Ġbon ecas
Ġbol inha
Ġbol inhas
ĠPoint s
Ġintention ally
('# '),
('# .*?(?=\
commit ted
ĠDom Implementation
ĠFollow s
Ġelim inates
Ġelim inar
Ġmes ses
quar ters
quar to
Ġunderstand ability
ffff ff
Ġ|__ _|
1235 1235
Undistort Remap
Ġescap es
Medi um
Medi ano
ä»ĸçļĦ åį¡
ä»ĸçļĦ è¡Įè¸ª
Ġlaz y
Ġlaz ily
Compat ibility
ìĿ´ì ¦Ī
news api
BOLD ITALIC
InvalidCodepoint Context
PREV IOUS
IMPORT ANTE
çĶ¨äºİ è·Łè¸ª
ReadTimeoutError s
Ġrecogn ize
å°Ķ ç§ĳå¤
å°Ķ æĽ¼æ»¤æ³¢
æīĢæľīåľºæĻ¯çļĦ æĬ½è±¡
Ġå®ŀçİ° ç»ĵæĿŁ
Ġå®ŀçİ° æĴŃæĶ¾åĴĮ
Feb ruary
Feb bonaci
ĠìĤ¬ ìĿ¸ìĿĢ
ĠìĤ¬ ìĿ´ì¦Ī
è¡Įäºº ç±»
@@@ "<
_|\__, _|___/
ĠHEAD ERS
TRANSL ATE
TRANSL ATOR
Ġë³´ëĤ ¸
Ġë³´ëĤ ¼
æ¸¸æĪıä¸» è°ĥåĩ½æķ°
è§Ĥæµĭ æĸ¹ç¨ĭ
ĠæıĲä¾Ľ BGM
ĠæıĲä¾Ľ ä»¥ä¸ĭ
éĢīæĭ©è§Ĵèī² çļĦäºĭçī©
Ġìĭľë¦¬ìĸ¼ ìĹĲ
ĠæĮĩå®ļåħģè®¸ çļĦéŁ³é¢ĳ
ĠæĮĩå®ļåħģè®¸ çļĦåĽ¾çīĩåĲİç¼Ģ
Am elia
Cur sor
Des cription
MU ITO
Mac Version
bf a
æ¬ ¡
Ġpare s
ĠCalcul ates
Ġgreate st
ĠUNI FEI
prefer ably
ĠReplace ment
Ġunn ecessarily
ĠWH Y
ĠJoy InterviewScene
Ġacc ording
ĠæļĤ åģľæĴŃæĶ¾
Ġstats models
ĠSOL VED
CREATE ME
ĠApple API
Author ization
æŀĦ éĢłæĸ¹æ³ķ
çŁ©éĺµçļĦ è´¨å¿
surrogate escape
Ġè¿ĶåĽŀ PygameæĶ¯æĮģ
Ġcondic ional
Ġè¯»åıĸ æķ°æį®
ĠCurrent ly
ĠVaccinesApplied Schema
å±ŀäºİ ä»ĸçļĦåį¡
ä¼°è®¡ çļĦKalmanæ»¤æ³¢
æİ¨çĲĨ åĻ¨
({} )<
DER ERS
JU PYTER
Ori gem
Sx cosÎ±
Sur vival
Screen Logo
bcpp compiler
powers hell
æĥ °åĬłè½½
ç¡ Ģä¸Ĭ
ç³» çļĦ
è¶ ħ
èĢ ĮæĹłéľĢ
Ġli l
ĩè®¾ è¿Ļä¸¤
("^ [\
front end
Ġcost ly
analy se
Ġrect angular
Ġinf os
Ġ"* "),<
ĠTitle Scene
Ġ'# ':<
ĠCap monster
ĠSY STEM
ĠSecurity Warning
Ġdr ivers
ĠPe destrian
Ġvenc eram
ĠOpen CV
ĠOptim izer
Ġdebund led
ĠBody NotHttp
Ġeas ier
RET ANGULO
="([^ "]+)"')<
Enh anced
MEDI A
):)? (//
ä¸ĵ å±ŀäºİä»ĸçļĦåį¡
ĠJoin ed
åıĳ å£°
TextIO Wrapper
Ġå¾ ªçİ
ĠThreshold ed
Ġrespons ible
ĠCONTACT S
Violation Defect
78939 0
ĠREAD ME
å½ĵåīį åĽ¾å±ĤçļĦ
Ġ"{:, }
([^?#]* )(\
Produ ce
tarb alls
Ġreprodu cing
ĠSubject Alt
ĠHeader ParsingError
Ġèİ·åıĸæĸĩä»¶ åĨħéĥ¨
ĠìĦł ìĸ¸
ĠMock Request
?([^#]*))? (#(.*
éĢļè¿ĩ pythonæĶ¹
#\/@ ].*?)\])
WIDTH S
ĠDETECT ION
éĩĩçĶ¨æĩĴ æĥ°åĬłè½½
VIRTUAL ENV
çĻ »å½ķ
Ġalign ed
Ġmut ua
ĠSTR ONG
Ġdistrib utors
Ġ[^ :\
ĠRepl aces
Ġ39 86
ä¸īä¸ª æİ¥åı£
Ġscop ingElements
ADDR Z
è®¾ç½® æĪĲ
éĥ½ æľīä¸Ģä¸ª
Col lapses
MAT CHES
Sep tember
Ġä¸ Ķåģ
Ġenter ing
altern ate
Ġincrement aldecoder
ĠCOR TE
ĠSy cosÎ±
ĠSPEC IFIC
ĠAS SETS
ĠUT ILITY
ĠRO UNDED
ĠInfo Path
ĠInstalled Distribution
Ġjn ust
Ġadap ted
Ġå¤ ĦçĲĨ
Ġå¯ ¼åħ¥
Ġè¾ĵ åĩº
CHO ICE
Ġimposs ivel
ĠDee InterviewScene
Head wear
çŁ©éĺµH ä¸Ńä½įç§»
ĠChrome DriverManager
åħ¬å¼ı è½¬æį¢
ĠåĨħ éĥ¨çļĦæİ¥åı£
åį·ç§¯å±Ĥ å®ŀçİ°
èİ·å¾Ĺ ä½įç½®åĿ
çķĮéĿ¢çļĦ æİ§åĪ¶
SECURE TRANSPORT
éĢıæĺİ åº¦
(... )`
*(?:\ .[
-? ]*[
/>` .
216 132
>(.* )</
?#]+ ):)?(//
Ag ent
Apr il
Acess o
Aug ust
Amb os
AIL ABLE
Br asilia
Bel o
Bmp ImageFormatter
Bould er
CW D
Cy rillic
Camp inas
CIR CULO
DON ATE
Dies el
Fo od
Fel iz
Gree k
Gasol ina
Gran de
Happ y
Ir is
Isent o
IMA GE
IMetadata Provider
IANT S
Jan uary
Jun e
Jul y
Jui z
Jpg ImageFormatter
Laz y
Mar shallable
Mich ael
Negative InfinityType
NREF USED
Oct ober
Pe queÃ±o
Rename Field
Sa uron
Sen ha
Sal vador
SAL ARY
Scrip t
Sleep ing
SåĴĮ éĢŁåº¦v
SingleByteCharSet Probers
UALL Y
Vit oria
[() ],
[... ]
\] (.*?)\
\.]* ?)(\(.*
]|\ [[
cai u
cmsg pack
fre xx
fal z
fech ou
groom ed
hig her
hum a
hug uinho
kub escape
lu isinho
mus llinux
nen huma
nSERV ICES
palet tes
sct api
tod ay
toc antins
tco y
wel ch
zoom ed
§æī ¿åľºæĻ¯
«æ¦Ĥçİĩ æ¨¡åŀĭåŁº
ºĲ ç®¡çĲĨåĻ¨æł¹çĽ®
½í Ĭ¸
çĪ ¶ç±»
èµĦæ ºĲç®¡çĲĨåĻ¨æł¹çĽ®
é¦ĸ éŁ³ä¹ĲæľįåĬ¡
ë§Į íģ
ĠEr m
Ġç» §æī¿åľºæĻ¯
ĠKeyboard Interrupt
Ġä½¿çĶ¨ éŁ³ä¹Ĳæĸĩä»¶è·¯å¾ĦåĪĿå§ĭåĮĸ
Ġä½įç§» SåĴĮéĢŁåº¦v
ĠéĢīæĭ©è§Ĵèī² ç±»
Ġäº¤åıīçĨµæį Łå¤±
Ġä»£ è¡¨æĸĩä»¶è·¯å¾Ħ
ģ¬ì Ħ¬ìĿĢ
Ħë¡ Ŀ
Ĳæłĩ èĢĮæĹłéľĢ
ĳĲìĿ´ ëħ¸
ĵ¤ìŀ Ħ
ķìĭ ĿìĿĺ
ĹåľºæĻ¯çļĦ äºĭçī©
ŀĺì Ĭ¤
indirect ly
recent ly
referenc ed
Ġims ave
inters persed
ende vent
prime iro
produ ction
Ġtom li
Ġtiff file
Ġwarm er
Ġwerkze ug
Ġafo labi
Ġaff ect
Ġapart ment
Ġafore mentioned
allab outhapp
Ġsan itizer
Ġsus pected
Ġslight ly
Ġswe aty
Ġscrap ed
fran ces
Ġcada strado
Ġcheap ening
armo sec
Ġpod cast
Ġpok ing
Ġpome kon
Ġfib onot
Ġfast api
iters iblings
itud Texto
"""(( \\*)\
Ġbread th
Ġbother ing
Ġbaix o
Ġbran cas
Ġinve st
Ġincremental encoder
Ġinsecur ely
direit a
expl anations
esquer da
ĠTUR NO
ĠToml DecodeError
ĠTerm Cast
fibon ot
Ġmone y
Ġmim ic
Ġmix in
Ġmsv ccompiler
Ġ'(' :<
Ġ(... )<
Ġradi x
Ġ-/]*[ @-~])
transp arency
Ġtogg le
rorai ma
getPerspective Transform
ĠCAD A
ĠClosed PoolError
ĠCDTC SSubFuncs
ĠSil entReporter
ĠScor ing
ĠSMT P
ĠSources Test
apPlot ter
ĠPas cal
ĠPau lo
ĠPower Supply
ĠPerm itido
ĠPAG AR
ĠAug ment
Ġvnow els
absol utely
ĠLif oQueue
ĠLUT A
Ġ...., (
ĠNoneMetadata Error
Ġ['{ }/
Ġguid ance
Ġganh ador
ĠDisc ussion
ĠDSC SubFuncs
ĠDENTR O
ĠFree zeCommand
ĠForg ot
ĠFAV ORITE
ĠOWN S
ĠOBR IGADO
Ġhay an
Ġexerci se
ĠgetDom Builder
Ġ================================== ===========================================<
ĠUPP ER
ĠUsu ally
libCompat ible
Ġlarg ely
Ġdeci des
Ġdescript or
ĠMAN UALLY
ĠMoin Moin
ĠMUR DERERS
ĠMast ers
ĠMED IUM
ĠMors el
ĠMultipart Invariant
ĠBay es
ĠBRA CELESS
ĠBrook lyn
Ġwithdraw n
Ġprovision al
Ġeps ilon
0227 01
ĠRay mond
ĠRender Hook
ĠRename d
ĠRipp leMatch
INCL UDE
Indent edHelpFormatter
ĠECON NREFUSED
Ġwhene ver
ĠResso API
ĠVAR IANTS
ĠView List
ĠInspi red
Ġuncontrol led
Ġunadjust ForeignAttributes
ĠHost ChangedError
ĠHomeless ness
ĠHoriz onte
portug ues
Ġarred ondar
ĠWList Box
ĠWarp ing
ĠWilli ams
ĠWolfg ang
arduin o
ĠGord on
ĠGoth am
ĠGENER IC
rondon ia
Ġ|_|\ ___/
Ġ578 6
Ġcovari ance
12432 132
Ġsubpix els
])}' "<
EXTERN AL
paramå¹¶ æĽ´æĸ°
NotBe Loaded
ĠJane iro
Ġ[<=>] ?
\\-_ ]|\[[
ĠBaseEntry Point
Ġinterchange able
Ġinterfac ing
Ġkalman TC
Ġ\"{ '
Ġìĭľì ŀĳ
Ġì²´í ģ¬ìĦ¬ìĿĢ
FAILED TELL
TextArea Field
TextTestRun ner
ĠExplicit Requirement
ĠStyleSyntax Error
ĠInvalidScheme Combination
ĠInvalidSdist Filename
Ġ('/' -
ĠSetConsole TextAttribute
Ġserious ly
ĠNotRenderable Error
Ġaccor ss
ĠCommandContext MixIn
ĠCommandAr gs
ABIF LAGS
Ġcommit ting
BUFF ER
ĠåİŁ åĩ½æķ°
Ġå±ı å¹ķåĪĨ
ĠåĲ¯åģ ľæľįåĬ¡
ĠåľºæĻ¯ ç±»
ĠQWebEngine View
ĠQuestion s
Ġlaunch ing
ĠKNO W
DIGEST S
DIFEREN CA
Aniqui lacao
treeWalker Cache
ĠæĩĴ åĬłè½½
ĠæĬ½è±¡ åĩ½æķ°
Ġë©¤ë ²Ħ
Ġautofl ush
ModelView Set
cornflower blue
Ġheav ily
ĠYne a
PROTO COLS
COLLA PSE
Ġbytesíĺ ķìĭĿìĿĺ
ĠwinnerGI F
(?=$) ',
showMax imized
Decem ber
Develop Installer
ĠChoose Char
1847 26
ĠdisChar Gif
å®ĮæĪĲæīĢæľī éĢīæĭ©è§Ĵèī²çļĦäºĭçī©
ĠPROBLE M
lastFour Chars
Ġhighlightthick ness
ĠRobert o
ä¸ºä¸Ģ é¦ĸéŁ³ä¹ĲæľįåĬ¡
ä¸ºçĽ´æİ¥ èİ·å¾Ĺä½įç½®åĿ
ĠPrepared Request
QUADRA DO
QtWebEngine Widgets
è½¦ä½įç½® ä¼°è®¡çļĦKalmanæ»¤æ³¢
Novem ber
ĠxmlEnti ties
Ġxmlcharref replace
Ġapsched uler
æĪĺæĸ ĹåľºæĻ¯çļĦäºĭçī©
æ¨¡æĭ Ł
hospitall ats
Ġíģ´ë ŀĺìĬ¤
ĠíĥĢìŀħ ê³¼
Ġíĳľ íĺĦ
çĶ¨çļĦæķ° åŃ¦åĩ½æķ°
ìķĦë ĳĲìĿ´ëħ¸
è®¡ç®Ĺ çŁ©éĺµçļĦè´¨å¿
amazon as
ĠResponseNotChunk ed
ĠDaniel EInterviewScene
ĠtableInsert ModeElements
SPAC ES
ĠAppendi x
([^/?#]*))? ([^?#]*)(\
ĠPipXml rpcTransport
ä¸ªç³»ç»ŁçĬ¶æĢģåıĺéĩı ä¸įçĽ¸åħ³
Ġreduc ing
WindowsPower Shell
==">> ":<
adebay o
azgl vee
Ġextensiv ely
ä¸įè°ĥçĶ¨ æĴŃæĶ¾ä¸įåĬłè½½
ĠhexDig its
ĠçªĹåı£ Logo
åĪĿå§ĭåĮĸBGM éĺŁåĪĹ
*)*) (.*)",<
ä»¥éŁ³ä¹Ĳæĸĩä»¶è·¯å¾Ħ åĪĿå§ĭåĮĸå¯¹è±¡
æīĢä»¥è§Ĥæµĭ çŁ©éĺµHä¸Ńä½įç§»
Ħ°ëŁ ½íĬ¸
ĠConfigurationFileCould NotBeLoaded
æĺ¯è´Ŀåı¶æĸ¯ æ»¤æ³¢ä½ĵ
Reconfigure s
nostosh omes
pygameæĶ¯æĮģ çļĦæł¼å¼ı
å»ºç«ĭ åľ¨é©¬
ĠMetadataConflict Error
ĠUserInstallation Invalid
Ġ`-`. `-'
Ġå®ĮæĪĲæīĢæľī æĪĺæĸĹåľºæĻ¯çļĦäºĭçī©
FinalTyp ingBase
Ġèİ·å¾Ĺ æ¸¸æĪıå®ŀ
fourOw four
SKIPP ABLE
Ġíķĺëı Ħë¡Ŀ
Ġsurrogate pair
)}\"" )<
æĭ³çļ ĩ
çĬ¶æĢģè½¬ç§» æĸ¹ç¨ĭ
ä½¿çĶ¨åĽ¾åĥıè·¯å¾Ħ åĪĿå§ĭåĮĸ
Ġèİ·åıĸæ¨¡åŀĭæ¯ıä¸Ģ å±ĤçļĦæ¯ıä¸Ģä¸ª
åľ¨åİĨåı² åĪĹè¡¨
åĨĻåĮĢ åĬłéĢŁå°ı
GoogleM apPlotter
ĠBadZip file
Ġpreciooo ous
ĠæĮĩå®ļå¤ĸéĥ¨ èµĦæºĲç®¡çĲĨåĻ¨æł¹çĽ®
ĠEMPIEZ A
Ġê°Ĵìľ ¼ë¡ľ
ĠLOCATION S
Ġç³»ç»ŁçļĦçĬ¶æĢģåıĺéĩı æĢ»åħ±
è¯¯å·®æĪĸ åĻªå£°
Ġ\___|\__, _|\__,_|___/
çĽ®åīįé»ĺè®¤åĽĽè¾¹ å¡«åħħ
æĽ´æį¢éŁ³ä¹ĲéľĢè¦ģ æĸ°å»ºå¯¹è±¡
ĠStartBoundaryNotFound Defect
ĠìŀĦìĿĺ ìĿĺ
ĠåĬłè½½æ¸¸æĪıä¸» ç±»
Ġå®ļä¹īæīĢæľīåľºæĻ¯çļĦ æŀĦéĢłæĸ¹æ³ķ
PACKAG ES
ĠìĿ´ìļ©íķ ľ
Ġæĸĩä»¶åľ° åĿĢ
Ġæ¯ıä¸ªè¡Įäºº éĥ½æľīä¸Ģä¸ª
Ġæ¯ıä¸Ģä¸ªå¯¹è±¡ä»ħ ä¸ºä¸Ģé¦ĸéŁ³ä¹ĲæľįåĬ¡
å®ŀçİ°ä¸ĢäºĽå¸¸ çĶ¨çļĦæķ°åŃ¦åĩ½æķ°
ĠíĮĮìĿ´ì į¬
"^(([^:/ ?#]+):)?(//
Ġæµĭéĩıæĸ¹å¼ı ä¸ºçĽ´æİ¥èİ·å¾Ĺä½įç½®åĿ
ĠAttributesNSI mpl
åħ¬åħ± çĪ¶ç±»
RoutineControl Response
Ġnomencl ature
Kalmanæ»¤æ³¢æľ¬èº« æĺ¯è´Ŀåı¶æĸ¯æ»¤æ³¢ä½ĵ
ĠìĿ¸í Ħ°ëŁ½íĬ¸
ĠìĿ½ìĸ´ë ĵ¤ìŀĦ
Ġä»¥åĽ¾åĥıè·¯å¾Ħ åĪĿå§ĭåĮĸå¯¹è±¡
Ġä»¥è¿ĶåĽŀ pygameæĶ¯æĮģçļĦæł¼å¼ı
çĶ¨äºİè·Łè¸ª ä»ĸçļĦè¡Įè¸ª
å°Ķç§ĳå¤ «æ¦Ĥçİĩæ¨¡åŀĭåŁº
å°ĶæĽ¼æ»¤æ³¢ åĻ¨
æīĢæľīåľºæĻ¯çļĦæĬ½è±¡ ç±»
Ġå®ŀçİ°ç»ĵæĿŁ çķĮéĿ¢çļĦæİ§åĪ¶
Ġå®ŀçİ°æĴŃæĶ¾åĴĮ åģľæŃ¢
ĠìĤ¬ìĿ´ì¦Ī ë§Įíģ
ĠæıĲä¾Ľä»¥ä¸ĭ ä¸īä¸ªæİ¥åı£
ĠæĮĩå®ļåħģè®¸çļĦéŁ³é¢ĳ åĲİç¼Ģ
Ġè¿ĶåĽŀPygameæĶ¯æĮģ çļĦåĽ¾çīĩæł¼å¼ı
ĩè®¾è¿Ļä¸¤ ä¸ªç³»ç»ŁçĬ¶æĢģåıĺéĩıä¸įçĽ¸åħ³
ĠBodyNotHttp libCompatible
ä¸ĵå±ŀäºİä»ĸçļĦåį¡ å°ĶæĽ¼æ»¤æ³¢åĻ¨
Ġå¾ªçİ ¯æĴŃæĶ¾
ĠSubjectAlt NameWarning
Ġèİ·åıĸæĸĩä»¶åĨħéĥ¨ æīĢæľīæĸĩä»¶çļĦåĲįåŃĹ
?([^#]*))?(#(.* ))?")<
éĢļè¿ĩpythonæĶ¹ åĨĻåĮĢåĬłéĢŁå°ı
#\/@].*?)\]) """,<
Ġä¸Ķåģ ĩè®¾è¿Ļä¸¤ä¸ªç³»ç»ŁçĬ¶æĢģåıĺéĩıä¸įçĽ¸åħ³
\.]*?)(\(.* ?\))?$")<
Ġç»§æī¿åľºæĻ¯ åħ¬åħ±çĪ¶ç±»
ĲæłĩèĢĮæĹłéľĢ åħ¬å¼ıè½¬æį¢
allabouthapp iness
"""((\\*)\ [([
Ġ-/]*[@-~]) ")<
ĠMultipartInvariant ViolationDefect
Ġå±ıå¹ķåĪĨ è¾¨çİĩ
è½¦ä½įç½®ä¼°è®¡çļĦKalmanæ»¤æ³¢ æ¨¡æĭŁ
è®¡ç®ĹçŁ©éĺµçļĦè´¨å¿ ĥ
([^/?#]*))?([^?#]*)(\ ?([^#]*))?(#(.*))?")<
æīĢä»¥è§ĤæµĭçŁ©éĺµHä¸Ńä½įç§» ä¸º
å»ºç«ĭåľ¨é©¬ å°Ķç§ĳå¤«æ¦Ĥçİĩæ¨¡åŀĭåŁº
Ġèİ·å¾Ĺæ¸¸æĪıå®ŀ ä¾ĭ
Ġèİ·åıĸæ¨¡åŀĭæ¯ıä¸Ģå±ĤçļĦæ¯ıä¸Ģä¸ª paramå¹¶æĽ´æĸ°
ĠæĮĩå®ļå¤ĸéĥ¨èµĦæºĲç®¡çĲĨåĻ¨æł¹çĽ® å½ķ
Ġ\___|\__,_|\__,_|___/ _|
Ġæ¯ıä¸ªè¡Įäººéĥ½æľīä¸Ģä¸ª ä¸ĵå±ŀäºİä»ĸçļĦåį¡å°ĶæĽ¼æ»¤æ³¢åĻ¨
"^(([^:/?#]+):)?(// ([^/?#]*))?([^?#]*)(\?([^#]*))?(#(.*))?")<
Ġæµĭéĩıæĸ¹å¼ıä¸ºçĽ´æİ¥èİ·å¾Ĺä½įç½®åĿ ĲæłĩèĢĮæĹłéľĢåħ¬å¼ıè½¬æį¢
Kalmanæ»¤æ³¢æľ¬èº«æĺ¯è´Ŀåı¶æĸ¯æ»¤æ³¢ä½ĵ ç³»çļĦ
ĠìĤ¬ìĿ´ì¦Īë§Įíģ ¼
éĢļè¿ĩpythonæĶ¹åĨĻåĮĢåĬłéĢŁå°ı è½¦ä½įç½®ä¼°è®¡çļĦKalmanæ»¤æ³¢æ¨¡æĭŁ
å»ºç«ĭåľ¨é©¬å°Ķç§ĳå¤«æ¦Ĥçİĩæ¨¡åŀĭåŁº ç¡Ģä¸Ĭ
! :
! _
! ')
" @{
# '<
$ '<
% ')
' ;
' """<
' ve
' ``.<
' ``.
* $
* &
+ ")<
. ",
. ]+
. %(
. !")<
/ %(
0 74
1 17
2 30
3 000
3 34
4 86
4 80
5 000000
5 89
6 54
7 40
7 27
8 5
9 403
: ]
; ")<
> "
> ")
> ]*
? '<
@ ",<
A ST
A album
A artist
B Q
B i
B l
B IO
B ear
B oot
B utch
C X
C se
C lasses
C lear
C SV
C NN
D IC
D ash
D RAW
E U
F L
F S
F uture
G zip
G RAY
G enarate
H P
H p
H and
H old
H APP
H Cse
I u
I SL
I SD
I EW
J i
K I
K itchen
K KI
L ATE
M ongodb
M ade
M otor
N K
N eed
N ERS
N rf
P L
P ct
P AD
Q MenuBar
Q MainWindow
Q rcode
R I
R X
R aspberry
R oom
S on
S ib
S PE
T ip
U ste
U Ji
U KKI
V WR
W g
W j
W allpaper
W illi
X CB
Y UKKI
Y Wg
Z k
Z BL
Z Pct
[ %(
\ ",
] -
] "),<
a a
a les
a hrenheit
a Wj
b at
b ut
b astian
b slash
c f
c g
c ion
c ec
d T
d ad
d ced
d ns
e y
e ster
e ach
f m
f name
f number
f qd
f ather
f uzz
f ahrenheit
g f
g os
g ress
g usersdb
h oc
h Max
h Cam
i ent
i ao
i lities
i tical
i acion
j fi
j et
j ca
k M
k a
k j
l se
m ut
m ath
m box
m iddle
m det
m otor
n oo
n ick
n spkg
o Men
o vers
o ZBL
p ins
p andas
q v
q ct
r v
r w
r er
s api
s yntax
s hell
s aber
s elected
s rv
t ell
t eleg
t elegram
t UJi
t gusersdb
u le
u ald
u leano
u oZBL
x fe
x ê°
x gboost
x iao
x jca
y e
y ml
y ug
y ank
y lim
z f
z ca
} ",<
} "))<
¢ è¿
£ ä¹Ī
¦ ì§Ģ
¦ åŃĺ
© ´
© ê³
¬ ¼
¬ ê¸
¯ æł
° N
° ı
° ë¥
° íķĺ
± ìłģ
² ½
³ ´
¶ Ģí
· »
· ¼ë¬´
· éĶ
¸ ê°
¸ ìĪĺ
¸ åĨħå®¹
º å¯
¼ ìĿĦ
¼ ĸè¾ĳ
Ä °N
å ĭ
å ±Ĥ
æ ®
ç Ĭ¶
ç Ĺħ
è Ĥ
é ¡
é Ĥ
ë Ĳ
ë ĤĺìĿ´
ë ¶Īíķ©ê²©
ë ¶Ģí
ì ĻĢ
ì ´Īê³¼
í ı
í Ľ
í ĻĢ
ĉ Ġ
Ġ ):
Ġ ############################
Ġ ä¸»
Ġ question
Ġ åĪłéĻ¤
Ġ åĪ¤æĸŃ
Ģ ê²½
ĥ æ»¤
ĥ ç»Ħ
Ħ ì§
Ħ ë¥¼
Ĩ åĮĸ
ĩ æį¢
Ī ìłľ
Ī ëĬĶ
Ĭ ìķ
Ĭ ¦ì§Ģ
į ìĿĦ
İ ä½¿çĶ¨
ı éļ
Ĳ ĺì
Ĳ è¡Į
Ķ ìĶ¨
Ķ °ë¥
Ĺ Ĺ
ĺ ë°
ĺ Īìłľ
Ļ åħ¥
Ļ Ħë
ļ Ķ
ļ ¸ìĪĺ
ľ łë¬´
ľ çĹħ
Ł ¥
Ł å®ŀ
Ł å¼ĥ
ł åĽ¾åĥı
Ń ìĶ¨
in com
in clusive
er Bot
er ies
re y
re ar
re main
re trie
re alizar
int ic
int egers
at al
at ec
at abase
st ab
en a
en id
pr iv
pr ivatedb
lo s
Ġw ake
Ġw orth
se quence
se crets
Ġa fir
Ġa eval
(" <
(" __
ld version
al t
al th
Ġs po
Ġs ir
Ġs lash
Ġs lack
Ġs aber
de de
de comp
de compress
de ea
ti py
ti led
ti les
Ġc ad
Ġc od
Ġc oin
Ġc ity
Ġc red
Ġc ero
Ġc auses
Ġc uestion
an te
Ġf ed
Ġf lot
Ġf onts
ss lob
ac ÃŃ
Ġn ice
Ġn aming
Ġb its
Ġb roken
Ġb uleano
ent ally
Ġin ference
Ġin correct
di go
di gos
ion ales
ame file
Ġ" ),
Ġ" ).
Ġ" ::
Ġ" @",<
es p
es cr
li f
str ar
str ptime
ĠT IME
ĠT ester
ec ha
un ix
fi ve
Ġm and
Ġm um
Ġm odu
Ġm undo
Ġm otor
Ġm mdet
Ġm intic
Ġ' ?'<
ue O
ad ow
Ġr v
up Co
Ġfor ever
od us
od atabase
th andler
ĠN ormalized
ter Field
get pass
get previous
get Property
get fqd
ĠC HE
ĠC red
ĠC lean
ĠC DLL
ĠC rear
ĠS ender
ĠS ongs
ap is
is olation
ĠP I
ĠP l
ĠP rogram
ĠP ins
ĠP air
ĠP hone
ĠP laylist
am Butch
Ġv oice
Ġv ey
Ġv acÃŃ
as ch
Er r
ĠL et
ĠL icen
op cl
op rec
op inion
Ġdi ferenc
Ġ1 024
Ġ. /
() ),
() )):<
() '.<
() >=
ĠI E
ĠI mbox
ul acion
ul thandler
ch oices
Ġse en
Ġse mantic
Ġse crets
(' [
Ġprint file
Ġprint message
Ġcon dition
Ġcon cat
00 02
com es
ist enc
Re pository
Re mote
Ġ0 1
et eam
Ġg ithub
Ġg ues
ĠD uration
ĠD URATION
', )
Ġx ë¥¼
if ted
if mit
ĠF oo
able d
ĠO WNER
Ġfile mode
ib e
ib ilities
Ġh ide
Ġh idden
Ġh Cam
Ġex change
Ġex pres
Ġget TreeBuilder
Ġget fullargspec
app lied
ag ion
lib raries
lib ucl
so und
so ck
Ġy u
Ġy ë¥¼
te ster
Ġor g
ure mail
ĠM a
ĠM at
ĠM urderer
ĠM yscrap
ĠM ONGO
Ġel t
Ġel ast
Ġel los
SE G
SE AR
ver writes
pre vent
url join
url retrie
Ġst ores
inter val
ER Y
Music Handle
code pro
os debug
Ġe val
ass ign
ĠR PIO
ĠR asch
im ap
######## ")<
ĠE scape
ĠE lse
ĠE stab
ĠE lif
out go
out tmpl
Con dic
ĠRe f
ĠRe to
ĠV IEW
ĠĠĠĠĠĠĠĠĠĠĠĠĠĠĠĠ ĠĠĠĠĠĠĠĠĠĠĠĠĠĠĠ
ang ment
ĠIn fer
ĠIn clude
Ġu in
IC SEAR
Ġ% <
Ġme m
Ġun ix
Ġun install
pl us
comp arison
comp liant
Ġ3 45
Ġpy j
Ġpy ver
Ġpy mongo
Ġpy mongodb
Ġpy zbar
ou zf
py zbar
ĠH O
ĠH at
ĠH ome
Ġlist view
error Id
Ġpath names
Ġsh adow
Ġsh ifted
sh are
sh ake
sh ipping
Ġar angment
Bot father
ĠList ener
ĠW ALLPAPER
ĠThe HamkerCat
Ġtime zone
=" ;")<
=" [%(
io h
ud uz
son File
SI ABLE
bo lean
min s
Response Info
cr itical
iter values
DS UDO
ync IO
chat topdb
=' ',
ĠG rab
ĠG PL
config s
config File
oin crement
AT S
DE LS
[" _
.. ")<
ST MIN
Ġnum s
En cryption
Ġal phas
iv a
ĠSe bastian
base string
Ġapp s
TT ON
Ġus able
UT C
ded ent
ĠSt d
Ġ4 096
Ġle y
Ġso cks
Ġ5 00
wait Time
Ġco digo
12 14
back ports
enc iacion
Ġuser IdList
env enid
Ġfloat s
tern ativa
") [
") ).
DO USERS
Par a
dict åŃĹ
dict åĨĻ
dict ä¸Ń
Ġup l
âĸĪ <
Ġass ign
Key ring
line Query
ĠJ sonFile
by h
') )+
ìĿ ¼ìĿĦ
Ġback slashes
Ġback upCo
64 5
Ġes p
ï¼ Ł
red of
åı ¦åŃĺ
The HamkerCat
co graphy
çļĦ actual
çļĦ æĹ¶
çļĦ ç±»åŀĭ
çļĦ å¤ĦçĲĨ
çļĦ æĴ¤
çļĦ åįıæĸ¹å·®çŁ©éĺµ
Ġì ´Īê³¼
Ġì ĺĪìłľ
Ġì ĻĦë
Ġì ľłë¬´
FA IL
Ġtest Serializer
Ġ"" )
Ġ"" )).
Request Info
Ġmax Bytes
json éĩĮ
ach ment
ĠInvalid Git
List View
List ening
Ġdir mode
dition ally
Ġ(' -
"] ]:<
25 0
25 4
ED TEST
åĪ Ĵ
åĪ Ļ
Ġac cid
Ġtree ID
22 3
Command Info
Ġmin s
ting Vector
dep ends
ĠIterator Mapping
Ġcom o
({ !
Ġq r
BU FSIZE
BU TTON
Ġå İĨåı²
Ġå ¿«
Ġla mb
ĠĠĠĠĠĠĠĠĠĠĠĠĠĠĠĠĠĠĠĠĠĠĠĠĠĠĠĠĠĠĠĠ Ġ
AD DSUDO
Return Exchange
sa ving
ĠFile split
)) }"<
)) })<
.* ',<
Ġæ ĭ
Ġë ¶Īíķ©ê²©
Ġë ¬¼
Ġë Ĭ¦ì§Ģ
Ġë Ĳĺì
Ġë Ķ°ë¥
Ġauto class
åħ ¸åĨħå®¹
cor eteam
Ġdep s
ìĿ´ ë¦Ħ
MO qct
my account
check point
EL AST
BO ARD
BO ueO
11 48
Ġfield name
Ġsu ffic
COL ORS
Ġmay o
query set
query Album
query Artist
Path Metadata
zip ped
Ġsetup ListenerPins
Ġweb repl
Ġali ve
Ġbot tom
show Message
Ġlook ing
ĠSU PP
Info Distribution
Info setFilter
gb ansdb
Ġê ·¼ë¬´
Ġ". ",<
Ġ". "))
ĠSO UNCLOUD
Ġstream type
UN BLOCK
save Image
Dec lare
view s
status Bar
Image Recogn
Image Infer
ç» Ī
wrap s
Ġdiffer ences
contain ers
bot tom
Ġimp rove
current Time
De vs
å¤ ¹
å¤ ļ
web repl
ĠConfig ure
ĠLink Source
Ġwant ed
node Value
ĠPR IVATE
Ġresp uest
LA ST
]+ )\
auto section
auto discover
Ġmo dify
Ġmo strar
15 29
å¼ łåĽ¾åĥı
ĺì ĬµëĭĪëĭ¤
Ġpick ed
PRE DIC
SU DOERS
SU DOUSERS
err r
ä¸º f
ä¸º æķ°åŃĹ
ä¸º äºĨ
ABC UT
Ġpoint ing
ĠCON FIG
Ġ9 000
ĠPre ference
ĠRequirement Information
æĸĩä»¶ å·¥åħ·æłı
æĸĩä»¶ å¤¹
QU EST
ph Min
ph ases
music s
56 3
æį ·éĶ
Ġauth db
ĠTr ading
Ġpyp i
Ver ify
âķ ĶâķĲâķĹ
è¯ Ŀ
search ing
Ġclient Num
Ġinfo setFilter
language s
mac ion
Ġprop er
ho al
ho la
dis connect
undo f
ä¸Ģ å±Ĥ
ä¸Ģ å¼łåĽ¾åĥı
ĠST REAM
ĠST ATS
'), "
¾å °ı
ĭľ ëĬĶ
Com ic
Com ments
OL D
ç±» éĩį
hat s
secure apps
OK S
the ir
END POINT
Char m
è¿ Ĳè¡Į
Ġ11 30
road cast
80 80
ä½ ľ
ì§ ĿìĪĺì
ĠComp any
ŀħëł¥ íķĺì
Ġplay type
Ġtrack ing
31 02
39 03
VI SIABLE
åħ¥ åĲįç§°
ĠRE SET
Ġposition al
Ġ-------------------------------- --<
Ġ-------------------------------- -------<
Ġman aging
sample çļĦactual
Ġ"{ !
ĠNum ero
assistant dict
assistant database
Track s
Track er
14 00
Function Type
201 0
201 4
54 66
38 48
Ġcell phone
Windows Path
åº Łå¼ĥ
Ġaut oincrement
Ġ"- "
thread s
35 75
Ħì ²´
Ħì ĹĲ
Ħì ŀħëł¥íķĺì
++ <
Al gorithm
Al terField
IF EST
Ġattemp ts
task Id
Ġext ending
Ġsum ado
ä¸į åĲĮ
ä¸į åĲ¯
PRO D
Ġfla ke
Ġproble ma
Cre ar
Pr ivate
°ì ĹĲ
°ì ļĶ
ĠSer ver
Ġç ¼ĸè¾ĳ
real file
Ġsign os
chats db
ĠQu eries
playlist db
æ³ ¨
çĲ ĥæ»¤
Ġmusic s
ë¡ľ ë¶Ģí
ê² Į
Ġ'\\ '
Ġtool s
MAN IFEST
ĠYukki bin
Ġrec iva
Ġ"/ ",<
Ġ"/ */
Ġshort er
Ġpresent ed
'' \<
CCompiler Error
Package Set
hot el
HTM LTokenizer
Ġë° ı
éĩı åŃĹç¬¦ä¸²
çĲĨ å¤ĦçĲĨ
My QRCode
mk time
Ġhead quarters
Ġcorrect a
Ġprim ero
æĺ¯ ä¸ºäºĨ
å° ºå¯
less secureapps
Ġcor rer
authuser db
ĠSub class
Listener Matrix
æīĢæľī éħįç½®
ê° Ħìŀħëł¥íķĺì
vision er
disc overy
Load s
æµĭ éĩı
LOAD JSON
GR ABCUT
do ctype
Ġpot ential
Ġpot enciacion
Ġdisc overy
Ġdisc overs
ä¿¡æģ¯ ä¸įä¸Ģ
ĠLIGHT WHITE
ĠLIGHT BLACK
ĠLIGHT RED
ĠLIGHT GREEN
ĠLIGHT YELLOW
ĠLIGHT BLUE
ĠLIGHT MAGENTA
ĠLIGHT CYAN
Ġë³ Ģê²½
åĲİ çļĦåĨħå®¹
åĲİ ä¸Ģå±Ĥ
å½¢ çĬ¶
è§ ĨåĮĸ
ìĦ ¸ê°
ĠSh ould
ĠFr agment
è¯· æ±Ĥ
88 9
xx kM
Ġps Max
Ġps Min
ĠDat abase
Ġcop ule
Ġhome page
Engine ering
BLOCK ED
pad y
ĠLabel s
ĠLabel Algorithm
è½¬ æį¢æĪĲ
åĬłè½½ çŁ©å½¢æ¡Ĩä¿¡æģ¯
download s
download er
ĠAl ternativa
Ġdim ensions
Ġ------------------------------------------------ --<
Ġ------------------------------------------------ ----<
Ġmanage s
AUTH ORI
Page View
QQ æĺµç§°
sudoers db
Ġíķ ľ
Ġíķ ©ê³
Ġìł Ħì²´
Ansi Codes
>~~~~~~~~~~~~~~~~ ~<
çĬ¶æĢģ æłı
Ġtab ulacion
tro v
Ġtermin ate
Ġè¿ Ļ
ä¿ĿåŃĺ å½ĵåīįåĽ¾å±ĤçļĦ
"[ +-]?\
DB wc
Dis coveryScanner
Dis cography
åĴĮ æģ¢å¤į
stack overflow
Ġph Max
Ġfa hrenheit
Ġfa ulthandler
Ġ"# ",
Ġdirec cion
ĠëĤĺìĿ´ ìŀħëĭĪëĭ¤
Ġêµ °ìļĶ
ä¸Ģä¸ª sampleçļĦactual
Ġèİ·åıĸ jsonéĩĮ
Ġèİ·åıĸ QQæĺµç§°
lat ex
ĠSpec ial
ĠMy MenuBar
ĠMy MainWindow
mong odatabase
åĽŀ åĴĮæģ¢å¤į
åľ¨ è¿Ļ
åĨĻ æĸ¹æ³ķ
Pic Handle
å± ıéļ
Ġ$ [
InlineKeyboard Markup
Ġìłķ ìĥģ
Download ing
Ġsend to
ĠSystem ParametersInfo
ĠDis coveryScanner
ä¸Ń çļĦåĨħå®¹
ä¸Ń æĺ¾ç¤ºçļĦ
ĠìĦ ±ìłģ
ĠìĦ ŃìĶ¨
TEMP LATE
90 88
>âĸĪâĸĪ <
cython ize
æłı åıª
ìļ °
continued l
å¤± è´
Generic Alias
Ġè®¾ç½® ä¸»
Ġè®¾ç½® çªĹåı£çļĦ
Ġè®¾ç½® çĬ¶æĢģæłı
ìĦ± ìłģ
baz file
rel ated
tb CX
Ġpop ulated
Ġevalu ar
Ġìĭľ ê¸
Ġìĭľ ê°Ħìŀħëł¥íķĺì
è¿ĩ å±ıéļ
ìĥģ ê·¼ë¬´
)$ ')<
cid o
cid ence
ez ar
¨ì ŀħëł¥
Ġsy mbol
Ġfall ing
ĠAs yncIO
Ġlang m
Ġlang age
æĸ° forward
Ġè¯ ·
å¤į åĨĻæĸ¹æ³ķ
ìłķ ìĥģê·¼ë¬´
Ġinstanti ated
Ġê°Ĵ ìĿĦ
XGBoost Classifier
'[{ ",
Ed it
qr codepro
Ġig ua
Ġig uald
Ġder echa
ĠFed XGBoostClassifier
Ġliter ally
Ġdev uel
setWindow Icon
Ġcoun try
Ġìķ Ħì§
Ġìķ Ĭìķ
blacklist Chat
ĠGeneral ImageInfer
ĠíĻ ĶìĶ¨
ìĪĺì ŀħëĭĪëĭ¤
Ġ": ",<
Ġvari eb
ĠDB Handler
Ġcollect ed
Memory BIO
Ġë°°ì ļ¸ìĪĺ
éĿ¢ æķ°æį®
Ġemp ezar
åıª è¯»
åı¯ è§ĨåĮĸ
Ġìŀ ĪëĬĶ
ĠåĬłè½½ jsonæĸĩä»¶
æłĩ é¢ĺ
æİ¥åı£ åŁº
>################################################################# ####################
=_ ["
dr ain
qq nick
Ġæĸĩä»¶ èıľåįķ
Ġæĸĩä»¶ æīĵå¼Ģ
Ħë ©´
Ġ"âĸĪ "
Exit Stack
åħ¨ ä¸ºæķ°åŃĹ
æľ¬ è½¯ä»¶
çĽ¸åĲĮ éĤ
87 3903
feed s
yo uremail
æ¡Ĩ æŀ¶
ê¸ °ìĹĲ
Ġerr r
("######## #
Ġblock s
uni form
ĠMo dify
íķĺ ëĬĶ
íķĺ ê²Į
íķ©ê²© ìŀħëĭĪëĭ¤
Ġutili za
ĠasciiUpper case
åĲįç§° å®ļä¹ī
åĲįç§° ä¸ºf
å½¢å¼ı ä¸º
å¹¶ å®ļä¹ī
ĠåĽ¾åĥı æ¡Ĩæŀ¶
æĹ¶ åºŁå¼ĥ
æĹ¶ ä¸įåĲ¯
ë³Ģ ê²½
æīĵå¼Ģ åĽ¾çīĩ
æīĵå¼Ģ æĸĩä»¶å¤¹
ĠíĻĺìľ ¨ìŀħëł¥
ìĭľê° ĦìĹĲ
ĠìĤ¬ìļ©ìŀĲ ë¡ľë¶Ģí
ĠíĶĦë¡ľê·¸ëŀ ĺë°
68 4
92 48
Ġ'** '
ĠSlack Scene
ĠOVER WRITE
Ġdecomp ressed
Ġdeep copy
Ġdeep sleep
ĠGit CommandError
ĠGit Hub
Ġnumeric as
ä¸ĭ ä¸įåĲĮ
Ġè½¬ æį¢æĪĲ
éĩĮ è¿Ĳè¡Į
Ġç¬¬ ä¸Ģæķ°åŃĹ
Ġç¬¬ äºĮæķ°åŃĹ
ĠQuan tiled
Ġä¿ĿåŃĺ æīĢæľīéħįç½®
Ġfoot er
ĠPLAY LIST
Ġmet aclass
simple filter
Ġassistant dict
ĠåĨ Ļåħ¥
Ġsuggest s
Double Dash
eaf deea
åĽ¾å±Ĥ åı¯è§ĨåĮĸ
>############################################################################# #<
Am BOueO
CEL ERY
Des ktop
MU X
Timer Plugin
æ¬ ¢è¿
ìľ łë¬´
Ġcython ize
Ġpare cido
ĠUNI X
Intr odus
Intr uduz
Ġunn ir
ĠWH ITE
ĠæļĤ æĹ¶åºŁå¼ĥ
THRESH OLD
ä½ĵ æŀ¶
ĠTreeNode Type
Album s
æŀĦ è¿ĺ
å¸¸ éĩıåŃĹç¬¦ä¸²
Ġè¿ĶåĽŀ dictåŃĹ
Ġcondic iones
Ġè¯»åıĸ éħįç½®
bestSplit tingVector
ìĸ´ë ³´
å±ŀäºİ å¸¸éĩıåŃĹç¬¦ä¸²
æİ¨çĲĨ ä»»
Ġå°Ĩ ä¿®æĶ¹
Ġå°Ĩ dictåĨĻ
æĹłéľĢ éĩį
>âĸĪâĸĪâĸĪâĸĪ âĸĪâĸĪâĸĪâĸĪ
Co digos
Git Hub
OVER WRITE
ç¬¬ ä¸Ģæķ°åŃĹ
ç¬¬ äºĮæķ°åŃĹ
éĶ Ģ
Ġ######## ")<
Ġ######## #")<
Ġé¢Ħæµĭ ä¸Ģä¸ªsampleçļĦactual
Ġpv Max
Ġpv Min
ident acion
ĠMongo Client
ĠMongo DB
Ġess entially
Ġess ential
loadImage s
ĠæĶ¹åıĺ label
ĠæĶ¹åıĺ åĽ¾å±Ĥåı¯è§ĨåĮĸ
myData List
Special Form
ä¸ºr çļĦæĸĩä»¶
è½¯ä»¶ æķ´
è¯» æ¨¡å¼ı
æĺµç§° è¯·æ±Ĥ
æĴ¤ éĶĢ
ĠíĽ Ħ
ĠíĽ ĦìĿĺ
ĠíĻĢ ìĪĺ
ĠíĻĢ ìĪĺë¥¼
ĠâĸĪâĸĪâĸĪâĸĪ <
Ġ---------------------------------------- -<
Ġ---------------------------------------- -------<
SystemParametersInfo A
SystemParametersInfo W
TempDirectory TypeRegistry
blocked db
blocked users
ĠåĽ¾å±ĤåĪ Ľå»º
ĠåĽ¾å±ĤåĪ ĩæį¢
ç¼ĸè¾ĳ å·¥åħ·æłı
çªĹåı£çļĦ æłĩé¢ĺ
ĠFedDir ResponseInfo
ĠFedDir RequestInfo
Ġå®ļä¹īä¸º åĨĻæ¨¡å¼ı
Ġå®ļä¹īä¸º åıªè¯»
ëħĦ íĽ
ĠìĿ´ë¦Ħ ê³¼
ĠâĸĪâĸĪâĸĪâĸĪâĸĪâĸĪâĸĪâĸĪ âĸĪ<
Ġåħ³éĹŃjson åĨĻæ¨¡å¼ı
Ġåħ³éĹŃjson è¯»æ¨¡å¼ı
Ġå¦Ĥæŀľ ç¬¬ä¸Ģæķ°åŃĹ
åŃĹç¬¦ä¸² æĺ¯åĲ¦
ê·¼ë¬´ìĭľê°Ħ ìĿĦ
ĠíĮĲë³Ħ íķĺëĬĶ
515 1
DX YWg
Sk AmBOueO
UNA UTH
sn iff
æļĤ æĹ¶ä¸įåĲ¯
çŃ ī
ĠçĶ¨ æĿ¥
ĠçĽ®åīį è½¯ä»¶æķ´
("âĨ Ĳ
Ġsig ma
Ġfair ly
Ġnec agion
ĠNe eded
Ġopinion ated
ĠGIT HUB
Ġsubc lasses
ĠYoutube DL
æľĢ åĲİä¸Ģå±Ĥ
Vertical AlignMethod
ĠAssistant Err
ãĢĤ <
Ġpercent age
ä¿ĿåŃĺåľ¨ dictä¸Ń
ĠFeature Data
kb cg
sd k
Ġéħįç½® æĸĩä»¶è·¯å¾Ħ
att achment
ERO SION
writel ines
åŃĲ ç±»éĩį
ç»Ļ params
ĠçĬ¶æĢģ æłıåıª
è¡¨ç¤ºæ ĹĹ
åģļ çļĦæĴ¤
æİ¨çĲĨåĻ¨ æİ¥åı£åŁº
Ġè¾ĵåĩº çļĦæĹ¶
åľ¨åİĨåı²åĪĹè¡¨ ä¸Ńæĺ¾ç¤ºçļĦ
%') ).
074 54
117 5
654 8
740 8
727 7
BQ DBwc
Bi envenid
Bear er
Boot ing
FL node
Gzip File
Hp MOqct
Hand les
Hold ing
HCse xxkM
Iu ZPct
ISL NK
ISD IR
Motor Client
Nrf pe
Sib ling
SPE EDTEST
Tip os
VWR N
Willi amButch
Zk SkAmBOueO
aWj IuZPct
dad os
dced ae
dns name
fuzz y
jfi f
mut ex
noo verwrites
oMen HpMOqct
teleg ra
xê° Ĵ
xiao api
yug ioh
yank ed
£ä¹Ī åģļçļĦæĴ¤
¬ê¸ °íķĺ
¯æł ¸
²½ íķĺê²Į
èĤ ¾å°ı
ëĲ ľ
ë¶Īíķ©ê²© ìŀħëĭĪëĭ¤
ìĻĢ ìļ°
ì´Īê³¼ ê·¼ë¬´
íı ¬ê¸°íķĺ
íĻĢ ìĪĺìŀħëĭĪëĭ¤
Ġ############################ #<
Ġä¸» åĩ½æķ°
ĠåĪłéĻ¤ æľĢåĲİä¸Ģå±Ĥ
ĠåĪ¤æĸŃ åŃĹç¬¦ä¸²æĺ¯åĲ¦
İä½¿çĶ¨ æľ¬è½¯ä»¶
ľçĹħ çĲĨå¤ĦçĲĨ
incom ing
atec hats
priv atechats
Ġafir macion
Ġspo tipy
Ġsir ver
decomp ressed
Ġcad ena
Ġcod Ã©
Ġcoin cidence
Ġcuestion ario
Ġfed xgboost
Ġflot ante
sslob j
Ġ"), "
escr ibe
ĠTIME OUT
Ġmand atory
Ġmum ero
Ġmodu lo
getfqd n
ĠCred it
Ġvey a
ĠvacÃŃ a
ĠLicen ce
oprec iones
Ġdiferenc ia
Ġconcat enar
Repository Error
Remote FileSource
ifmit ao
Ġexpres iones
ĠMyscrap Config
Ġelast icsearch
prevent DoubleDash
urlretrie ve
assign ed
ĠRasch ka
ĠEstab lish
outgo ing
Condic ionales
ICSEAR CH
ĠHome PageView
ĠGrab Coin
DELS UDO
lineQuery Result
'))+ "\\
ĠbackupCo unt
åı¦åŃĺ ä¸º
çļĦç±»åŀĭ å±ŀäºİå¸¸éĩıåŃĹç¬¦ä¸²
çļĦå¤ĦçĲĨ çĽ¸åĲĮ
Ġì´Īê³¼ ìľłë¬´
ĠìĻĦë ²½íķĺê²Į
ĠInvalidGit RepositoryError
Ġaccid entally
ĠåİĨåı² çļĦç±»åŀĭå±ŀäºİå¸¸éĩıåŃĹç¬¦ä¸²
Ġå¿« æį·éĶ
Ġë¬¼ ìĸ´ë³´
ĠëĲĺì ĭľëĬĶ
ĠëĶ°ë¥ ¸
ELAST ICSEARCH
queryAlbum Tracks
queryArtist Discography
ĠSUPP RESS
Ġê·¼ë¬´ ìĭľê°ĦìĹĲ
Ġ".")) [:-
ImageRecogn ition
Ġrespuest a
autosection label
PREDIC TION
ä¸Ģå¼łåĽ¾åĥı æľįåĬ¡
ì§ĿìĪĺì ŀħëĭĪëĭ¤
åħ¥åĲįç§° ä¸ºrçļĦæĸĩä»¶
Ġç¼ĸè¾ĳ èıľåįķ
çĲĥæ»¤ è¿ĩå±ıéļ
Ġ"/*/ *.
æĺ¯ä¸ºäºĨ ä¸Ģå¼łåĽ¾åĥıæľįåĬ¡
å°ºå¯ ¸
ä¿¡æģ¯ä¸įä¸Ģ æł·
åĲİçļĦåĨħå®¹ ä¿ĿåŃĺåľ¨dictä¸Ń
ìĦ¸ê° Ģ
Ġíķ©ê³ Ħë¥¼
ä¿ĿåŃĺå½ĵåīįåĽ¾å±ĤçļĦ çŁ©å½¢æ¡Ĩä¿¡æģ¯
Ġèİ·åıĸjsonéĩĮ éĿ¢æķ°æį®
åĽŀåĴĮæģ¢å¤į çļĦå¤ĦçĲĨçĽ¸åĲĮ
åľ¨è¿Ļ éĩĮè¿Ĳè¡Į
ä¸ŃçļĦåĨħå®¹ ç»Ļparams
ĠìĦŃìĶ¨ ë¡ľ
å¤±è´ ¥
Ġè®¾ç½®ä¸» çªĹåı£çļĦæłĩé¢ĺ
Ġè®¾ç½®çªĹåı£çļĦ å°ºå¯¸
ìĦ±ìłģ ìĿĦ
tbCX EU
Ġìĭľê¸ ī
Ġìĭľê°Ħìŀħëł¥íķĺì Ħ¸ìļĶ
ĠAsyncIO MotorClient
æĸ°forward æĸ¹æ³ķ
Ġigua les
Ġiguald ad
Ġdevuel va
ĠìķĦì§ ģ
ĠìķĬìķ ĺìĬµëĭĪëĭ¤
ĠíĻĶìĶ¨ ë¥¼
Ġvarieb les
ĠåĬłè½½jsonæĸĩä»¶ ä¸ŃçļĦåĨħå®¹ç»Ļparams
>##################################################################################### ##<
çĽ¸åĲĮéĤ £ä¹ĪåģļçļĦæĴ¤
ê¸°ìĹĲ ëĬĶ
åĲįç§°å®ļä¹ī ä¸ºr
å¹¶å®ļä¹ī åĲįç§°ä¸ºf
ĠåĽ¾åĥıæ¡Ĩæŀ¶ çĽ¸åħ³
ë³Ģê²½ ëĲľ
ĠìĤ¬ìļ©ìŀĲë¡ľë¶Ģí Ħ°
ĠíĶĦë¡ľê·¸ëŀĺë° įìĿĦ
ä¸ĭä¸įåĲĮ ç±»åŀĭ
Ġç¬¬äºĮæķ°åŃĹ è¡¨ç¤ºæĹĹ
ĠåĨĻåħ¥ jsonæĸĩä»¶
æ¬¢è¿ İä½¿çĶ¨æľ¬è½¯ä»¶
Introdus zca
Intruduz ca
ä½ĵæŀ¶ æŀĦè¿ĺ
Ġè¿ĶåĽŀdictåŃĹ åħ¸åĨħå®¹
æİ¨çĲĨä»» åĬ¡
Ġå°Ĩä¿®æĶ¹ åĲİçļĦåĨħå®¹ä¿ĿåŃĺåľ¨dictä¸Ń
Ġå°ĨdictåĨĻ åħ¥åĲįç§°ä¸ºrçļĦæĸĩä»¶
æĹłéľĢéĩį å¤įåĨĻæĸ¹æ³ķ
æĺµç§°è¯·æ±Ĥ å¤±è´¥
Ġå®ļä¹īä¸ºåıªè¯» æ¨¡åŀĭ
ëħĦíĽ Ħë©´
Ġå¦Ĥæŀľç¬¬ä¸Ģæķ°åŃĹ çĽ¸åĲĮéĤ£ä¹ĪåģļçļĦæĴ¤
DXYWg MUX
æļĤæĹ¶ä¸įåĲ¯ çĶ¨
ĠçĽ®åīįè½¯ä»¶æķ´ ä½ĵæŀ¶æŀĦè¿ĺ
kbcg x
åŃĲç±»éĩį æĸ°forwardæĸ¹æ³ķ
ĠçĬ¶æĢģæłıåıª æĺ¾ç¤º
æİ¨çĲĨåĻ¨æİ¥åı£åŁº ç±»
Ġè¾ĵåĩºçļĦæĹ¶ éĹ´
åľ¨åİĨåı²åĪĹè¡¨ä¸Ńæĺ¾ç¤ºçļĦ ä¿¡æģ¯ä¸įä¸Ģæł·
Bienvenid o
WilliamButch erBot
oMenHpMOqct tbCXEU
èĤ¾å°ı çĲĥæ»¤è¿ĩå±ıéļ
íı¬ê¸°íķĺ ê¸°ìĹĲëĬĶ
ĠåĪ¤æĸŃåŃĹç¬¦ä¸²æĺ¯åĲ¦ åħ¨ä¸ºæķ°åŃĹ
ľçĹħçĲĨå¤ĦçĲĨ ç³»ç»Ł
preventDoubleDash Comments
Ġå¿«æį·éĶ ®
Ġë¬¼ìĸ´ë³´ ê³ł
queryArtistDiscography Albums
Ġç¬¬äºĮæķ°åŃĹè¡¨ç¤ºæĹĹ ä¸ĭä¸įåĲĮç±»åŀĭ
Ġå°ĨdictåĨĻåħ¥åĲįç§°ä¸ºrçļĦæĸĩä»¶ ä¸Ń
Ġå¦Ĥæŀľç¬¬ä¸Ģæķ°åŃĹçĽ¸åĲĮéĤ£ä¹ĪåģļçļĦæĴ¤ åĽŀåĴĮæģ¢å¤įçļĦå¤ĦçĲĨçĽ¸åĲĮ
ĠçĽ®åīįè½¯ä»¶æķ´ä½ĵæŀ¶æŀĦè¿ĺ æĺ¯ä¸ºäºĨä¸Ģå¼łåĽ¾åĥıæľįåĬ¡
èĤ¾å°ıçĲĥæ»¤è¿ĩå±ıéļ ľçĹħçĲĨå¤ĦçĲĨç³»ç»Ł
! """<
! ",<
! ]+
" #
" ?
" _
" }
" ':
" ({
" *.
" (?:
" '):
" #]+
" |".
" ([^?#]*
# >"<
$ '
$ <
$ ',
$ ",<
$ """,<
% ():
' #
' --------
' "]<
' ((
' "{
' ...
' ``<
' ``,
' (-
' (\
' |\
' [\
' ">
' >'
' "'<
( #
( ([
( :\
( %(
( >=
) !
) ;
) """
) ()
) ).<
) '.
) ').
) [-
) })"<
) ;<
) "],<
) =!
) }]'<
* `
* ',
* ",<
* (<
* ),<
* ['
* ([^
* ?)
* =%
* $")<
+ /
+ $")<
+ -]*
+ */
+ !]+
, [
, }
, ",
, "<
, ),<
, ]+)\
- >
- ')<
- {}.
- +.
- )(
- +*/
. )
. ]<
. {}".
/ (
/ )<
/ ']<
/ \<
/ )")<
0 7
0 60
0 70
0 700
1 02
1 40
3 10
3 15
3 75
4 18
4 509
5 01
5 99
5 86
5 27
6 20
6 77
7 29
8 17
8 11
8 18
8 80
9 5
9 12
9 10
9 28
9 35
9 540
: |
: ``
: "<
: (\
: ]]<
: "):
: )").
; ')<
< ><
< ]+
= |
= ('
= ":
= (),<
> ,
> :<
> ",
> --------
> ":
> ((
> (?
> ([^
> .*?
> "')<
> ~~~~~~~~~~~~<
? "
? ",
? "))<
? $")<
? ]+\
? ))?-(?
A K
A head
A wait
A ri
A gain
A ISE
A mount
B Y
B a
B o
B ac
B ad
B RE
B SD
B BO
B athroom
B ARE
B lue
C I
C f
C ap
C ENT
C ida
C LO
C ann
C ell
C ES
C Python
C PP
C ors
C rop
C ESS
C ategory
C ascade
C MD
C rip
C JK
D g
D id
D ay
D BG
D ictionary
D ropout
D LED
E B
E j
E mp
E sc
E ff
E MA
E gg
E INVAL
E PIPE
F M
F v
F z
F ol
F ake
F LOW
F ixed
F actor
F lat
F ORMATTERS
F dr
F ATAL
G G
G q
G u
G at
G IN
G Attributes
G aussian
G lobal
G LVec
G rab
G enius
H t
H ard
H ere
H ERS
H KEYS
H REF
H opefully
H cH
H IGH
I Z
I l
I OR
I LT
I ta
I ssue
I HHH
I KELY
J ython
J ira
J NG
K W
K g
K EN
K nown
K jmarotools
K JNG
L c
L v
L ight
L ow
L ime
L iter
L ines
L PD
L imp
L ICE
L Resolver
L ik
L RUCache
L ANCE
M B
M G
M r
M ath
M gr
M ust
M ach
M BO
M any
M IME
M icrophone
N V
N u
N da
N ATION
N ECT
N EW
N DLED
O W
O d
O pt
O ps
O CR
O ptim
O BD
O verflowError
P B
P C
P h
P l
P ER
P IN
P HE
P ep
P ri
P MO
P rot
P adding
P ublic
P æĺ¯
P laylist
Q IHHH
R Y
R b
R BO
R TF
R IP
R ob
R FC
R IDE
R ows
R Fz
S M
S or
S elf
S EN
S ite
S mo
S CO
S can
S ULT
S ale
S ConnectionPool
S ensor
S ingleByteChar
S vgFormatter
T B
T D
T S
T X
T ab
T ools
T AB
T NI
T CL
U in
U IN
U RE
U CT
U CL
U zA
U tf
V d
V s
V y
V in
V oid
V AILABLE
W alk
W STR
W OM
W OW
X Fdr
Y B
Y outube
Z B
Z n
Z one
Z ero
Z IP
Z NG
[ .*?\
\ -\
\ '>'
] _
] ",
] ``
] (<
] }<
] ":<
] }"<
] ``<
] [:-
] (?:[
] .*?\
] `).<
^ \\
_ :
_ ")<
_ ,<
_ $'<
` ;
` __
` ."<
a ar
a id
a ef
a utos
a fc
b d
b re
b ac
b ed
b ab
b and
b all
b ai
b ang
b ou
b po
b utes
b uf
b ranch
b cc
b anned
b usyRepeatRequest
b rakeSwitchNotClosed
b alance
b Tools
c ic
c is
c ible
c ross
c iones
c imal
c xx
c playmode
c leand
c ecode
c uda
d od
d ele
d ll
d ictionary
d gm
d ynamic
e E
e v
e mon
e header
e uid
e ze
e Table
f A
f u
f ort
f ed
f et
f ew
f Name
f EL
f lask
f ade
f fold
f urther
f terno
f atal
g on
g name
g ist
g ly
g iti
g uments
g abi
g libc
g lue
h h
h ack
h bet
h opefully
i ar
i li
i end
i ver
i ang
i ently
i angle
i strator
i ÅŁtirilmiÅŁ
i ye
j ec
j ug
j ority
j ugador
k ing
k jmarotools
k filecontroller
l b
l g
l h
l p
l w
l mp
l st
l an
l one
l ator
l cut
l bpath
l trb
m ate
m os
m ind
m ute
m json
m ely
m icro
m urderer
m usl
m varfmt
n ap
n utf
n egative
n est
n Test
n PO
n AM
n You
n Usage
n Also
n Jacks
n NATION
n SEN
n UzA
n WOM
o ct
o sed
o graphy
p x
p lo
p lease
p enc
p itch
p OUT
p df
p SCK
p BB
p ublish
p unctuation
q z
q lit
q ãģ§
r r
r at
r ap
r ain
r ime
r ible
r td
r ama
r partition
s it
s ic
s ame
s un
s que
s sed
s lot
s Scanner
s ynony
s heets
s witch
s ftp
s Il
t c
t k
t print
t lib
t os
t are
t res
t He
t akes
t Loss
t gz
t span
t qdm
t fidf
t unnel
t aiyi
t orqueConverterClutchLocked
u M
u fe
u ous
u med
u hf
u Lc
v c
v iz
v ite
v ok
v ity
v ations
v rb
v limit
v isual
v ours
v hf
v anced
v Light
v lan
w as
w inter
w Ad
w ks
x E
x f
x n
x ad
x ls
x yle
x html
x shape
x late
x FFFF
x iet
x lim
y es
y ukki
y box
y Ä±
y XFdr
z el
z info
z uel
{ "
{ '
{ :
{ ')
| ==
| >|
} [
} ://
} \\
} .{
} {}".
} (:\
~ '),
¡ ®
¡ æľī
¢ ¯å
£ Ģ
£ ħ
£ İ
£ æĸ¹
£ ãģ
£ æŀ
£ åĮº
¤ ľ
¤ æ¶Ī
¦ çĲĨ
¦ ä¹łçİĩ
¦ è¾¹çķĮ
¨ ãģ
© í
© çĶ¨
© èī²
ª ãĤĭ
¬ âĶ
¯ ãĤ
° å½ķ
° Ð½
² ¾ç
² ç»ı
² ¡æľī
³ è¾¹çķĮ
´ âĶ
´ è¶
µ Ĥ
µ ı
µ è¯Ŀ
¶ éĻĲ
· æĿ¥
¹ æķ°
º ¦
º å®ļ
» çĽ¸
» Ð¾
¼ æİ¥
½ Ĵ
¾ å¤§
¾ ¤æ¶Ī
Ã ĸ
å ¥½
å İŁ
æ ĵį
æ Ĭ½æł·
æ ·»
æ Ł¥
æ ¢¯å
æ µı
ç ²¾ç
ç µĤ
è Ĺ
è £ħ
é ª
é ķ
é Ļ¤
é £İ
í ĥĿ
Ġ ,<
Ġ ec
Ġ ui
Ġ 00
Ġ ER
Ġ ~~~~~~~~
Ġ las
Ġ \\
Ġ ulti
Ġ qual
Ġ ############
Ġ ä¸į
Ġ åıĸ
Ġ ###
Ġ layers
Ġ queries
Ġ é»ĺè®¤
Ġ umask
Ġ çĽ´æĸ¹
Ġ ###<
Ġ Ðµ
Ġ ~~~~~~~~~~~~~<
Ġ çĽ´æİ¥
Ġ éĩĩçĶ¨æĩĴ
Ġ queriesdb
Ġ ðŁĺ±ðŁĺ±ðŁĺ±
Ġ Ñħ
Ġ åıį
Ġ çĶŁæĪĲ
Ġ ldversion
Ġ }[
Ġ Ãĸ
Ģ å±ŀ
ģ ¢å¤į
ģ èģ
ģ è£ħ
Ĥ ãģ
Ħ Ł
Ħ å»
Ħ ä¼°
Ħ ãĤĭ
ħ åĨ
ħ ç©º
ħ é¡
Ī åĮº
ī "]<
Ĭ ",
Ĭ è½¬
ĭ ",
ĭ ãģ
Į ",
Į ãģ
Į âĶĢâĶ
Į éĻĲ
į ",
į ·ç§
İ ",
ı ",
Ĳ èĹ
ĳ âķ
ĵ ä¹±
Ķ âĶĢâĶ
Ķ ç³»
ķ ãģ
ķ ãĤ
ĸ ¥
Ĺ åĪ°
Ļ ãģ®
Ľ ãģ®
ŀ è°ĥçĶ¨
ŀ Ħå»
Ł RO
Ł äºº
Ł åĲĪ
ł çªĹåı£
Ń ¦ä¹łçİĩ
or a
or i
or Arch
in file
in stan
in dependent
in vite
>< ?
er X
er str
er cur
er cli
er ical
er cic
er ili
el ats
el ectronic
re z
re ame
re ce
re format
re install
re als
re plac
re mely
mp ot
mp ler
Ġi ll
Ġi map
Ġi Ã§
int ro
int ensity
Ġ= (
Ġ= <
at ched
st ar
st it
st able
en ate
en shi
lo de
lo it
lo ew
Ġt on
Ġt ec
Ġt ro
Ġt res
Ġt elegram
Ġt fidf
Ġt zinfo
om ment
Ġw ide
Ġw ik
Ġw ipe
se x
se ver
le st
le ctions
le ÅŁtirilmiÅŁ
Ġa id
Ġa ax
Ġa md
Ġa mb
Ġa exec
Ġa ffects
Ġa fterno
"" ):<
(" #
(" --------
(" [:
(" [-
(" $")<
(" (",
(" :",
(" )",
(" ------------------------
al loc
al face
al ways
al ready
al ities
al lest
Ġs he
Ġs ck
Ġs low
Ġs cr
Ġs ax
Ġs ans
Ġs ong
Ġs lot
Ġs udo
Ġs atisfied
Ġs chema
Ġs heets
Ġs potify
Ġs heet
de ep
de termin
de coder
de tail
de AuthenticationFailed
ti se
ti ved
ti ves
ti zed
fr ag
fr ozen
from array
Ġc li
Ġc url
Ġc opyright
Ġc our
Ġc ard
Ġc python
Ġc ins
Ġc ope
Ġc amer
Ġc tx
Ġc dataElements
Ġc arriage
Ġc Pickle
he ses
ar ly
ar Field
ar ched
ar cascade
me di
me yi
Ġp ol
Ġp ict
Ġp anel
Ġp cd
Ġp oll
Ġp aid
an ner
an other
an cis
an iye
Ġf d
Ġf ir
Ġf ake
Ġf alls
it al
it ed
it to
it alized
it ating
it mos
Ġre parent
Ġre used
Ġre named
Ġre quisite
Ġre distributors
ing ly
ing Formatter
ing Element
__ '<
__ ='
__ ['
__ ")
__ }"<
__ =="
ur andom
ss ources
ss dod
ic olor
ic tive
ic sg
Ġo be
Ġo dd
ac ts
ac iÃ³
ut ter
ut ma
Ġn an
Ġn sp
Ġn ight
Ġn args
Ġn gram
Ġn egative
Ġn Tree
Ġn ormpath
Ġb c
Ġb and
Ġb ul
Ġb ub
Ġb ure
Ġb low
Ġb are
Ġb og
Ġb ord
Ġb arg
Ġb az
Ġb idi
Ġb ounded
Ġb order
Ġb roadcast
Ġb loew
Ġb anner
ent est
ent edBoundingBox
Ġin compat
Ġin determin
di l
di da
di agram
ion Error
ion Map
la unch
ed or
ed pyp
ed Encoding
Ġ" +
Ġ" .<
Ġ" ://
Ġ" ==
Ġ" !=
Ġ" ).<
Ġ" :\
Ġ" ''
Ġ" ..."<
Ġ" ðŁĺ±ðŁĺ±ðŁĺ±
Ġ" >":
ex ers
ex istent
ex ternal
ex ceededNumberOfAttempts
es h
es ite
es And
es ktop
li fe
li ases
li ance
># #
># ########
># ------------------------
str apped
ot o
ot as
ĠT eam
ĠT oo
ĠT alk
ĠT ags
ĠT rove
ĠT orqueConverterClutchLocked
ec ustom
un ot
un ce
un ner
un escape
un safe
un pause
un ivers
un ately
un typed
un ichr
fi es
-- \
-- '<
Ġm x
Ġm os
Ġm si
Ġm enu
Ġm iso
Ġm ongo
Ġm entioned
Ġm ingw
Ġm icrophone
Ġ' ['
Ġ' ':<
Ġ' ')
Ġ' )')<
Ġ' ()'
Ġ' ]'<
Ġ' "'
Ġ' [^
Ġ' "\\
Ġdef ual
Ġ( *
Ġ( ),<
Ġ( ).<
Ġ( [[
Ġ( ?)<
Ġ( "",
ad dition
ce ed
Ġr is
Ġr ate
Ġr ace
Ġr oc
Ġr mtree
up caseTokens
ip ular
Ġfor k
Ġfor um
ls ar
tr off
tr unc
tr acts
Ġis olation
th ings
us ion
us hes
ĠN A
ĠN V
ĠN et
ĠN ON
ĠN ORM
ĠN ONE
Ġan no
ter ms
get Str
get fullargspec
get usersitepackages
get Eff
get euid
uti ve
uti lity
ĠC LE
ĠC AR
ĠC AT
ĠC ell
ĠC lear
ĠC entral
ĠC ITI
ĠS I
ĠS ort
ĠS ent
ĠS eg
ĠS udo
ĠS udoers
ĠS imilar
ĠS ca
ĠS ectors
ĠS vgFormatter
ĠS PIN
ĠS aniye
ap es
ap ot
ap ane
is olated
is alpha
is Sur
end points
end Msg
sp erson
Ġd n
Ġd art
Ġd raw
ĠP ing
ĠP il
ĠP red
ĠP oss
ĠP REAM
ĠP unctuation
ĠP HP
ĠP PC
ĠP URE
ĠP atched
ĠP entest
ĠA ro
ĠA ver
ĠA UTO
ĠA cc
ĠA MD
ĠA AX
ĠA udi
ĠA liases
am odel
am mar
am ÃŃ
Ġv t
Ġv isual
Ġv oting
Ġv oltage
class name
class room
as ing
as list
as In
as semble
Ġint s
Ġint ere
Error Log
age s
age ment
ack bar
ab is
ab orated
ĠL E
ĠL oc
ĠL IS
ĠL ater
ĠL oose
ĠL EG
ĠL IKELY
ĠL exers
op ener
op ted
Ġdi sent
Ġdi vide
Ġdi vided
Ġdi agram
ig ation
ig uous
name ver
Ġ1 12
Ġ1 34
Ġ1 80
Ġ1 79
Ġstr g
Ġstr ipped
() '<
() ])<
() ``.<
() ][
() }")<
() }"
() }{
() }}<
ĠI ron
ub u
ub class
ub les
ch ain
ch allenge
con version
con cept
con ditionsNotCorrect
con struct
con flict
con firm
Ġse arched
put Text
(' ('
(' ([
(' ../
(' .*?\
(' "',
(' }',
(' "'):
(' ~'),
Ġth ird
Ġprint able
Ġcon so
Ġcon crete
Ġcon firm
Ġcon sec
log Name
Ġas semb
Ġ< >
Ġ< {}
ist DeprecationWarning
Ġ2 0000
Ġ2 23
Ġ2 38
Re format
Re aliz
Re place
Re direct
Re ports
Re pe
Re mix
Re ply
Re boot
Re mind
Re ssources
Ġpip e
Ġ[ __
Ġ[ --
Ġ[ {}
Ġ[ ""]
Ġ[ {'
pro ved
pro xied
pro jec
---- --<
ro ver
ro ved
ro bert
il ink
et ector
tp oint
ve hicleManufacturerSpecificConditionsNotCorrectFA
Ġg p
Ġg one
Ġg ate
Ġg if
Ġg ren
Ġg ave
Ġg ross
Ġg cd
Ġg utter
ĠD im
ĠD ir
ĠD DO
ĠD ans
ĠD EP
ĠD own
ĠD IG
ĠD OG
ĠD LL
ĠD ower
ĠD itto
ĠD esktop
ĠD istDeprecationWarning
Ġx f
um ing
um mary
if ting
ĠF D
ĠF S
ĠF loat
ĠF LT
ĠF eed
ĠF ri
ĠF actory
ĠF allback
ĠF ancy
ĠF PS
ĠF OUND
ĠF ATAL
ĠF EMA
list åĴĮ
ĠO ur
ĠO pt
ĠO SI
ĠO wn
ĠO BD
ĠO verflowError
ĠO MG
ĠO penc
mat ely
ib erate
Ġh x
Ġh int
Ġh ou
Ġh ref
ke bab
Ġex e
Ġex cel
Ġget value
Ġget FileName
Ġget usersitepackages
Ġget ListenerMatrix
Ġget Ph
`` '
`` ;
`` ::<
par ator
par agraph
:// ':
:// ([^
ag ers
Ġ== =
ĠU TC
ĠU gly
lib parser
Ġy es
Ġy ik
te apot
Ġl one
Ġl atter
Ġl trb
Ġor ient
file Name
Ġde ath
Ġde cre
Ġde codes
Ġde prec
Ġde mjson
Ġde frag
Ġ* .
Ġ* [<
ser vers
ser vations
ĠM B
ĠM r
ĠM ata
ĠM ore
ĠM PI
ĠM OT
ĠM ulti
ĠM iddle
ĠM ESS
ĠM achine
ĠM RO
ĠM uch
ĠM NIST
ĠM ingw
ĠM ercur
ĠB IN
ĠB uilt
ĠB az
ĠB ARE
ĠB ELL
ĠB Ã¡
ĠB usyRepeatRequest
ĠB rakeSwitchNotClosed
ĠB CPP
ĠB rain
Ġ{ "<
Ġ{ ...
Ġ{ })
und ers
Ġel lipsis
Ġel aborated
set ex
set Pro
set mode
set MenuBar
set Dock
set tingAccessRightsFailed
eg o
eg ation
eg gs
init All
ver Str
ver tical
ver tise
Ġby groups
pre serve
val s
ict ed
Ġ: ]<
Ġ: ],
Ġ: ])<
Ġ: ]],<
Ġst able
Ġst ink
Ġst artswith
Ġst ability
Ġst erili
Ġst reame
inter action
inter section
ree Node
ore an
dir r
ma jority
Ġpro file
Ġpro ber
qui rks
os Ã©
os qlit
sc ale
ace holder
Ġe mb
vi ated
vi rama
ass ertion
ass ingly
02 196
ind s
ind en
ĠR aised
ĠR ecurs
ĠR elevant
ĠR enders
ĠR LResolver
ĠR TCL
ĠR amÃŃ
IN DE
IN ED
IN ET
IN ITI
ite Data
Ġtr ick
Ġtr iplet
Ġtr ade
Ġtr iggered
Ġtr unc
Ġtr iangle
In clude
In tended
im s
im uM
rect s
rect angle
ine se
ok ay
Ġon to
ĠE spec
ĠE SC
ĠE asy
ĠE nums
ĠE cu
ĠE INVAL
ĠE PIPE
ĠE GG
ĠE PHE
sole te
out ine
out Log
Ġlogg ers
-------- --<
-------- ------<
Con sum
Con strain
Con cat
Con crete
Con sumed
Con firmation
ĠRe plac
ĠV T
ĠV ar
ĠV IN
ĠV Cs
ĠV CS
ĠV csInfo
ĠV alen
text wrap
ON Vs
ly ssdod
time InEntry
Ġen coder
ĠIn formation
ĠIn dent
ĠIn correct
ĠIn lineQueryResult
ĠUn expected
ĠUn bound
ĠUn iversalDetector
Ġ% -
Ġme mo
Ġme dio
Ġme ets
data file
data Table
data Vector
Ġun safe
Ġun pause
Ġun signed
Ġun constrain
Ġun likely
Ġun iversal
Ġun alloc
Ġun utma
pl ing
pl ane
comp map
comp any
Ġ3 0000
Ġ3 03
Ġ3 33
Ġ3 76
Ġpy OpenSSL
Ġpy aut
Ġpy epat
Ġpy rover
py w
py ver
py version
py edpyp
ĠH ue
ĠH APP
ĠH ire
ĠH IGH
ĠH FS
Ġlist dir
Ġlist ener
Ġsee m
Ġpath sep
Ġ`` [
Ġ`` \
Ġ`` _
Ġ`` --
Ġ`` ''
Ġ`` (("
RE Q
RE Y
RE ST
RE CUR
RE SO
RE QUEST
RE SULT
our aged
Ġj config
Ġj ump
Ġsh ot
Ġsh uff
Ġsh allow
Ġsh ipped
Res ource
CK OUT
sh quote
sh ifterLeverNotInPark
format ted
format ting
ay be
oc lean
OR D
OR DER
Ġcan dida
ifi es
Type Alias
Type Gu
Ġare n
Bot destek
HE Y
HE IGHT
Ġab bre
Ġpr ere
ution Level
ĠCon stants
ĠCon nect
ĠCon ditionsNotCorrect
ĠCon firmation
gr ubu
ĠList ening
ĠW ould
ĠW indow
ĠW ARN
ĠW rong
ĠW WH
ĠW orld
read text
read ByIdentifier
ix Module
command db
command delete
Ġpre ced
Ġpre ssed
mo v
ĠAn ything
ĠAn song
ĠAn notated
ĠAn xiet
che strator
qu ential
AN DS
Ġwe ights
Ġcomp uting
Ġcomp liance
to bytes
=" __
=" .*
=" [^
=" [{}]".
=" .",
=" *",<
Ġcol s
og ui
ff bca
Ġ` âĢ¦
Ġ` *`
oding Error
son gs
ĠPython Lexer
Ex tract
SI G
bo ok
LE FT
], ),
CHE ST
ard ing
Response Codes
cr ime
cr acy
cr iteon
ative Name
ml Text
ml Formatter
ste st
ste pper
ĠIter ation
ĠIter ated
typ ically
Ġno isy
parse str
parse opt
Ġlo p
Ġlo t
Ġlo se
=' '
=' {}.
=' :'
=' -')<
ĠG H
ĠG erson
ĠG CC
ĠG IFI
ĠG uess
ĠG PS
ĠG enshi
ĠG unner
ĠG REY
ust ion
ust Scaler
Ġad vanced
Ġad opted
Ġad vertise
label ing
label çļĦ
DE BU
[" %
dat amodel
.. ],
ST IFY
ST ANDARD
Ġnum erical
Ġclass ifier
Ġclass room
Ġclass ified
type filter
type hints
ME SS
ak a
Ġconfig Param
Ġal ong
Ġal lot
Ġal location
Ġal ongs
Ġdata Identifier
iv os
Ġ/ "
Ġ/ =
object Ori
wa v
ĠSe parator
wh itelist
Version s
base dirs
request SequenceError
request OutOfRange
request CorrectlyReceivedResponsePending
lay CB
Ġapp le
Ġapp ending
Ġapp lies
TT OM
space PreserveElements
Ġus ability
Ġus eless
join ed
UR N
UR CES
Ġro x
ep hem
ep layCB
ster y
Ġfiles ys
Ġiter items
ĠSt ate
ĠSt oring
ĠSt udi
Ġ4 000
Ġ4 25
Ġ4 0000
Ġ4 18
Ġ4 29
Ġle ap
Ġle gal
Ġle ctor
Ġle giti
Ġso ftware
): \
): :<
): ',
cl one
---------------- <
auth db
auth Al
auth entication
St ats
mon tos
Ġ5 0000
Ġ5 11
ner Point
Ġ.. ."""<
True Color
Ġco var
Ġco bai
!= |==
12 29
back off
back tracks
enc ia
Ġpl aces
dist lib
ĠDistutils Class
ĠDistutils Getopt
Ġdet ail
Ġdet ailed
Ġdet ector
[' \
[' __
Ġsub list
Ġsub ject
Ġsub type
Ġsub directory
Ġsub Function
Ġsub stit
tern ativeName
") .<
") ')<
") }<
") ``,
arning Param
Ġcheck ed
iti ves
]) )
]) ").
]) }'<
Ġopen ssl
EX PORTS
temp orary
reg ion
reg ression
ĠPy Unicode
ĠImport s
Ġz one
Ġz oom
las sed
Ġwr itable
cont ours
files z
db b
Ġup dates
Ġup ward
Ġup stream
âĸĪ ",
Ġass umed
Ġass uming
scrip ting
Ch aracter
Ch anges
Ch inese
link er
ari os
âģĥ \
Ġtemp lates
Ġtemp orarily
tes Builder
Ġnew est
Ġnew Entry
Ġnew Width
Ġcontain ers
OT RBO
Un do
Un recognized
Un iversalDetector
line style
line width
oo bbox
Not hing
Tr ain
Tr ies
Tr iang
Ġsp in
ĠJ an
ĠJ apane
ĠJ osÃ©
ource TemporarilyNotAvailable
File Operator
File ParseError
LT ags
Ġ[' ''\<
') "
') ):<
') ],
') [-
Ġback port
Ġback space
Ġrender DepthImage
Ġrender NormalsImage
Ġrender SemanticSegmentation
Ġrender InstanceSegmentation
Set uptoolsDeprecationWarning
Set FileAttributes
Ġat ten
\\ .
\\ ":
\\ ')
\\ *)
\\ /?#]*))?
000 7
Ġyield s
Ġyield ing
sub type
sub plo
python w
ress ing
ĠBase d
ĠBase Exception
Ġinter ger
Ġinter vals
rent ly
als Using
'] [
'] }
'] ):<
'] ]<
'] ``
'] }<
'] ),<
Ġadd Entry
Me ans
Me ister
Ġ\ .
Ġ\ '{
Ġ\ '%
". "]:<
AS R
åı ³è¾¹çķĮ
own ershipVerificationFailed
([ ]))<
co lour
with in
çļĦ æī
çļĦ pad
çļĦ æķ°åŃĹ
çļĦ åģľ
çļĦ åĲİç¼Ģ
çļĦ æĥ
Ġattr butes
ĠX CB
run times
Ġsc i
ĠText File
ĠText Token
Ġtest ability
Ġglob bing
Ġglob bed
train ing
10 38
10 48
10 47
10 83
Tree Render
Ġ"" :<
Ġ"" ")<
Ġ"" ]<
FI FO
module FactoryFactory
Request ed
Request Types
Ġmax Width
Text Node
Text Color
vide odb
vide ocal
LO P
iss pace
iss uec
Ġend point
Ġend Tag
Base Query
Base InstalledDistribution
session KeyCreationOrDerivationFailed
ĠEx clude
ĠEx isting
ĠEx ceededNumberOfAttempts
ĠEx tracts
has attr
ID sScanner
ĠInvalid Response
ĠInvalid Key
ĠInvalid URL
ĠInvalid Connection
ĠInvalid Proxy
ĠInvalid Schema
ĠInvalid JSONError
ML P
ML Attributes
TR Y
TR ACK
Ġdir r
stat es
author ise
"] (
"] :
"] ):<
"] ?([^
[: ]]<
au c
au cracy
ĠAp proved
Ġgener ally
Dict Reader
Ġwarn s
Ġsuper class
max Width
ann on
åĪ ©çĶ¨
åĪ ¶éĻĲ
ĠSet tingAccessRightsFailed
ĠHTTP RangeRequestUnsupported
ĠHTTP Password
Ġser ve
ĠNot es
Ġac tiv
Ġac cessed
Time s
Time InEntry
LI FO
LI KELY
Ġma il
22 82
compat Mode
Ġread dir
Ġread Entry
Ġ201 6
Ġ201 9
Ġ[" '
Ġ[" __
Ġ[" âĸĪ",
Ġmin us
Ġmin Size
Ġmin Neighbors
Ġany one
{} :
Ġ) \.
Distribution Path
ĠAr gument
ĠAr guments
Ġ6 3
Ġ6 6
Se quential
item getter
(( .*
loc n
loc ale
Ġcom ing
Ġnumpy æķ°
Ġlabel ing
Ġsorted Items
17 3
17 33
Ġcreate Lock
fe ats
Ġ() ):<
ĠInstall Requirements
({ '
({ :.
mb ra
Ġcur dir
Ġrel y
Ġrel ied
Ġrel atively
scene Bound
BU ILT
BU LANCE
Id Invalid
Id entity
Ġ7 84
Ġå į·ç§
Ġå Ń¦ä¹łçİĩ
ĠQ TH
items ize
Ġzip p
Ġzip options
Ġneed le
Ġneed ing
Ġfunction al
ta ste
ha ved
ha arcascade
nt lmp
ĠK dt
ĠK orean
ĠK inds
ĠK Means
Ġ10 8
Ġ10 91
DI V
DI mage
Ġfr iend
sa le
sa fet
sa mpler
Pro vided
Pro xyle
Ġ(" .
Ġ(" *",
Ġ(" \\"
Ġscen arios
An notated
)) [
)) ):<
'. +
Get s
Get Style
lication s
work sheets
Ġdel imited
Ġdel iberate
color log
no vo
no isy
no ResponseFromSubnetComponent
.* '
.* ')
width Ratio
ĠMessage IdInvalid
Ġæ ľ
Ġæ Ĭ½æł·
Ġæ £Ģ
Ġæ ¤ľ
Ġæ ģ¢å¤į
Ġæ ŀĦå»
start Document
start Prefix
åħ ĥç»Ħ
åħ ´è¶
Ġoperator s
board ing
ĠTh rows
ĠPygments Doc
box æł¼å¼ı
cor nerPoint
Ġwidth Ratio
ĠSpecifier Requirement
Ġwas n
(* ,
(* ([
Ġover writes
Ġstat uses
pip e
COMM ANDS
play count
level s
For Python
Ġ"< #
Ġ"< =":
my st
my Color
my Output
my First
Ġim aging
Ġim medi
check able
Ġhelp ful
Ġstart Tag
entifi ed
late st
new Width
BO TTOM
][ ...,
][ +-]?\
decode d
Ġline feed
del egation
ĠRes ourceTemporarilyNotAvailable
11 18
Fr action
Fr ancis
filter false
]] ')<
]] ]:<
]] ):
img path
ĠRequest Download
ĠRequest Upload
ĠRequest SequenceError
ĠRequest OutOfRange
ĠRequest CorrectlyReceivedResponsePending
URL Fetch
URL ENCODE
âģĥâģĥâģĥâģĥ âģĥ\
Console Lexer
Console Renderable
HTTP BasicAuth
HTTP SConnectionPool
Ġsu cks
COL UM
Ġload MappedMatrix
Invalid Error
Invalid URL
Invalid JSONError
Data Package
ĠURL Required
II QQQQ
ĠDE VE
ĠDE CODE
pi DartboardRuntime
let in
To Codepoint
To Json
response TooLong
Ġwin sound
... ')<
... ")
30 418
Ġ8 2
Ġcontrol s
Ġcontrol ling
KEY WORD
ĠSequence Lik
function al
Ġsk ybox
Ġfollow links
æķ° éĩı
cv from
Ġweb ify
Ġloc ator
Ġmath mlText
Ġattribute Name
Ac tived
FF C
Python ConsoleLexer
TER DOC
bl ing
bl ur
bl ank
Ġ-- ><
Ġ-- ->
return code
arr assingly
Ġbot s
Ġlook at
da emon
Ġcase dkey
ĠSU GGESTION
ĠSU MMARY
çĶ µè¯Ŀ
ĠSO URCE
MA COSX
Ġind icates
ĠTO ptional
ĠTO KEN
Ġstream s
Ġstream lit
save ing
token string
token Map
Dec ode
Dec ision
Dec odingError
Wheel Cache
Ġinvalid ation
view code
Ġconvert IMG
Ad am
Image Size
Ġthread safe
unk edEncoding
Parse And
Parse Float
78 4
any ing
Ġelement tree
admin auth
Method Dis
bot self
Ġimp lications
Ġper mission
100 0100
pin Low
ĠDe po
ĠDe velop
ĠDe AuthenticationFailed
ĠDe bian
De que
Token Lexer
stream s
Ġpool ing
Ġpool manager
ĠCh arField
ĠCh unkedEncoding
emp ty
emp late
post args
post Message
SC RIP
case Formatter
case dkey
field OfView
æĶ ¾å¤§
Ġremove Child
engine RunTimeTooLow
Max RetryError
Max Scaler
Ġindex ing
Ġindex es
34 09
Ġ"_ .,
Ġ'/ __
Ġvalid ating
Inter action
16 86
16 66
18 501
Ġwork space
256 7
Sh ould
Sh annon
Spec ify
ializ ationError
ĠParse Result
Ġdis allowed
20 64
20 60
20 66
String And
}) {
}) ">
}) >"<
}) ?$")<
å® ĮæĪĲ
leM esh
exec file
Ġformatter name
Ġexec file
parent Node
Ġresol ves
Ġresol ving
Ġwhere as
ensiti vity
imp licit
Ġcr y
ĠPR OG
subprocess or
Found Candidates
Found Links
Ġpack ing
Ġpack et
Ġpack rat
ĠAd ditionally
26 78
Ġ... ),
Ġ... ).
Ġ... }<
Ġ... ],
ĠDistribution Path
]+ (-
]+ )*
Ġmo ck
Ġver Str
Ġver meyi
Ġprodu ces
={ <
cy cle
Ġiniti ated
Ġiniti alized
Ġiniti ali
Ġiniti alizer
Di ary
Di vide
Di rective
Ġsel ects
ĠRo unded
Ġchange ImageSize
PRE AM
SU MMARY
man ifest
Ġbuilt ins
strip HTM
ä¸º å·
ä¸º æŃ
ä¸º åı³è¾¹çķĮ
ABC Trie
æĸĩ æľ¬
Ser ializeError
create Attribute
create Task
create TextNode
("\ "'
("\ [.*?\
Ġpoint ers
ĠCON NECT
Ġ9 0
Ġ9 5
Ġ9 6
Ġ9 8
Ġcal cu
defin ition
upload DownloadNotAccepted
ĠPre sent
ĠPre viously
abel le
Gener ator
second Largest
æĸĩä»¶ æµı
ĠID s
local name
Min MaxScaler
Py Lexer
Py Charm
ph ology
ph oto
Ġne arest
Ġne ighbour
Ġne arly
Ġnorm alization
Ġvendor ing
ĠPro vide
ĠPro xies
ĠPro xied
ĠPro bing
ĠPro gress
ĠPro jet
Ġhtml IntegrationPointElements
ĠColor s
ĠColor Type
Frame Capture
rec ipes
ĠBy tesBuilder
Ġarch iving
Ġarch ivo
56 7
OP TION
OP TS
Or ig
Or chestrator
bg color
now rap
Ġbl ur
ĠTr ade
ĠTr ackbar
Fun c
Fun Cap
IM MEDI
Ġbin aries
ĠDi em
ĠDi ego
Ġruntime s
Test caseFormatter
Wr ites
Wr iteData
åĬ Ľãģ®
hex nums
Ġpyp ercli
Ġfe els
ĠNo Split
ĠNo ResponseFromSubnetComponent
ĠNo Ressources
Ġview keys
ĠSOCKS Connection
ĠLogger Wrapper
ĠUnsupported Activation
ĠGet Vin
He mbra
Ġdb b
Ġsplit ter
Ġsplit Up
Ġglobal ns
PO SIX
make trans
Message ToJson
Dat abase
æĪ ·æĿ¥
æĺ ¯åģ
resh Thread
ĠWheel s
Color ize
ref specs
__. '
dis assemble
Ġprocess orArch
ä¸Ģ åĮĸ
send Message
trans ferDataSuspended
Ġdisplay ing
soft max
height Ratio
ipp et
Ġtrans action
Check List
limit s
limit ations
Ġgr ab
Ġgr ay
Ġgr ammar
ĠOn boarding
Ġoper ating
(\ [[
secure DataVerificationFailed
Ġoff icial
Ġsecond Largest
Ġ25 1
Ġ25 2
Ġ25 4
App ended
App lies
Ġmk labels
ĠIO CB
ĠImage Filter
ĠImage Enh
ĠImage Ops
23 50
23 88
23 79
=', '
the y
Ġdocument ed
GPIO Setup
åĩ ¦çĲĨ
è® °å½ķ
Ġannot ation
ĠInput s
ĠInput State
cp us
ç§ ģèģ
Ġcons istenc
86 57
Ġtar ball
Ġport able
',' /
ĠResponse s
ĠResponse TooLong
tok s
inner HTML
ĠComp ose
STR UCT
789 310
789 2678
first Time
first StartTag
over ride
Ġplay out
ĠNode Builder
ĠUnicode Error
ĠUnicode RangeList
Ġfnmatch case
channel connect
ĠData frame
Ġcap italized
exp ect
exp loit
ĠRE Q
ĠRE TRY
Exec utionLevel
Ġaccept ing
Ġlookup s
SV GAttributes
ob uf
Ġreason s
--- ")<
Ġman ner
ĠRegex Lexer
Directory Sandbox
cal c
cal cH
cal vin
sample s
å½ ©èī²
(". ")))<
ĠNum bers
ĠCom mon
Read s
Read Timeout
ĠDo es
ĠDo ctype
Track Detector
ĠExample s
Ġdelete Entry
executable s
Ġ{} \
Ġ{} /{}
Ġempty Tag
åŃ¦ ä¹łçİĩ
æĴŃæĶ¾ éŁ³ä¹Ĳ
201 2
CON STRUCT
Ġcopy ing
Ġgo al
Ġev il
Ġev iction
ready Actived
itable Info
Ġ(_ ,
ĠPip Reporter
Reg ionMap
writer ow
writer ows
ä¸ª åıĤæķ°
ä¸ª çĤ¹
Ġlocal ns
}: ')<
Ġfp s
Ġred uce
ĠVer ify
ĠVer ifies
Ġchild s
Ġheight Ratio
Ġaut odoc
Ġsug ar
Ġparent heses
Ġ"- _")<
change s
('. ')
('. '))<
('. ')))<
Ġpositi ve
AM D
Ġ19 70
Ġexp lode
Al ternativeName
ade cimal
Ġexample s
ĠAnsi Style
Hel vLight
ole on
Ġext ended
Ġext remely
("[ ^
ĠCreate Character
ĠStr uctur
ĠVe hicleManufacturerSpecificConditionsNotCorrectFA
ä¸į éľĢè¦ģ
PRO CESS
ĠABC s
ĠABC Trie
Client Session
So ft
So ftware
So hbet
ced erstr
hn ically
ãģ ĮéĻĲ
ãģ ķãĤ
Ġfla sh
Ġfla vours
acklist ed
Ġindent ed
ĠOnly Once
+) "<
+) '<
Le arningParam
day And
Ġexpl ore
ĠSUCCESS FU
/{ __
936 63
936 650
936 527
Label Encoder
_. +!]+
tool bar
°ì Ĩ¡ë£Į
Ġavoid s
Ġinv ocation
ĠSer ies
ĠSer ializeError
ĠSer ializationError
Ġconnect s
ĠTheme Stack
ĠTheme StackError
Unsupported VersionError
Unsupported Operation
Ġhex adecimal
Candidate Version
Candidate Lookup
Pos ixModule
Render Map
sdist s
Ġç ¾¤æ¶Ī
Ġsign alling
Ġpas ses
Ġinherit ance
getattr ibute
ĠProtocol Versions
Ġ14 567
ĠQu ery
ĠRequests Dep
BACK GR
BACK WARD
Distutils PlatformError
be ing
be haved
sort List
Ġ"\\ ".<
Ġ"\\ \\"
Ġ"\\ \\":
Ġ15 55
child s
åĪĨ ç»Ħ
åĪĨ çļĦæī
ĠResult ing
åĪĿå§ĭåĮĸ èıľåįķ
*) |\
33 33
Do es
Default Dict
Pre pare
Ġmac ros
ĠMax imuM
ĠEX PORTS
Ġpred Tree
Ġpred icates
Ġpred icitions
ĠGroup Msg
rpm TooLow
rpm TooHigh
Header ParsingError
MODULE DOC
implement ed
pri ors
Ġclean ing
Ġ'_ '.
Ġ'\\ }')<
Ġ'\\ "':
Ġ'\\ {')
Ġ'\\ \\')
Ġassoci ating
Det ect
hand les
lang m
lang db
lang Ä±
mod ulename
Ġca ution
Ġca using
active video
ĠTest Sequence
ĠTest Prot
assert ParseAnd
Ġwhole sale
Ġpresent s
Ġpresent ation
Ġpresent ly
[:, :,
ĠEngine RunTimeTooLow
ĠProxy Config
Ġconsider ing
'' '#
HO OKS
Package Index
Source Address
}" ')<
}" '<
}" ']<
Ġide ally
Ġide mpot
ĠCheck Command
ĠCheck erX
vehicleManufacturerSpecificConditionsNotCorrectF B
vehicleManufacturerSpecificConditionsNotCorrectF C
vehicleManufacturerSpecificConditionsNotCorrectF D
Ġnote book
Ġchannel s
Ġchannel connect
attribute Name
ĠConfiguration DataUsageFailed
ĠVehicleManufacturerSpecificConditionsNotCorrectF B
ĠVehicleManufacturerSpecificConditionsNotCorrectF C
ĠVehicleManufacturerSpecificConditionsNotCorrectF D
My ToolBar
MIN MAX
mk dtemp
tar info
ĠError s
Ġgre ater
ĠMA LE
ĠMA COSX
ĠRead Timeout
ĠRead ByIdentifier
ĠRead MemoryByAddress
ĠRead ErrorLog
Ġprim itives
æĺ¯ æ¦Ĥçİĩå½¢å¼ı
è¡¨ ç¤º
SY S
å° ģè£ħ
Ġwalk ers
Ġcor rup
ĠSup er
Ġdown stream
Ġdown loaded
Activ ating
ëĭ¤ ë°
ĠContent DecodingError
"^ [
"^ (?:
"^ (?:[
Format Error
stand ard
stand alone
("- ").
Ġsdist s
Ġforward ing
------- ")<
Int Var
åĽ¾å ½Ĵ
æīĢæľī çªĹåı£
æīĢæľī çļĦåģľ
="" ,<
CAN FD
Qu otas
ºæ ĦŁ
geome tries
Ġ"âĸ ī"]<
Ġ"âĸ Ĭ",
Ġ"âĸ ĭ",
Ġ"âĸ Į",
Ġ"âĸ į",
Ġ"âĸ İ",
Ġ"âĸ ı",
Ġ'' }<
termin ate
ĠPO SIX
ĠBack wards
ĠIndex es
End points
ARE ST
Factory IterableView
Ġreal m
disc ussion
disc ography
Ġform al
Ġhor rible
ĠWr ap
ĠWr apper
Ġregister ing
Ġregister ed
(?: (?:\
åĲį çļĦåĲİç¼Ģ
tcha Task
Import ed
Legacy Matcher
Ġsm allest
Ġsort List
pred icitions
Ġ``' \
Ġplace holder
))? $",<
))? :)").
ç»Ł ä¸Ģ
Ġapplication s
=[ ],<
Abstract Resolver
Abstract Provider
Abstract Sandbox
GR Vec
do is
long itudTexto
sy m
ĠâĶ ĮâĶĢâĶ
ĠâĶ ĶâĶĢâĶ
Ġredirect ed
Ġ'\ '"'<
Ġdisc ussion
Ġdisc arded
Ġdisc ouraged
Ġdisc arding
OFF SET
From StringAnd
)] \
Cla mp
]} âĢ¦
Ġsimilar ities
heap ify
Ġpush d
extract ed
ĠAlign Values
å½¢ boxæł¼å¼ı
>= |<
BE LT
BE GIN
By tesIO
}% )'.
}% )]\
è§ £æŀ
è§ ĪåĮº
Ġpost ing
Ġpost ureTree
Ġ'- ')<
ĠSh ifterLeverNotInPark
ĠSh ifting
('\\ ',
Index DirectorySource
Ġprevent s
requested ExecutionLevel
Ġleft most
Add Field
ĠMetadata Unrecognized
ĠMetadata InvalidError
Num PyLexer
pare n
retry Writes
icon photo
ĠColumn s
ĠSte ve
ĠMIME Application
Ġlet ter
ï¼ļ """)<
ĠDirect Url
å¯¹ åºĶçļĦ
Ġadjust ed
Ġadjust Math
Ġadjust SVGAttributes
è¾ĵåħ¥ è¦ģ
48 4
Ġcop ies
Ġmod ulename
Ġmod alities
named Window
program ming
Ġhapp en
Ġhome Screen
ĠExt ensions
Engine er
Setup RequirementsError
Ġ~~~~~~~~~~~~~~~~~~~~~~~~ ~~<
äºİ batch
äºİ é¢ľèī²
ĠAdd ressing
Ġcalcul ates
Norm alise
bon es
non zero
rection al
laz ily
ĠUti lity
four s
Ġpyt z
REC ATION
REC ORD
Ġprot ect
configuration DataUsageFailed
Param Spec
Unpack er
ĠåĽ ºå®ļ
Ġ~~~~~~~~~~~~~~~~~~~~ ~~<
recogn ize
Query Info
Custom Formatter
PU LL
`. )<
full name
ja va
å· ²ç»ı
security AccessDenied
Ġref ers
Ġref use
Ġmime tools
ĠAl low
ĠAl lowed
ĠAl most
ĠAl readyActived
Ġenable d
Ġcounter clock
Unicode Error
Unicode EncodeError
Unicode RangeList
Ġmaintain ers
And rew
general Reject
general ProgrammingFailure
Ġ------------------------------------------------ ---<
Ġ------------------------------------------------ --------------<
'): #
09 0
09 11
=(" ,",
As k
Candidates FromPage
La unch
La uren
Lookup Dict
Page Validator
QQ QIHHH
Vision er
lin elen
sur rog
Ġfl ushes
Ġrepe ater
ĠCH AT
ĠBl ank
ĠBl acklisted
Ġinterpre ted
TRA CE
DIST INFO
)} ):\
*\ .
*\ ((.*
col lections
æĭ ¼æİ¥
çĬ¶æĢģ åĪ¤æĸŃ
Ġ~ =
Ġ"{} {}".
Ġ"{} ({}
Ġ"{} [{}]".
Ġ"{} .{}".
ĠAss erts
ĠAccur ancy
Ġspecial Elements
ĠExit ing
å¤§ çī¹å¾ģ
Per ro
`_ ).<
certificateVerificationFailedInvalid Type
certificateVerificationFailedInvalid Content
certificateVerificationFailedInvalid Format
certificateVerificationFailedInvalid Scope
certificateVerificationFailedInvalid ChainOfTrust
certificateVerificationFailedInvalid CertificateRevoked
certificateVerificationFailedInvalid Signature
certificateVerificationFailedInvalid TimePeriod
fs KJNG
xz lh
æŃ ¤
dec ision
Ġph ase
Ġph pBB
Ġfa stest
__} ('{
Ġopt ing
ĠCertificateVerificationFailedInvalid Type
ĠCertificateVerificationFailedInvalid Content
ĠCertificateVerificationFailedInvalid Format
ĠCertificateVerificationFailedInvalid Scope
ĠCertificateVerificationFailedInvalid ChainOfTrust
ĠCertificateVerificationFailedInvalid CertificateRevoked
[...]
