{"<s>":0,"<pad>":1,"</s>":2,"<unk>":3,"<mask>":4,"!":5,"\"":6,"#":7,"$":8,"%":9,"&":10,"'":11,"(":12,")":13,"*":14,"+":15,",":16,"-":17,".":18,"/":19,"0":20,"1":21,"2":22,"3":23,"4":24,"5":25,"6":26,"7":27,"8":28,"9":29,":":30,";":31,"<":32,"=":33,">":34,"?":35,"@":36,"A":37,"B":38,"C":39,"D":40,"E":41,"F":42,"G":43,"H":44,"I":45,"J":46,"K":47,"L":48,"M":49,"N":50,"O":51,"P":52,"Q":53,"R":54,"S":55,"T":56,"U":57,"V":58,"W":59,"X":60,"Y":61,"Z":62,"[":63,"\\":64,"]":65,"^":66,"_":67,"`":68,"a":69,"b":70,"c":71,"d":72,"e":73,"f":74,"g":75,"h":76,"i":77,"j":78,"k":79,"l":80,"m":81,"n":82,"o":83,"p":84,"q":85,"r":86,"s":87,"t":88,"u":89,"v":90,"w":91,"x":92,"y":93,"z":94,"{":95,"|":96,"}":97,"~":98,"¡":99,"¢":100,"£":101,"¤":102,"¥":103,"¦":104,"§":105,"¨":106,"©":107,"ª":108,"«":109,"¬":110,"®":111,"¯":112,"°":113,"±":114,"²":115,"³":116,"´":117,"µ":118,"¶":119,"·":120,"¸":121,"¹":122,"º":123,"»":124,"¼":125,"½":126,"¾":127,"¿":128,"À":129,"Á":130,"Â":131,"Ã":132,"Ä":133,"Å":134,"Æ":135,"Ç":136,"È":137,"É":138,"Ê":139,"Ë":140,"Ì":141,"Í":142,"Î":143,"Ï":144,"Ð":145,"Ñ":146,"Ò":147,"Ó":148,"Ô":149,"Õ":150,"Ö":151,"×":152,"Ø":153,"Ù":154,"Ú":155,"Û":156,"Ü":157,"Ý":158,"Þ":159,"ß":160,"à":161,"á":162,"â":163,"ã":164,"ä":165,"å":166,"æ":167,"ç":168,"è":169,"é":170,"ê":171,"ë":172,"ì":173,"í":174,"î":175,"ï":176,"ð":177,"ñ":178,"ò":179,"ó":180,"ô":181,"õ":182,"ö":183,"÷":184,"ø":185,"ù":186,"ú":187,"û":188,"ü":189,"ý":190,"þ":191,"ÿ":192,"Ā":193,"ā":194,"Ă":195,"ă":196,"Ą":197,"ą":198,"Ć":199,"ć":200,"Ĉ":201,"ĉ":202,"Ċ":203,"ċ":204,"Č":205,"č":206,"Ď":207,"ď":208,"Đ":209,"đ":210,"Ē":211,"ē":212,"Ĕ":213,"ĕ":214,"Ė":215,"ė":216,"Ę":217,"ę":218,"Ě":219,"ě":220,"Ĝ":221,"ĝ":222,"Ğ":223,"ğ":224,"Ġ":225,"ġ":226,"Ģ":227,"ģ":228,"Ĥ":229,"ĥ":230,"Ħ":231,"ħ":232,"Ĩ":233,"ĩ":234,"Ī":235,"ī":236,"Ĭ":237,"ĭ":238,"Į":239,"į":240,"İ":241,"ı":242,"Ĳ":243,"ĳ":244,"Ĵ":245,"ĵ":246,"Ķ":247,"ķ":248,"ĸ":249,"Ĺ":250,"ĺ":251,"Ļ":252,"ļ":253,"Ľ":254,"ľ":255,"Ŀ":256,"ŀ":257,"Ł":258,"ł":259,"Ń":260,"ĠĠ":261,"ĠĠĠĠ":262,"ĠĠĠ":263,"or":264,"in":265,"><":266,")<":267,"er":268,"el":269,"on":270,"ĠĠĠĠĠĠĠ":271,"re":272,"mp":273,"Ġi":274,"int":275,"ort":276,"Ġ=":277,"at":278,"st":279,"en":280,"pr":281,"mport":282,"lo":283,"Ġt":284,":<":285,"om":286,"Ġw":287,"se":288,"le":289,"print":290,"Ġa":291,"\"\"":292,"(\"":293,"ld":294,"al":295,"Ġs":296,"\")<":297,"de":298,"ti":299,"čĊ":300,"fr":301,"from":302,"hel":303,"Ġwor":304,"hello":305,"Ġworld":306,"Ġimport":307,"Ġc":308,"he":309,"ar":310,"me":311,"Ġp":312,"an":313,"elf":314,"Ġf":315,"it":316,"Ġre":317,"ing":318,"__":319,"ur":320,"ss":321,"ge":322,"):<":323,"ic":324,"Ġo":325,"\"\"\"":326,"ac":327,"ut":328,"import":329,"Ġn":330,"tion":331,"Ġb":332,"def":333,"ent":334,",<":335,"Ġin":336,"ĠĠĠĠĠĠĠĠĠĠĠ":337,"di":338,"ion":339,".<":340,"la":341,"ame":342,"ed":343,"Ġthe":344,"Ġ\"":345,"ex":346,"es":347,"li":348,">#":349,"str":350,"ot":351,"Ġself":352,"ĠT":353,"ec":354,"\"\"\"<":355,"ol":356,"yp":357,"un":358,"fi":359,"--":360,"tur":361,"Ġm":362,"##":363,"turn":364,"self":365,"Ġ'":366,"Ġdef":367,"ers":368,"ue":369,"Ġ(":370,"ad":371,"ment":372,"ce":373,"Ġr":374,"Ġ-":375,"Ġreturn":376,"ht":377,"up":378,"~~":379,"ip":380,"Ġfor":381,"ls":382,"lass":383,"tr":384,"Ġto":385,"Ġis":386,"od":387,"ror":388,"Ġif":389,"th":390,"ption":391,"._":392,"us":393,"ĠN":394,"Ġ#":395,"Ġan":396,"ter":397,"get":398,"uti":399,"ĠC":400,"ĠĠĠĠĠĠĠĠ":401,"ĠS":402,"ap":403,"is":404,"one":405,"end":406,"ath":407,"ase":408,"sp":409,"ode":410,"Ġd":411,"ĠP":412,"ith":413,"ile":414,"ĠA":415,"am":416,"id":417,"Ġv":418,"class":419,"as":420,"]<":421,"Er":422,"Ġint":423,"Error":424,"age":425,"ack":426,"ab":427,"ĠL":428,"op":429,"for":430,"Ġdi":431,"ig":432,"name":433,"Ġ1":434,"Ġstr":435,"utils":436,"ect":437,"ki":438,"()<":439,"and":440,"Ġ.":441,"ate":442,"Ġof":443,"()":444,"Ġ__":445,"kki":446,"ukki":447,"Ġ+":448,"Yukki":449,"ĠI":450,"Ġand":451,"ul":452,"ub":453,"ch":454,"con":455,"Ġse":456,"ui":457,"Ġ->":458,"put":459,"('":460,"Ġth":461,"Ġ\"\"\"<":462,"ext":463,"ype":464,"Ġprint":465,"Ġcon":466,"all":467,"log":468,"ersion":469,"')<":470,"ĠNone":471,"Ġas":472,"Ġ<":473,"ation":474,"00":475,"com":476,"ool":477,"ist":478,"Ġ2":479,"####":480,"Re":481,"Ġpip":482,"Ġ[":483,"Ġ0":484,"pro":485,"----":486,"ro":487,"il":488,"et":489,"tp":490,"ve":491,"Ġg":492,"ata":493,"Ġ\"\"\"":494,"ĠD":495,"__(":496,"Ġnot":497,"',":498,"Ġx":499,"um":500,"if":501,"http":502,"path":503,"ĠF":504,"\",":505,"able":506,"Ġ_":507,"list":508,"ĠO":509,"ys":510,"mat":511,"~~~~":512,"Ġfile":513,"ib":514,"//":515,"ct":516,"iz":517,"ject":518,"Ġh":519,"ke":520,"Ġex":521,"Ġget":522,"Ġos":523,"app":524,"``":525,"par":526,"omp":527,"://":528,"ag":529,"Ġ==":530,"ĠU":531,"Ġ>":532,"ult":533,"lib":534,"so":535,"Ġy":536,"te":537,"Ġl":538,"Ġor":539,"ight":540,"ure":541,"Ġfrom":542,"file":543,"que":544,"https":545,"Ġde":546,"ain":547,"ai":548,"Ġ*":549,"ithub":550,"ser":551,"EN":552,"eam":553,"logg":554,"ĠM":555,"ĠB":556,"Ġ{":557,"und":558,"Ġel":559,"set":560,"ptional":561,"SE":562,"mand":563,"))<":564,"eg":565,"init":566,"Ġpar":567,"ver":568,"eamYukki":569,"\"<":570,"Ġby":571,"usic":572,"ction":573,"Ġwith":574,"ange":575,"pre":576,"url":577,"val":578,"Ġname":579,"ĠĠĠĠĠĠĠĠĠĠĠĠĠĠĠ":580,"ache":581,"ments":582,"ict":583,"fig":584,"Ġbe":585,"Ġsys":586,"Ġ:":587,"Ġst":588,"\",<":589,"Ġtyp":590,"quest":591,"inter":592,"yth":593,"ree":594,"gs":595,"ore":596,"ĠOptional":597,"dir":598,"ptions":599,"stutils":600,"ER":601,"ma":602,"ow":603,"endor":604,"Ġhttps":605,"rue":606,"onse":607,"ck":608,"sed":609,"ython":610,"Music":611,"code":612,"Ġpro":613,"github":614,"ize":615,"'<":616,"qui":617,"os":618,"YukkiMusic":619,"ts":620,"(<":621,"opy":622,"sc":623,"lit":624,"ace":625,"version":626,"Ġe":627,"vendor":628,"uild":629,"vi":630,"icen":631,"ass":632,"02":633,"ind":634,"lab":635,"Ġtyping":636,"ĠR":637,"quire":638,"Ġval":639,"IN":640,"nal":641,"his":642,"pt":643,"ite":644,"pack":645,"Ġtr":646,"In":647,"stall":648,"Ġdistutils":649,"im":650,"fo":651,"rect":652,"TeamYukki":653,"input":654,"ine":655,"########":656,"ok":657,"internal":658,"cept":659,"Ġrange":660,"Ġon":661,"right":662,"ĠE":663,"Ġwh":664,"bject":665,"yle":666,">\"\"\"<":667,"ime":668,"odu":669,"sole":670,"out":671,"Ġlogg":672,"--------":673,"Con":674,"ĠRe":675,"ĠV":676,"text":677,"ory":678,"ĠĠĠĠĠĠĠĠĠĠĠĠĠĠĠĠ":679,"ON":680,"ly":681,"Ġinput":682,"icense":683,"Ġthis":684,"ele":685,"alse":686,"ang":687,"time":688,">#<":689,"uple":690,"ools":691,"Ġen":692,".\"\"\"<":693,"Ġset":694,"user":695,"mple":696,"Ġthat":697,"ĠIn":698,"odel":699,"ĠUn":700,"Ġu":701,"opyright":702,"ault":703,"IC":704,"ĠThis":705,"ll":706,"Ġ%":707,"())<":708,"Ġpass":709,"Ġme":710,"form":711,"data":712,"Ġun":713,"Ġtype":714,"pl":715,"comp":716,"ew":717,".__":718,"Ġ3":719,"odule":720,"Ġpy":721,"ou":722,"py":723,"Ġelse":724,"ĠH":725,"Ġlist":726,"ssage":727,"Ġsee":728,"error":729,"key":730,"Ġpath":731,"pec":732,"Ġ``":733,"RE":734,"our":735,"Ġj":736,"Ġsh":737,"load":738,"Ġlogging":739,"Res":740,"CK":741,"\":":742,"low":743,"ive":744,"Ġch":745,"ĠTrue":746,"elease":747,"ator":748,"port":749,"split":750,"arn":751,"lob":752,"ters":753,"Ġop":754,"sh":755,"~~~~~~~~":756,"ommand":757,"format":758,"ay":759,"ther":760,"oc":761,"OR":762,"Ġar":763,"ENSE":764,"ICENSE":765,"Ġcan":766,"ings":767,"are":768,"args":769,"stan":770,"ary":771,"ifi":772,"Type":773,"Ġare":774,"Bot":775,"HE":776,"PE":777,"ink":778,"der":779,"),":780,"Ġbool":781,"Ġab":782,"Ġ+=":783,"tools":784,"Ġpr":785,"eld":786,"ution":787,"ĠCon":788,").":789,"gr":790,"ĠList":791,"YukkiMusicBot":792,"ĠW":793,"read":794,"ute":795,"util":796,"ix":797,"ĠThe":798,"command":799,"ved":800,"Ġpre":801,"mo":802,"Ġvalue":803,"ĠAn":804,"under":805,"head":806,"ms":807,"yn":808,"attr":809,"Ġtry":810,"Ġ[]<":811,"info":812,"cess":813,"pp":814,"Ġ)<":815,"append":816,"che":817,"qu":818,"ING":819,"thod":820,"',<":821,"try":822,"AN":823,"valid":824,"trol":825,"ponse":826,"Ġwe":827,"ert":828,"gments":829,"Ġcomp":830,"ĠFalse":831,"ene":832,"ango":833,"ssion":834,"aise":835,"to":836,"ich":837,"ĠLicense":838,"Ġtime":839,"Ġcont":840,"=\"":841,"ception":842,"Ġcol":843,"sponse":844,"lable":845,"og":846,"Ġit":847,"ĠCopyright":848,"strib":849,"len":850,"Ġfil":851,"Ġunder":852,"uture":853,"io":854,"ud":855,"ff":856,"Ġ`":857,"ield":858,"rectory":859,"}<":860,"ener":861,"().":862,"Ġte":863,"oding":864,"son":865,"loat":866,"ĠPython":867,"ated":868,"uth":869,"Ġhas":870,"stribution":871,"Ex":872,"SI":873,"bo":874,"LE":875,"Ġ@":876,"],":877,"Ġexcept":878,"None":879,"CHE":880,"),<":881,"ard":882,"min":883,"heel":884,"():<":885,"core":886,"po":887,"atform":888,"jango":889,"Ġfun":890,"Response":891,"cr":892,"sol":893,"ative":894,"ml":895,"ste":896,"Ġsup":897,"YPE":898,"iter":899,"AR":900,"ĠIter":901,"quirement":902,"typ":903,"Ġno":904,"DS":905,"act":906,"ackage":907,"ens":908,"ifier":909,"Ġurl":910,"parse":911,"202":912,"])<":913,"ync":914,"Ġother":915,"Ġlo":916,"chat":917,"='":918,"build":919,"sult":920,"ĠG":921,"Ġmodule":922,"Ġversion":923,"config":924,"ger":925,"ust":926,"ax":927,"Ġad":928,"Ġraise":929,"ler":930,"oin":931,"options":932,"ere":933,"label":934,"ron":935,"**":936,"cache":937,"AT":938,"future":939,"ĠTuple":940,"Ġstring":941,"DE":942,"[\"":943,"PI":944,"dat":945,"..":946,"ues":947,"ST":948,"ug":949,"Ġnum":950,"add":951,"Ġclass":952,"ord":953,"ren":954,"01":955,"En":956,"type":957,"ME":958,"Ġproject":959,"ĠYukkiMusic":960,"fix":961,"Ġrun":962,"ak":963,"Ġconfig":964,"Ġal":965,"spec":966,"ctions":967,"ual":968,"uptools":969,"Ġdata":970,">__":971,"utf":972,"date":973,"heck":974,"ĠAny":975,"ound":976,"wr":977,"model":978,"ir":979,"Ġobject":980,"iv":981,"Ġresponse":982,"Ġtext":983,"lient":984,"ave":985,"art":986,"Ġ/":987,"ome":988,"stance":989,"CO":990,"object":991,"wa":992,"ĠSe":993,"Ġ(<":994,"ies":995,"ice":996,"wh":997,"lia":998,"atch":999,"ould":1000,"errors":1001,"allia":1002,"ber":1003,"can":1004,"Ġbase":1005,"Version":1006,"base":1007,"CHECK":1008,"CHECKING":1009,"served":1010,"*-":1011,"Ġ-*-":1012,"Ġlog":1013,"request":1014,"adata":1015,"]:<":1016,"lay":1017,"Ġ202":1018,"ormat":1019,"alize":1020,"allable":1021,"Ġrequest":1022,"ĠTYPE":1023,"Ġapp":1024,"gram":1025,"sour":1026,"Ġgallia":1027,"TT":1028,"space":1029,"egative":1030,"Ġus":1031,"process":1032,"ected":1033,"viron":1034,"install":1035,"package":1036,"join":1037,"UR":1038,"UT":1039,"Ġpackage":1040,"Ġout":1041,"Ġro":1042,"istutils":1043,"ep":1044,"Ġkey":1045,"Ġcode":1046,"pecifier":1047,"lease":1048,"ded":1049,">)<":1050,"ster":1051,"mplement":1052,"ence":1053,"Ġfiles":1054,"vel":1055,"cene":1056,"Ġiter":1057,"Ġdefault":1058,"ĠSt":1059,"ity":1060,"ogger":1061,"==":1062,"Ġ4":1063,"SL":1064,"ux":1065,"ill":1066,"Ġle":1067,"Ġso":1068,"Ġdate":1069,"):":1070,"ails":1071,"ĠUnion":1072,"Ġuse":1073,"cl":1074,"----------------":1075,"icode":1076,"auth":1077,"ender":1078,"Ġlen":1079,"Ġall":1080,"ally":1081,"Ġ|":1082,"St":1083,"mon":1084,"Ġ5":1085,"ost":1086,"#<":1087,"ner":1088,"tic":1089,"Ġnp":1090,"Ġ..":1091,"orm":1092,"arget":1093,"Ġrelease":1094,"ape":1095,"ĠLICENSE":1096,"################":1097,"pected":1098,"scr":1099,"IT":1100,"True":1101,"wait":1102,"Name":1103,"Ġformat":1104,"NU":1105,"Ġco":1106,"string":1107,"!=":1108,"12":1109,"back":1110,"cs":1111,"enc":1112,"Ġpl":1113,"Ġright":1114,"ision":1115,"ĠPlease":1116,"Ġuser":1117,"env":1118,"Code":1119,"dist":1120,"ĠDistutils":1121,"Ġdet":1122,"gree":1123,"oma":1124,"Ġdo":1125,"greement":1126,"reate":1127,"Ġpart":1128,"\".<":1129,"ä¸":1130,"}')<":1131,"ĠAll":1132,"types":1133,"ager":1134,"master":1135,"kw":1136,"Ġfloat":1137,"2022":1138,"['":1139,"Ġ!=":1140,"Ġsub":1141,"tern":1142,"\")":1143,"ication":1144,"arg":1145,"ename":1146,"egg":1147,"Ġused":1148,"âĸ":1149,"her":1150,"tem":1151,"AL":1152,"dex":1153,"arning":1154,"TTP":1155,"Ġcheck":1156,"iti":1157,"tadata":1158,"Ġsa":1159,"])":1160,"Ġopen":1161,"cur":1162,"Ġdirectory":1163,"EX":1164,"instance":1165,"logger":1166,"eleases":1167,"temp":1168,"egativeResponse":1169,"reg":1170,"ĠPy":1171,"ĠDict":1172,"Ġreleased":1173,"si":1174,"yste":1175,"else":1176,"ark":1177,"ĠImport":1178,"Ġ><":1179,"test":1180,"ĠMe":1181,"Ġabsol":1182,"Ġabsolute":1183,"':<":1184,"Ġreserved":1185,"ĠĠĠĠĠĠ":1186,"idth":1187,"console":1188,"Github":1189,"blob":1190,"ant":1191,"ĠAgreement":1192,"Ġ2021":1193,"Ġdatetime":1194,"GNU":1195,"LICENSE":1196,"ĠTeamYukki":1197,"Ġ>.<":1198,"Ġrights":1199,"Ke":1200,"Ġz":1201,"las":1202,"Ġ**":1203,"except":1204,"Ġwr":1205,"Ġsetuptools":1206,"Exception":1207,">_":1208,"entr":1209,"DO":1210,"Par":1211,"aliz":1212,"olor":1213,"Ġdetails":1214,"ystem":1215,"SION":1216,"size":1217,"style":1218,"trib":1219,"cont":1220,"'s":1221,"oken":1222,"'{":1223,"aging":1224,"dict":1225,"files":1226,"\"]<":1227,"Logger":1228,"ĠIterable":1229,"ormatter":1230,"'t":1231,"Ġcolle":1232,"uto":1233,"ENT":1234,"html":1235,"Ġparse":1236,"SD":1237,"db":1238,"Ġup":1239,"ĠConsole":1240,"âĸĪ":1241,"ted":1242,"Ġass":1243,"alue":1244,"default":1245,"led":1246,"scrip":1247,"req":1248,"Ġcommand":1249,"param":1250,"ĠImportError":1251,"Ch":1252,"headers":1253,"sent":1254,"apping":1255,"Ġelif":1256,"ereleases":1257,"Ġawait":1258,"ection":1259,"link":1260,"ĠBSD":1261,"Ġwhen":1262,"âģ":1263,"ari":1264,"âģĥ":1265,"kg":1266,"Ġisinstance":1267,"rogram":1268,"Ġtemp":1269,"sup":1270,"ream":1271,"__)<":1272,"tes":1273,"kwargs":1274,"ast":1275,"Ġnew":1276,"Key":1277,"md":1278,"Ġbuild":1279,"Ġcontain":1280,"ook":1281,"parser":1282,"']<":1283,"OT":1284,"not":1285,"Ġcache":1286,"place":1287,"Un":1288,"line":1289,"prop":1290,"method":1291,"mage":1292,"oo":1293,"Ġinstall":1294,"like":1295,"anager":1296,"Ġren":1297,"Not":1298,"Ġstyle":1299,"Tr":1300,"âģĥâģĥ":1301,"Ġsp":1302,"Ġmessage":1303,"ĠJ":1304,"ource":1305,"django":1306,"Ġwill":1307,"igh":1308,"Ġcollections":1309,"Ġroot":1310,"erator":1311,"Ġshould":1312,"File":1313,"by":1314,"LT":1315,"istribution":1316,"Ġ[<":1317,"Ġarg":1318,"Ġ['":1319,"')":1320,"SSL":1321,"Ġ\"__":1322,"ump":1323,"message":1324,"Ġresult":1325,"Ġasync":1326,"cation":1327,"repr":1328,"Ġtok":1329,"Ġpyrogram":1330,"ĠSee":1331,"word":1332,"ìĿ":1333,"ses":1334,"Ġback":1335,"erty":1336,"Ġrender":1337,"lista":1338,"value":1339,"Set":1340,"expected":1341,"64":1342,"aw":1343,"ceptions":1344,"False":1345,"Ġat":1346,"ans":1347,"32":1348,"\\\\":1349,"lig":1350,"000":1351,"Ġ*<":1352,"eed":1353,"Ġyield":1354,"sub":1355,"vice":1356,"Ġ<=":1357,"python":1358,"ress":1359,"packaging":1360,"while":1361,"onic":1362,"ĠCallable":1363,"Ġdiv":1364,"roup":1365,"(__":1366,"uct":1367,"alled":1368,"client":1369,"arac":1370,"stract":1371,"root":1372,"ĠBase":1373,"bool":1374,"Ġcv":1375,"ĠReturn":1376,"Codes":1377,"Ġes":1378,"UDS":1379,"Ġinter":1380,"rent":1381,"als":1382,"ported":1383,"Ġk":1384,":`":1385,"vent":1386,"ĠType":1387,"ĠName":1388,"xt":1389,"ï¼":1390,"Ġrequire":1391,"ign":1392,"Ġunicode":1393,"ces":1394,"property":1395,"fun":1396,"ErrorCodes":1397,"cryp":1398,"']":1399,"Ġadd":1400,"Me":1401,"control":1402,"pygments":1403,"ument":1404,"EP":1405,"fer":1406,"Ġ\\":1407,"unt":1408,"çļ":1409,"Ġitem":1410,"Ġoptions":1411,"Ġfilename":1412,"\".":1413,"ft":1414,"pyp":1415,"red":1416,"Ġonly":1417,":.":1418,"AS":1419,"åı":1420,"Ġ{}<":1421,"own":1422,"\":<":1423,"([":1424,"The":1425,"co":1426,"ida":1427,"Ġyou":1428,"with":1429,"ery":1430,"compile":1431,"Ġurllib":1432,"çļĦ":1433,"main":1434,"Ġì":1435,"':":1436,"inal":1437,"indow":1438,"NegativeResponse":1439,"Scene":1440,"ef":1441,"pos":1442,"Ġcoding":1443,"ension":1444,"Ġattr":1445,"Ġutf":1446,"enti":1447,"ĠVersion":1448,"move":1449,"alueError":1450,"ĠX":1451,"iler":1452,"license":1453,"cket":1454,"Ġwhich":1455,"doc":1456,"run":1457,"Ġsc":1458,"Ġspec":1459,"asure":1460,"lower":1461,"models":1462,"nection":1463,"FA":1464,"Ġnumber":1465,"expectedNegativeResponse":1466,"ample":1467,"Ġerror":1468,"reak":1469,"ĠText":1470,"bin":1471,"num":1472,"Ġtest":1473,"Ġglob":1474,"Ġjson":1475,"iven":1476,"bj":1477,"train":1478,"point":1479,"10":1480,"Tree":1481,"Ġ\"\"":1482,"packages":1483,"FI":1484,"module":1485,"other":1486,"Ġbreak":1487,"tring":1488,"ĠĠĠĠĠĠĠĠĠĠĠĠĠĠĠĠĠĠĠ":1489,"Request":1490,"Requirement":1491,"Ġlista":1492,"coding":1493,"find":1494,"fil":1495,"Ġmax":1496,"andler":1497,"Ġyour":1498,"prefix":1499,"vironment":1500,"Text":1501,"vide":1502,"LO":1503,"json":1504,"ULT":1505,"iss":1506,"Ġend":1507,"action":1508,"getLogger":1509,"Ġ>=":1510,"Base":1511,"session":1512,"ach":1513,"ĠEx":1514,"has":1515,"orted":1516,"Ġsome":1517,"ĠUnexpectedNegativeResponse":1518,"ĠStyle":1519,"ID":1520,"VER":1521,"txt":1522,"alk":1523,"frame":1524,"gex":1525,"clu":1526,"ero":1527,"ations":1528,"imum":1529,"ĠInvalid":1530,"List":1531,"ML":1532,"copyright":1533,"opt":1534,"TR":1535,"Ġdir":1536,"light":1537,"xy":1538,"Ġaux":1539,"Ġfind":1540,"dition":1541,"Ġ('":1542,"COM":1543,"source":1544,">@":1545,"ong":1546,"stat":1547,"ull":1548,"author":1549,"ï¼Į":1550,"\"]":1551,"[:":1552,"au":1553,"sing":1554,"ont":1555,"ansp":1556,"didate":1557,"ĠAp":1558,"Ġgener":1559,"Ġorig":1560,"mail":1561,"OF":1562,"abase":1563,"25":1564,"acy":1565,"Dict":1566,"Ġwarn":1567,"Ġmodel":1568,"Ġcontext":1569,"project":1570,"ags":1571,"present":1572,"Ġsuper":1573,"Ġassert":1574,">):<":1575,"lean":1576,"__\",<":1577,"UDSErrorCodes":1578,"max":1579,"ansport":1580,"Ġ._":1581,"utable":1582,"0000":1583,"keys":1584,"ED":1585,"ann":1586,"uds":1587,"Ġoutput":1588,"Ġplatform":1589,"FAULT":1590,"ware":1591,"åĪ":1592,"result":1593,"Ġsource":1594,"arch":1595,"ĠSet":1596,"ĠHTTP":1597,"Ġser":1598,"ĠNot":1599,"abc":1600,"Ġhash":1601,"Ġac":1602,"enderable":1603,"Formatter":1604,"Time":1605,"Ġtree":1606,"help":1607,"exceptions":1608,"angu":1609,"ĠĠĠĠĠ":1610,"dia":1611,"async":1612,"Ġargs":1613,"Ġ-*-<":1614,"LI":1615,"Ġid":1616,"Ġma":1617,"ĠCommand":1618,"Ġdat":1619,"Ġcolor":1620,"22":1621,"sys":1622,"Ġter":1623,"match":1624,"ĠUDS":1625,"compat":1626,"Ġusing":1627,"âĸĪâĸĪ":1628,"ighlight":1629,"Ġread":1630,"Ġnump":1631,"Ġ200":1632,"Ġchat":1633,"Ġprereleases":1634,"Command":1635,"cre":1636,"require":1637,"isc":1638,"Ġ>>":1639,"Ġdivision":1640,"ri":1641,"lete":1642,"Ġ201":1643,"Ġ[\"":1644,"~~~~~~~~~~~~~~~~":1645,"Ġmin":1646,"Ġany":1647,"''<":1648,"target":1649,"{}":1650,"Ġmatch":1651,"ci":1652,"ines":1653,"encode":1654,"idd":1655,"context":1656,"platform":1657,"LS":1658,"dirs":1659,"anguage":1660,"Action":1661,"Warning":1662,"ting":1663,"Ġgiven":1664,"urllib":1665,"sources":1666,"pen":1667,"ĠReturns":1668,"AB":1669,"CT":1670,"Ġ)":1671,"elif":1672,"Ġsize":1673,"dep":1674,"tra":1675,"Distribution":1676,"wheel":1677,"Ġsoma":1678,"Ġmat":1679,"ĠAr":1680,"ulti":1681,"ctools":1682,"ORS":1683,"Tuple":1684,"Ġ6":1685,"quence":1686,"Ġtoken":1687,"Se":1688,"gth":1689,"ĠPEP":1690,"ĠIf":1691,"item":1692,"((":1693,"ACK":1694,"loc":1695,"Ġpkg":1696,"ĠIterator":1697,"gine":1698,"we":1699,"ĠApache":1700,"Ġcls":1701,"distutils":1702,"Ġmode":1703,"Ġ100":1704,"Result":1705,").<":1706,"game":1707,"rary":1708,"Ġone":1709,"ork":1710,"Ġcom":1711,"Ġhave":1712,"Ġnumpy":1713,"Var":1714,"est":1715,"Ġlabel":1716,"resources":1717,"Ġsorted":1718,"Ġdict":1719,"Ġfunctools":1720,"17":1721,"Ġcreate":1722,"Ġconver":1723,"image":1724,"Cache":1725,"fe":1726,"gi":1727,"ild":1728,"state":1729,"Ġwarnings":1730,"This":1731,"tle":1732,"org":1733,"metadata":1734,"Ġrepresent":1735,"Ġ()":1736,"open":1737,"ĠInstall":1738,"Ġ>>>":1739,"({":1740,"mb":1741,"net":1742,"Ġq":1743,"Ġcur":1744,"Ġnode":1745,"write":1746,"clude":1747,"float":1748,"rich":1749,"tings":1750,"Ġrel":1751,"Ġ{\"":1752,"scene":1753,"Config":1754,"lowed":1755,"header":1756,"BU":1757,"NA":1758,"Ġimplement":1759,"Ġdjango":1760,"ĠEn":1761,"oint":1762,"old":1763,"index":1764,"arse":1765,"ffer":1766,"aracters":1767,"Id":1768,"Ġentr":1769,"Ġfound":1770,"ible":1771,"shape":1772,"cheme":1773,"ä»":1774,"Ġ7":1775,"Ġå":1776,"ates":1777,"otal":1778,"50":1779,"lt":1780,"ĠQ":1781,"Ġio":1782,"Ġ'.":1783,"items":1784,"Ġrequests":1785,"Ġzip":1786,"æĸ":1787,"Ġla":1788,"Ġneed":1789,"Ġfunction":1790,"cii":1791,"map":1792,"attern":1793,"heme":1794,"ĠĠĠĠĠĠĠĠĠĠĠĠĠĠĠĠĠĠĠĠĠĠĠĠĠĠĠĠĠĠĠĠ":1795,"Ġasyncio":1796,"AD":1797,"ta":1798,"Ġlogger":1799,"crypted":1800,"Implement":1801,"====":1802,"bug":1803,"ha":1804,"nt":1805,"ĠK":1806,"gest":1807,"ask":1808,"Ġ10":1809,"cond":1810,"Return":1811,"logging":1812,"AND":1813,"DI":1814,"ition":1815,"values":1816,"Comp":1817,"Ġfr":1818,"Ġmain":1819,"onicalize":1820,"sa":1821,"ific":1822,"ĠUR":1823,"dates":1824,"lasses":1825,"HT":1826,"Pro":1827,"cls":1828,"misc":1829,"Ġ(\"":1830,"lot":1831,"extension":1832,"umn":1833,"ĠFile":1834,"Ġscen":1835,"asurement":1836,"finit":1837,"Ġlike":1838,"Ġele":1839,"****":1840,"An":1841,"sum":1842,"Ġlink":1843,"Ġsupport":1844,"database":1845,"canner":1846,"Ġcover":1847,"))":1848,"per":1849,"Ġconsole":1850,"scan":1851,"liter":1852,"Ġprefix":1853,"lename":1854,"Ġitertools":1855,"Ġscenes":1856,"'.":1857,"Get":1858,"lication":1859,"soma":1860,"work":1861,"Ġpos":1862,"itory":1863,"utes":1864,"Ġdefin":1865,"Ġdel":1866,"Control":1867,"stants":1868,"Ġfilters":1869,"arkup":1870,"pository":1871,">]<":1872,"Lo":1873,"color":1874,"no":1875,"win":1876,"Ġ\")<":1877,"directory":1878,".*":1879,"uf":1880,"ibute":1881,"Ġsocket":1882,"supported":1883,"sl":1884,"width":1885,"application":1886,"aised":1887,"ĠMessage":1888,"alized":1889,"indows":1890,"finity":1891,"ise":1892,"tree":1893,"Ġæ":1894,"Ġë":1895,"start":1896,"Ġauto":1897,"Ġbut":1898,"didates":1899,"``.<":1900,"scription":1901,"ariable":1902,"literals":1903,"IO":1904,"rc":1905,"åħ":1906,"agma":1907,"Ġoperator":1908,"board":1909,"Model":1910,"vo":1911,"âĢ":1912,"environ":1913,"Ġencoding":1914,"UTH":1915,"ward":1916,"Ġhttp":1917,"ĠTh":1918,"Ġstrings":1919,"content":1920,"res":1921,"filename":1922,"Ġ{<":1923,"Ġmetadata":1924,"ĠPygments":1925,"cmd":1926,"title":1927,"ario":1928,"ick":1929,"box":1930,"requests":1931,"USE":1932,"cor":1933,"ature":1934,"Ġwidth":1935,"Ġdoc":1936,"icensed":1937,"Ġmethod":1938,"Ġpragma":1939,"efault":1940,"Ġdoes":1941,"Ġsaida":1942,"iddle":1943,"'''<":1944,"ty":1945,"Ġwheel":1946,"les":1947,"ĠSpecifier":1948,"ify":1949,"\"{":1950,")):<":1951,"/<":1952,"icate":1953,"Ġsubprocess":1954,"Ġwas":1955,"Ġrequirement":1956,"ĠSo":1957,"Ġdep":1958,"Ġargparse":1959,"ìĿ´":1960,"Options":1961,"ell":1962,"Ġrepository":1963,"Ġparser":1964,"Ġwhile":1965,"arent":1966,"(*":1967,"`<":1968,"obj":1969,"vai":1970,"Ġover":1971,"Ġvi":1972,"andom":1973,"Ġstat":1974,"').":1975,"],<":1976,"pip":1977,"Ġhe":1978,"distribution":1979,"Ġcanonicalize":1980,"Ġrenderable":1981,"COMM":1982,"ao":1983,"cent":1984,"play":1985,"level":1986,"ister":1987,"Ġcomplete":1988,"For":1989,"MO":1990,"ail":1991,"Ġ\"<":1992,"Ġmust":1993,"Ġexist":1994,"enderableType":1995,"Ġcurrent":1996,"my":1997,"Ġim":1998,"atur":1999,"ssl":2000,"iled":2001,"check":2002,"iteral":2003,"EL":2004,"manager":2005,"yter":2006,"Ġhelp":2007,"upyter":2008,"Ġstart":2009,"Ġcontent":2010,"udscan":2011,"crip":2012,"ĠNotImplement":2013,"ĠNotImplemented":2014,"glob":2015,"sv":2016,"elist":2017,"extern":2018,"contrib":2019,"entifi":2020,"late":2021,"new":2022,"uration":2023,"Ġmore":2024,"room":2025,"Ġpygments":2026,"Ġwrite":2027,"stractmethod":2028,"hash":2029,"ET":2030,"seg":2031,"round":2032,"Ġtypes":2033,"docs":2034,"issing":2035,"BO":2036,"][":2037,"æķ":2038,"ins":2039,"decode":2040,"Ġreg":2041,"Ġline":2042,"typing":2043,"DEFAULT":2044,"annel":2045,"iddleware":2046,"ION":2047,"del":2048,"nect":2049,"Ġheaders":2050,"ĠRes":2051,"irst":2052,"count":2053,"11":2054,"NO":2055,"ĠY":2056,"erti":2057,"hes":2058,"hether":2059,"Ġfield":2060,"Ġoption":2061,"ERS":2062,"ASE":2063,"Fr":2064,"uments":2065,"Ġoptional":2066,"Ġbackend":2067,"filter":2068,"zen":2069,"stalled":2070,"aclass":2071,"formation":2072,"ormalized":2073,"ause":2074,"03":2075,"]]":2076,"ning":2077,"Ġteam":2078,"__,<":2079,"lso":2080,"img":2081,"ĠRequest":2082,"URL":2083,"Ġpackages":2084,"âģĥâģĥâģĥâģĥ":2085,"PR":2086,"mode":2087,"reated":2088,"lock":2089,"Ġscrip":2090,"olumn":2091,"ĠString":2092,"Ġnamespace":2093,"Ġvalues":2094,"Console":2095,"dered":2096,"vides":2097,"VERSION":2098,"vailable":2099,"HTTP":2100,"PY":2101,"sure":2102,"system":2103,"orig":2104,"Ġsu":2105,"Ġhere":2106,"preter":2107,"codes":2108,"COL":2109,"--------------------------------":2110,"Ġè":2111,"Ġload":2112,"Ġcall":2113,"ollow":2114,"ascii":2115,"Invalid":2116,"2021":2117,"Field":2118,"[-":2119,"Ġ~~~~~~~~~~~~~~~~":2120,"orrect":2121,"Ġimportlib":2122,"ody":2123,"formatters":2124,"Ġ2006":2125,"Ġdepend":2126,"Data":2127,"Ġerrors":2128,"Ġwhether":2129,"tim":2130,"constants":2131,"Ġencrypted":2132,"alker":2133,"ĠURL":2134,"Specifier":2135,"replace":2136,"Ġmay":2137,"ĠAUTH":2138,"Ġpygame":2139,"entifier":2140,"ĠAUTHORS":2141,"\"),<":2142,"II":2143,"edit":2144,"ader":2145,"ĠDE":2146,"ERR":2147,"length":2148,">)":2149,"pi":2150,"åŃ":2151,"let":2152,"ameters":2153,"ĠĠĠĠĠĠĠĠĠĠ":2154,"splay":2155,"().__":2156,"Ġbytes":2157,"query":2158,"BUG":2159,"Path":2160,"To":2161,"Ġ]<":2162,"response":2163,"Ġwin":2164,"ĠPath":2165,"...":2166,"func":2167,"ĠArgs":2168,"30":2169,"td":2170,"ttrib":2171,"Ġfirst":2172,"Ġprob":2173,"formatter":2174,"PIO":2175,"Parser":2176,"ailed":2177,"Ġ8":2178,"Ġ12":2179,"Ġcontrol":2180,"Ġwithin":2181,"element":2182,"Ġshutil":2183,"render":2184,"ucture":2185,"controller":2186,"\").":2187,"(?":2188,"60":2189,"EY":2190,"KEY":2191,"MENT":2192,"ValueError":2193,"bar":2194,"cli":2195,"ji":2196,"zip":2197,"Ġscheme":2198,"Ġdual":2199,"Ġlicensed":2200,"moji":2201,"Ġtimeout":2202,"ĠSequence":2203,"function":2204,"Ġcontextlib":2205,"Ġterms":2206,"ERROR":2207,"'))<":2208,"PD":2209,"eratur":2210,"Ġsk":2211,"Ġssl":2212,"Ġfollow":2213,"api":2214,"char":2215,"ĠFor":2216,"æķ°":2217,"eratura":2218,"Build":2219,"CH":2220,"Ele":2221,"cv":2222,"Ġtarget":2223,"Ġour":2224,"Ġdirect":2225,"eger":2226,"Ġsetup":2227,"Ġweb":2228,"ARK":2229,"Ġloc":2230,"bytes":2231,"::<":2232,"ES":2233,"Scanner":2234,"cape":2235,"latform":2236,"rt":2237,"rdered":2238,"}\"<":2239,"~<":2240,"ating":2241,"lex":2242,"Ġali":2243,"Ġmath":2244,"Ġattribute":2245,"Ġmodels":2246,"ARKER":2247,"Ac":2248,"FF":2249,"Python":2250,"TER":2251,"bl":2252,"})<":2253,"Ġ--":2254,"return":2255,"Ġword":2256,"arr":2257,"uri":2258,"Ġbot":2259,"Ġrandom":2260,"ete":2261,"ĠValueError":2262,"show":2263,"Ġlook":2264,"TE":2265,"TH":2266,"cut":2267,"ose":2268,"qa":2269,"rand":2270,"site":2271,"names":2272,"__(<":2273,"Ġlanguage":2274,"Ġemail":2275,"Ġnoqa":2276,"(_":2277,">'''<":2278,"da":2279,"Ġtuple":2280,"Ġcase":2281,"ĠSU":2282,"aph":2283,"Info":2284,"Ġallowed":2285,"gb":2286,"group":2287,"ne":2288,"åĲ":2289,"çĶ":2290,"Ġê":2291,"enu":2292,"tive":2293,"Ġinformation":2294,"Ġ\".":2295,"ĠSO":2296,"egacy":2297,"MA":2298,"rix":2299,"}\")<":2300,"ortcut":2301,"Ġspecifier":2302,"Ġind":2303,"ĠTO":2304,"Ġinto":2305,"Ġstream":2306,"Install":2307,"Ġcompat":2308,"ustom":2309,"PP":2310,"UN":2311,"gn":2312,"save":2313,"token":2314,"ĠZ":2315,"Ġpython":2316,"etree":2317,"service":2318,"Ġevent":2319,"Ġensure":2320,"Dec":2321,"Wheel":2322,"six":2323,"ton":2324,"Ġinvalid":2325,"Ġreturns":2326,"Ġdistribution":2327,"row":2328,"ility":2329,"Ġhand":2330,"apper":2331,"view":2332,"ĠHT":2333,"sg":2334,"íķ":2335,"ĠScene":2336,"ĠSPD":2337,"ĠDefault":2338,"precation":2339,"status":2340,"Ġconvert":2341,"ĠSPDX":2342,"Ad":2343,"Image":2344,"dTuple":2345,"ç»":2346,"usu":2347,"Ġthread":2348,"Ġgetattr":2349,"sert":2350,"Ġ\\<":2351,"points":2352,"off":2353,"egment":2354,"Connection":2355,"mplements":2356,"Ġfunctions":2357,"wrap":2358,"Transport":2359,"API":2360,"Ġimage":2361,"Ġcmd":2362,"unk":2363,"ular":2364,"Ġnames":2365,"scheme":2366,"Parse":2367,"78":2368,"regex":2369,"any":2370,"Ġreq":2371,"odb":2372,"aset":2373,"abstractmethod":2374,"Ġdist":2375,"Ġdiffer":2376,"Ġsession":2377,"ĠFormatter":2378,"ĠOrdered":2379,"ators":2380,"ĠGener":2381,"ĠInstallRequirement":2382,"NAME":2383,"Ġimplementation":2384,"Ġelement":2385,"ĠHTML":2386,">`":2387,"Failed":2388,"Ġcast":2389,"admin":2390,"ibrary":2391,"Enum":2392,"Style":2393,"EXT":2394,"contain":2395,"Method":2396,"Timeout":2397,"Ġmake":2398,".\")<":2399,"bot":2400,"fy":2401,"Ġimp":2402,"Ġparts":2403,"Ġpathlib":2404,"({\"":2405,"usuario":2406,"copy":2407,"Ġper":2408,"div":2409,"igr":2410,"aceback":2411,"current":2412,"USER":2413,"100":2414,"Manager":2415,"fter":2416,"mit":2417,"pin":2418,"åĽ":2419,"ories":2420,"reen":2421,"oder":2422,"ĠDe":2423,"setup":2424,"De":2425,"IG":2426,"Token":2427,"WS":2428,"rb":2429,"stream":2430,"Ġalso":2431,"Ġpool":2432,"ĠNew":2433,"ĠCh":2434,"uilt":2435,"sedVersion":2436,"output":2437,"ĠMeasurement":2438,"ĠTypeVar":2439,"IL":2440,"].":2441,"aux":2442,"emp":2443,"mary":2444,"raw":2445,"table":2446,"å¤":2447,"Ġclasses":2448,"Ġthere":2449,"Ġhook":2450,"post":2451,"Ġ\"\"<":2452,"ditions":2453,"517":2454,"Mix":2455,"SC":2456,"case":2457,"host":2458,"prereleases":2459,"Ġtag":2460,"Ġrefer":2461,"lags":2462,"field":2463,"part":2464,"setuptools":2465,"Infinity":2466,"udo":2467,"ATH":2468,"amp":2469,"option":2470,"ous":2471,"æĶ":2472,"remove":2473,"arts":2474,"Ġremove":2475,"Ġmsg":2476,"fore":2477,"Ġnamed":2478,"Ġvalor":2479,"ĠNamespace":2480,"IME":2481,"Ġdon":2482,"Ġseg":2483,"moved":2484,"web":2485,"Class":2486,"pkg":2487,"range":2488,"engine":2489,"ĠLiteral":2490,"settings":2491,"ĠConfig":2492,"Handler":2493,"Max":2494,"face":2495,"jp":2496,"Ġindex":2497,"Ġgetenv":2498,"press":2499,"Ġpaths":2500,"ĠException":2501,"34":2502,"Node":2503,"uff":2504,"Ġheader":2505,"Ġ\"_":2506,"ecu":2507,"Ġ'/":2508,"update":2509,"Ġvalid":2510,"Inter":2511,"ĠConsoleOptions":2512,"Ġrequired":2513,"Compiler":2514,"Mixin":2515,"16":2516,"18":2517,"Mapping":2518,"tags":2519,"Ġign":2520,"oml":2521,"lder":2522,"Ġwork":2523,"anch":2524,"apter":2525,"ĠMapping":2526,"Cont":2527,"Ġunpack":2528,"ongodb":2529,"256":2530,"ä»¶":2531,"\"):<":2532,"'):<":2533,"'),<":2534,"NI":2535,"Sh":2536,"Spec":2537,"ializ":2538,"tuple":2539,"det":2540,"utton":2541,"ĠParse":2542,"Ġdis":2543,"ibility":2544,"Ġdirs":2545,"âĢ¢":2546,"20":2547,"Met":2548,"MARKER":2549,"String":2550,"Us":2551,"})":2552,"å®":2553,"leM":2554,"Ġavailable":2555,"Ġsix":2556,"exec":2557,"(),":2558,"tems":2559,"Ġfilter":2560,"Ġcodecs":2561,"enderResult":2562,"Ġformatter":2563,"ownload":2564,"\"))<":2565,"Correct":2566,"IS":2567,"hic":2568,"decor":2569,"mem":2570,"ĠCache":2571,"ĠLink":2572,"Ġexec":2573,"Ġcharacters":2574,"ualenv":2575,"Ġusers":2576,"lask":2577,"COMMAND":2578,"40":2579,"pattern":2580,"parent":2581,"wo":2582,"Ġwant":2583,"arsing":2584,"Ġresol":2585,"Ġmongodb":2586,"ĠAPI":2587,"asic":2588,"ENSION":2589,"Ġwhere":2590,"ensiti":2591,"Ġoriginal":2592,"atures":2593,"ĠNotImplementedError":2594,"ake":2595,"eq":2596,"imp":2597,"node":2598,"åĮ":2599,"ëł":2600,"Ġcr":2601,"aces":2602,"Ġ''<":2603,"ĠPR":2604,"velop":2605,"subprocess":2606,"requirements":2607,"penSSL":2608,"36":2609,"Found":2610,"Too":2611,"äº":2612,"std":2613,"Ġpack":2614,"Ġfn":2615,"Ġresp":2616,"Ġ\"\\":2617,"erson":2618,"ĠNegativeResponse":2619,"ĠAd":2620,"ilter":2621,"Ġdescription":2622,"Ġproxy":2623,"Ġ2022":2624,"OTO":2625,"notes":2626,"oolean":2627,"ultip":2628,"26":2629,">âĢ¢":2630,"go":2631,"Ġlib":2632,"Ġfont":2633,"last":2634,"ĠToken":2635,"ush":2636,"Ġ...":2637,"Ġgroup":2638,"ĠDistribution":2639,"csv":2640,"Ġrequirements":2641,"LA":2642,"]+":2643,"auto":2644,"æľ":2645,"Ġ//":2646,"leep":2647,"Ġact":2648,"ites":2649,"Ġinstance":2650,"Ġmo":2651,"Ġver":2652,"``<":2653,"ĠEOF":2654,"Ġenum":2655,"compiler":2656,"CKS":2657,"Ġprodu":2658,"ITE":2659,"mbda":2660,"Ġimg":2661,"ertif":2662,")')<":2663,"15":2664,"={":2665,"RA":2666,"Raised":2667,"cy":2668,"ful":2669,"np":2670,"oss":2671,"Ġpd":2672,"Ġiniti":2673,"ĠIt":2674,"Ġ20":2675,"prog":2676,"ĠFound":2677,"Ġhighlight":2678,"vious":2679,"ĠVER":2680,"qual":2681,"bose":2682,"Ġlocation":2683,"################################":2684,"NotCorrect":2685,"aracter":2686,"Ġzipfile":2687,"Ġdependenc":2688,"ditionsNotCorrect":2689,"Di":2690,"TLS":2691,"dan":2692,"å¼":2693,"ĺì":2694,"ŀħ":2695,"ely":2696,"loop":2697,"Ġsel":2698,"debug":2699,"Ġpick":2700,"ador":2701,"Ġstand":2702,"ĠRo":2703,"Ġchange":2704,"ified":2705,"Session":2706,"Ġdifferent":2707,"decorators":2708,"ëł¥":2709,"BASE":2710,"PRE":2711,"SU":2712,"cure":2713,"man":2714,"ors":2715,"err":2716,"Ġsame":2717,"Ġfin":2718,"Ġbuilt":2719,"strip":2720,"ĠTime":2721,"transport":2722,"Ġexpected":2723,"aior":2724,"INE":2725,"ifiers":2726,"ä¸º":2727,"arker":2728,"ariant":2729,"djangoproject":2730,"ABC":2731,"æĸĩ":2732,"OTOCOL":2733,").__":2734,"HAS":2735,"Ser":2736,"create":2737,"ves":2738,"Ġque":2739,"Ġaction":2740,"(\"\\":2741,"artic":2742,"media":2743,"Ġpoint":2744,"Ġtheir":2745,"tract":2746,"ĠCON":2747,"Ġvariable":2748,"vided":2749,"ĠRenderResult":2750,"ORT":2751,"Ġcontains":2752,"Ġcommon":2753,"FO":2754,"Option":2755,"ial":2756,"rot":2757,"var":2758,"}]":2759,"}\".":2760,"Ġ9":2761,"Ġcal":2762,"Ġctypes":2763,"Ġobj":2764,"defin":2765,"direct":2766,"Ġ-=":2767,"upload":2768,"ĠPre":2769,"abel":2770,"ĠLegacy":2771,"prec":2772,"Ġsysconfig":2773,"Ġstate":2774,"ĠReg":2775,"ĠRequirement":2776,"Ġhasattr":2777,"minal":2778,"Ġloop":2779,"Environment":2780,"ditional":2781,"array":2782,"CC":2783,"Gener":2784,"Tag":2785,"WN":2786,"pass":2787,"âĶ":2788,"stamp":2789,"eni":2790,"second":2791,"hed":2792,"its":2793,"Ġinstalled":2794,"dio":2795,"tparse":2796,"Ġencode":2797,"ugin":2798,"Ġtempfile":2799,"Keyboard":2800,"ĠDefaults":2801,"ĠOrderedDict":2802,"æĸĩä»¶":2803,"QU":2804,"Qt":2805,"bstract":2806,"clo":2807,"nown":2808,"Ġ}<":2809,"erSpec":2810,"Ġtk":2811,"ties":2812,"anuf":2813,"Ġfull":2814,"ingle":2815,"__<":2816,"actur":2817,"exer":2818,"ĠID":2819,"Ġexception":2820,"Ġprogram":2821,"ConditionsNotCorrect":2822,"requires":2823,"local":2824,"ificConditionsNotCorrect":2825,"summary":2826,"Ġscript":2827,"Ġsuch":2828,"leManuf":2829,"hicleManuf":2830,"erSpecificConditionsNotCorrect":2831,"acturerSpecificConditionsNotCorrect":2832,"hicleManufacturerSpecificConditionsNotCorrect":2833,":%":2834,"Min":2835,"Py":2836,"`.<":2837,"ph":2838,"Ġtags":2839,"Ġtotal":2840,"andidate":2841,"Ġne":2842,"Ġnorm":2843,"tries":2844,"Ġvendor":2845,"Ġsettings":2846,"ocol":2847,"addAction":2848,"Ġhashlib":2849,"Ġentry":2850,"========":2851,"extensions":2852,"ĠEOFError":2853,"Library":2854,"Walker":2855,"gor":2856,"lines":2857,"ten":2858,"tag":2859,"wd":2860,"xml":2861,"Ġegg":2862,"alues":2863,"Ġsrc":2864,"Ġthem":2865,"ĠPro":2866,"ash":2867,"``,":2868,"graph":2869,"ivate":2870,"NotFound":2871,"Ġdefined":2872,"Ġfollowing":2873,"rop":2874,"¨¡":2875,"è½":2876,"Ġhtml":2877,"resol":2878,"Ġitems":2879,"Ġsave":2880,"Ġbet":2881,"Ġboolean":2882,"Ġinclude":2883,"ĠColor":2884,"Retry":2885,"Ġgame":2886,"Ġprovided":2887,"ĠWe":2888,"chemy":2889,"LOW":2890,"ighlighter":2891,"Frame":2892,"ormalizedName":2893,"USERS":2894,"ertificate":2895,"::":2896,"CU":2897,"No":2898,"Pool":2899,"TF":2900,"TYPE":2901,"hor":2902,"music":2903,"oice":2904,"page":2905,"wise":2906,"Ġkeys":2907,"rec":2908,"unter":2909,"term":2910,"ification":2911,"ĠBy":2912,"Ġoptparse":2913,"Ġarch":2914,"PEC":2915,"Ġcount":2916,"register":2917,"lineKeyboard":2918,"TRI":2919,"upyterMixin":2920,"ializer":2921,"56":2922,"OP":2923,"Or":2924,"bg":2925,"call":2926,"ccur":2927,"column":2928,"lic":2929,"ng":2930,"now":2931,"rp":2932,"ä¹":2933,"æį":2934,"ìł":2935,"Ġits":2936,"Ġauth":2937,"titem":2938,"Ġbl":2939,"exit":2940,"ĠTr":2941,"Ġstruct":2942,"Ġxml":2943,"very":2944,"ĠRenderableType":2945,"plication":2946,"ANN":2947,"stead":2948,"DEBUG":2949,"Ġnumero":2950,"scripts":2951,"Characters":2952,"river":2953,"*.":2954,"Fun":2955,"GB":2956,"IM":2957,"Vi":2958,"how":2959,"ority":2960,"learn":2961,"Ġremoved":2962,"Ġbin":2963,"enter":2964,"ĠSegment":2965,"asy":2966,"ĠDi":2967,"ĠFore":2968,"Ġruntime":2969,"encoding":2970,"saida":2971,"Ġwinreg":2972,"Ġsklearn":2973,"hicleManufacturerSpecificConditionsNotCorrectF":2974,"Test":2975,"VE":2976,"Wr":2977,"åĬ":2978,"ĠKey":2979,"ĺìĿ´":2980,"mpty":2981,"Ġafter":2982,"hex":2983,"Ġpyp":2984,"Ġfe":2985,"escape":2986,"stry":2987,"ĠNo":2988,"ĠSSL":2989,"istant":2990,"paths":2991,"Ġdebug":2992,"interpreter":2993,"Ġ30":2994,"ports":2995,"adding":2996,"URI":2997,"Ġlevel":2998,"ĠPyPI":2999,"entry":3000,"Identifier":3001,"ĠSoft":3002,"Ġview":3003,"ĠSOCKS":3004,"ensitive":3005,"GI":3006,"[[":3007,"ale":3008,"ground":3009,"handler":3010,"slo":3011,"Ġap":3012,"lied":3013,"ypes":3014,"fir":3015,"spath":3016,"ĠLogger":3017,"keep":3018,"ĠValues":3019,"ĠUnsupported":3020,"ĠGet":3021,"side":3022,"suppress":3023,"crement":3024,"ĠQAction":3025,"He":3026,"Ver":3027,"[{":3028,"flow":3029,"pan":3030,"su":3031,"âķ":3032,"Ġtwo":3033,"Ġcalled":3034,"ices":3035,"Ġ\"))<":3036,"ecause":3037,"fied":3038,"ado":3039,"odo":3040,"ases":3041,"Ġdb":3042,"ibutes":3043,"Ġtrain":3044,"Ġabc":3045,"Ġsplit":3046,"Ġglobal":3047,"Ġignore":3048,"?<":3049,"PO":3050,"SPEC":3051,"ied":3052,"menu":3053,"uid":3054,"è¯":3055,"only":3056,"search":3057,"Ġsystem":3058,"Ġclient":3059,"Ġinfo":3060,"~~~<":3061,"ider":3062,"Ġsepar":3063,"make":3064,"virt":3065,"Ġiterable":3066,"argv":3067,"Ġtokens":3068,"Ġspecified":3069,"binary":3070,"LIST":3071,"Ġ2015":3072,"Ġrepresentation":3073,"artswith":3074,"ĠVERSION":3075,"CRE":3076,"Implements":3077,"]*":3078,"gener":3079,"language":3080,"mac":3081,"ozen":3082,"æī":3083,"çĽ":3084,"rev":3085,"Ġcreated":3086,"Ġres":3087,"icro":3088,"Ġparsed":3089,"Ġbeen":3090,"~~~~~~~~~~~~":3091,"ART":3092,"Ġobjects":3093,"Ġcodes":3094,"argument":3095,"Ġupload":3096,":`~":3097,"Message":3098,"Ġlabels":3099,"EXTENSION":3100,"99":3101,"Dat":3102,"Iter":3103,"event":3104,"plot":3105,"¯å":3106,"æĪ":3107,"æĺ":3108,"æ¨¡":3109,"resh":3110,"opts":3111,"ĠBuild":3112,"Ġprovides":3113,"Ġjust":3114,"Ġprop":3115,"grid":3116,"ĠWheel":3117,"candidate":3118,"Ġlex":3119,"filelist":3120,"********":3121,"ttribute":3122,"Ġdirectories":3123,".')<":3124,"Color":3125,"Middleware":3126,"bdist":3127,"font":3128,"ho":3129,"middleware":3130,"perator":3131,"æł":3132,"ëĭ":3133,"Ġkeep":3134,"inue":3135,"ref":3136,"startswith":3137,"Ġway":3138,"Ġsi":3139,"Ġpattern":3140,"__.":3141,"dis":3142,"Ġraised":3143,"odeError":3144,"parts":3145,"ĠUse":3146,"undo":3147,"Ġprocess":3148,"Ġcontinue":3149,"ä¸Ģ":3150,"ĠBaseDistribution":3151,"static":3152,"ĠDEFAULT":3153,"Classifier":3154,"precated":3155,")))<":3156,"Copyright":3157,"eded":3158,"lf":3159,"ql":3160,"send":3161,"sgi":3162,"ww":3163,"wsgi":3164,"æĴ":3165,"Ġí":3166,"description":3167,"Ġclf":3168,"Ġresource":3169,"__,":3170,"trans":3171,"ĠST":3172,"spect":3173,"asgi":3174,"Ġdisplay":3175,"Ġthan":3176,"ĠOS":3177,"soft":3178,"ĠMutable":3179,"akes":3180,"temperatura":3181,"Ġcontained":3182,"ĠNamedTuple":3183,"Ġ2012":3184,"depth":3185,"Ġfrozen":3186,"defined":3187,"graphy":3188,"slots":3189,"Ġfrozenset":3190,"'),":3191,"(-":3192,"28":3193,"Hook":3194,"Lexer":3195,"OG":3196,"RenderableType":3197,"use":3198,"¾å":3199,"ä¿":3200,"æĢ":3201,"ĭľ":3202,"Ġsingle":3203,"height":3204,"iction":3205,"Ġ'__":3206,"ipp":3207,"ything":3208,"Ġtrans":3209,"############":3210,"compare":3211,"ANG":3212,"Ġrunning":3213,"Ġplt":3214,"ALL":3215,"styles":3216,"links":3217,"onical":3218,"Ġlast":3219,"precationWarning":3220,"Ġthreading":3221,"ĠLegacyVersion":3222,"QUI":3223,"ANNED":3224,"!<":3225,"Com":3226,"Call":3227,"Check":3228,"Link":3229,"OL":3230,"Object":3231,"cap":3232,"emoji":3233,"riz":3234,"sign":3235,"},":3236,"±»":3237,"ç±»":3238,"itle":3239,"urls":3240,"limit":3241,"ĠPar":3242,"Ġgr":3243,"ĠOn":3244,"izer":3245,"parsedVersion":3246,"agment":3247,"folder":3248,"Ġoper":3249,"Ġabout":3250,"quot":3251,"Ġsample":3252,"ultipart":3253,"ween":3254,"çĶ¨":3255,"TimeoutError":3256,"(\\":3257,":\\":3258,"Find":3259,"Sub":3260,"]))<":3261,"email":3262,"hat":3263,"ique":3264,"³¼":3265,"location":3266,"secure":3267,"Ġ\",":3268,"tras":3269,"Ġoff":3270,"Ġsecond":3271,"Ġ25":3272,"Ġextra":3273,"ches":3274,"script":3275,"awn":3276,"Ġminimum":3277,"Ġ75":3278,"segment":3279,"original":3280,"renderable":3281,"Elements":3282,"App":3283,"Button":3284,"MIT":3285,"]]<":3286,"fl":3287,"ry":3288,"ving":3289,"wn":3290,"ìķ":3291,"ĠâĸĪâĸĪ":3292,"elu":3293,"Ġsite":3294,"tial":3295,"struct":3296,"Ġmk":3297,"ĠIO":3298,"ĠImage":3299,"ĠFormat":3300,"cks":3301,"ĠĠĠĠĠĠĠĠĠĠĠĠĠĠĠĠĠĠĠĠĠĠĠĠ":3302,"Ġchar":3303,"commands":3304,"Ġbased":3305,"Ġkind":3306,"Ġfilenames":3307,"issues":3308,"Ġexists":3309,"virtualenv":3310,"EXTENSIONS":3311,"23":3312,"=',":3313,"BR":3314,"Dir":3315,"OK":3316,"RC":3317,"cel":3318,"the":3319,"theme":3320,"wb":3321,"warn":3322,"è¾":3323,"éĩ":3324,"inx":3325,"inux":3326,"insert":3327,"lear":3328,"ĠTag":3329,"Eric":3330,"andle":3331,"andas":3332,"rozen":3333,"ĠFrozen":3334,"END":3335,"Ġcandidate":3336,"ched":3337,"candidates":3338,"Ġ50":3339,"Ġcommands":3340,"Char":3341,"DIR":3342,"Ġdocument":3343,"åĮĸ":3344,"04":3345,"GPIO":3346,"Mat":3347,"PATH":3348,"fn":3349,"ian":3350,"ually":3351,"warning":3352,"åĩ":3353,"ç½":3354,"è®":3355,"alchemy":3356,"measure":3357,"ĠNegative":3358,"Ġannot":3359,"spaces":3360,"Ġinteger":3361,"ĠBANNED":3362,"Ġeach":3363,"Context":3364,"ĠInput":3365,"Ġ%(":3366,"Ġunit":3367,"ATION":3368,"Ġtextwrap":3369,"Ġusage":3370,"ĠStyleType":3371,"ĠĠĠĠĠĠĠĠĠĠĠĠĠĠĠĠĠĠĠĠĠĠĠĠĠĠĠĠĠĠĠĠĠĠĠĠĠĠ":3372,"ĠPROTOCOL":3373,"Ġdependencies":3374,"Ġstandard":3375,"icrosoft":3376,"qlalchemy":3377,"QUIRE":3378,"'re":3379,"CUR":3380,"cp":3381,"driver":3382,"ever":3383,"ru":3384,"å§":3385,"ç§":3386,"è¿":3387,"environment":3388,"Ġreturned":3389,"ĠPlatform":3390,"Ġ11":3391,"Ġcons":3392,"road":3393,"parameters":3394,"setObject":3395,"vert":3396,"tography":3397,"LES":3398,"backend":3399,"ĠDistutilsOption":3400,"ĠUDSScanner":3401,"ĠInstallation":3402,"MODE":3403,"svn":3404,"ĠTODO":3405,"igrations":3406,"udoers":3407,"password":3408,"IMG":3409,"setObjectName":3410,"ĠDistutilsOptionError":3411,"86":3412,"BUT":3413,"IP":3414,"License":3415,"pe":3416,"udio":3417,"ë¥":3418,"mpt":3419,"atic":3420,"Ġtar":3421,"arson":3422,"Ġport":3423,"Ġnon":3424,"mentTree":3425,"ama":3426,"ason":3427,"ĠLarson":3428,"','":3429,"Ġwithout":3430,"dirname":3431,"inear":3432,"ayload":3433,"msg":3434,"Ġmodules":3435,"tempdir":3436,"number":3437,"00000000":3438,"wards":3439,"Ġvia":3440,"BOSE":3441,"ĠResponse":3442,"033":3443,"Ġcontroller":3444,"Ġalias":3445,"jpg":3446,"Ġbetween":3447,"TRIBUT":3448,"æĴŃ":3449,"(.*":3450,"80":3451,"More":3452,"SON":3453,"cwd":3454,"ie":3455,"tok":3456,"uffer":3457,"yte":3458,"ä½":3459,"ì§":3460,"inner":3461,"resp":3462,"Ġpandas":3463,"Ġfuture":3464,"Ġbody":3465,"olution":3466,"Ġmissing":3467,"ĠComp":3468,"ĠPackage":3469,"abspath":3470,"Require":3471,"pression":3472,"Ġenv":3473,"ĠCont":3474,"ynt":3475,"STR":3476,"Ġroom":3477,"herit":3478,"Ġarguments":3479,"Ġinterface":3480,"Ġmatplot":3481,"older":3482,"velopment":3483,"Ġlibrary":3484,"ŀħëł¥":3485,"OrMore":3486,"ĠSoftware":3487,"Ġannotations":3488,"Ġmatplotlib":3489,"\"])<":3490,"29":3491,"AME":3492,"BG":3493,"ear":3494,"jupyter":3495,"na":3496,"png":3497,"åĻ":3498,"æİ":3499,"Ġ):<":3500,"Ġretry":3501,"Ġinstead":3502,"ĠClass":3503,"classmethod":3504,"Ġconnection":3505,"Ġgen":3506,"ĠDan":3507,"Ġdecode":3508,"Ġbefore":3509,"plugin":3510,"derr":3511,"Ġallow":3512,"ĠJupyterMixin":3513,"Ġmaximum":3514,"results":3515,"openssl":3516,"center":3517,"789":3518,"fields":3519,"ranges":3520,"ĠFoundation":3521,"ĠCONTRIBUT":3522,"first":3523,"yntax":3524,"ĠCONTRIBUTORS":3525,"Platform":3526,"hour":3527,"over":3528,"toml":3529,"variable":3530,"å¯":3531,"è¡":3532,"integer":3533,"Ġplay":3534,"itch":3535,"Ġinspect":3536,"display":3537,"Ġmap":3538,"ĠNode":3539,"namespace":3540,"connect":3541,"roug":3542,"ĠOpenSSL":3543,"Ġbeing":3544,"codecs":3545,"Ġtrack":3546,"ĠUnicode":3547,"LEG":3548,"ĠGPIO":3549,"Stream":3550,"Ġcontainer":3551,"Ġstyles":3552,"Ġresults":3553,"Ġfields":3554,"Builder":3555,"DecodeError":3556,"Ġdisable":3557,"Ġfnmatch":3558,"ossible":3559,"errno":3560,"articles":3561,"hora":3562,"ĠFrozenSet":3563,"Matrix":3564,"æĴŃæĶ":3565,"31":3566,"39":3567,">``":3568,">..":3569,"LL":3570,"SO":3571,"Size":3572,"VI":3573,"fg":3574,"mt":3575,"mix":3576,"norm":3577,"oot":3578,"src":3579,"ä¼":3580,"åŀ":3581,"Ġcel":3582,"lities":3583,"strict":3584,"ĠTLS":3585,"ĠTodo":3586,"ypoint":3587,"Ġmaior":3588,"true":3589,"(),<":3590,"ulse":3591,"channel":3592,"common":3593,"proxy":3594,"ross":3595,"ĠData":3596,"Ġexc":3597,"air":3598,"ĠModule":3599,"INDO":3600,"ĠInlineKeyboard":3601,"Ġ32":3602,"HEAD":3603,"Ġsupported":3604,"METH":3605,"ways":3606,"Child":3607,"Ġinterpreter":3608,"Ġservice":3609,"Ġqtd":3610,"Ġelements":3611,"åħ¥":3612,"delete":3613,"HTTPError":3614,"Ġseleni":3615,"ificationFailed":3616,"Ġarchive":3617,"View":3618,"VerificationFailed":3619,"ë¥¼":3620,"åŀĭ":3621,"INDOWS":3622,"METHO":3623,"Ġselenium":3624,"DU":3625,"OUT":3626,"UM":3627,"gument":3628,"oy":3629,"ĠEric":3630,"Ġcap":3631,"ssue":3632,"exp":3633,"ĠClient":3634,"abi":3635,"force":3636,"Ġnota":3637,"score":3638,"ĠRE":3639,"ĠRaise":3640,"INFO":3641,"Ġcandidates":3642,"ared":3643,"Exec":3644,"step":3645,"ARN":3646,"builder":3647,"FileCopyright":3648,"Ġaccept":3649,"Ġposition":3650,"Ġdoesn":3651,"âģĥâģĥâģĥâģĥâģĥâģĥâģĥâģĥ":3652,"Ġlookup":3653,"IGHT":3654,"rotocol":3655,"cremental":3656,"FileCopyrightText":3657,"Ar":3658,"Ho":3659,"SV":3660,"US":3661,"dot":3662,"mapping":3663,"ob":3664,"top":3665,"ze":3666,"éĢ":3667,"Ġ--------------------------------":3668,"Ġtable":3669,"Ġsal":3670,"Ġreplace":3671,"Ġreason":3672,"structure":3673,"ypy":3674,"---":3675,"Ġman":3676,"iplet":3677,"operator":3678,"ector":3679,"Ġthen":3680,"ĠRegex":3681,"Ġprevious":3682,"poses":3683,"############################":3684,"Ġsafe":3685,"SSLv":3686,"ĠInvalidSpecifier":3687,"Ġgenerate":3688,"ESS":3689,"Ġcompatibility":3690,"container":3691,"Directory":3692,"ç½®":3693,"Filter":3694,"OU":3695,"SP":3696,"TIME":3697,"cal":3698,"flags":3699,"kind":3700,"pace":3701,"rgb":3702,"sample":3703,"å½":3704,"ernet":3705,"(\".":3706,"met":3707,"Ġbecause":3708,"Ġ\"{":3709,"ĠTemp":3710,"ecur":3711,"unpack":3712,"ĠNum":3713,"ĠCom":3714,"ĠApp":3715,"Ġsess":3716,"Read":3717,"ĠDo":3718,"setSh":3719,"assistant":3720,"username":3721,"Ġfunc":3722,"Ġurlparse":3723,"Ġuses":3724,"Ġcontaining":3725,"linear":3726,"Track":3727,"Ġescr":3728,"([^":3729,"ĠExample":3730,"Ġserver":3731,"æĸ¹":3732,"Ġdelete":3733,"ttributes":3734,"executable":3735,"ĠCacheControl":3736,"Ġactual":3737,"å¼ı":3738,"HookCall":3739,"setShortcut":3740,"HookCaller":3741,"14":3742,"Handle":3743,"Str":3744,"ling":3745,"pop":3746,"total":3747,"±Ĥ":3748,"Ġuti":3749,"Ġkwargs":3750,"store":3751,"ansi":3752,"getitem":3753,"Ġoccur":3754,"digest":3755,"Ġthese":3756,"Ġmarkup":3757,"Ġmany":3758,"Ġ'<":3759,"ĠCCompiler":3760,"ects":3761,"Ġ28":3762,"Ġlong":3763,"Ġ{}":3764,"Ġempty":3765,"ĠInfinity":3766,"complete":3767,"REQUIRE":3768,"Ġshow":3769,"irc":3770,"Ġ517":3771,"Ġtemperatura":3772,"lign":3773,"ABLE":3774,"åŃ¦":3775,"PPORT":3776,"ìłľ":3777,"Function":3778,"BRACK":3779,"ĠNegativeInfinity":3780,"å§ĭ":3781,"æĴŃæĶ¾":3782,"-\\":3783,"201":3784,"54":3785,":\\\\":3786,">-":3787,"CY":3788,"CON":3789,"Missing":3790,"gt":3791,"pulse":3792,"ram":3793,"¬ì":3794,"Ġ,":3795,"Ġutil":3796,"inha":3797,"private":3798,"Ġtrue":3799,"left":3800,"tiv":3801,"Ġcopy":3802,"ĠSE":3803,"idx":3804,"Ġ16":3805,"Ġgo":3806,"ized":3807,"ower":3808,"Ġev":3809,"Ġeasy":3810,"Ġcharacter":3811,"ĠWord":3812,"ready":3813,"specific":3814,"åıĺ":3815,"Ġìŀħëł¥":3816,"LIMIT":3817,"Ġdataclass":3818,"Ġdefinition":3819,"Ġstatus":3820,"ĠUnsupportedWheel":3821,"ì§Ģ":3822,":]<":3823,"BOT":3824,"CA":3825,"CP":3826,"GE":3827,"PAR":3828,"body":3829,"ccompiler":3830,"ide":3831,"jor":3832,"known":3833,"of":3834,"yment":3835,"åľ":3836,"Ġ&":3837,"entic":3838,"loyment":3839,"Ġwarning":3840,"Ġflask":3841,"itable":3842,"ical":3843,"aclasses":3844,"Ġtheme":3845,"ĠTree":3846,"Ġ(_":3847,"thing":3848,"isual":3849,"ĠPip":3850,"ĠPep":3851,"ither":3852,"ublic":3853,"Reg":3854,"Ġexceptions":3855,"ĠgetLogger":3856,"Ġdeprecated":3857,"Ġstack":3858,"Ġequal":3859,"Ġunique":3860,"shi":3861,"ĠWindows":3862,"='#":3863,"specifiers":3864,"writer":3865,"processor":3866,"Ġoutfile":3867,"ä¸ª":3868,"UnparsedVersion":3869,"Ġspace":3870,"ìĿĺ":3871,"ĠTypeError":3872,"pyparsing":3873,"eroOrMore":3874,"deployment":3875,"workspace":3876,"Ġlocal":3877,"ultiple":3878,"Ġproduction":3879,"ĠRoom":3880,"howto":3881,"Ġfeatures":3882,"Dirs":3883,"38":3884,"Doc":3885,"bers":3886,"hist":3887,"hinx":3888,"plit":3889,"sensitive":3890,"}:":3891,"çİ":3892,"ering":3893,"requirement":3894,"reshape":3895,"ended":3896,"Ġtot":3897,"Ġtitle":3898,"Ġsqlalchemy":3899,"device":3900,"Ġimported":3901,"Ġcell":3902,"Ġcustom":3903,"Ġfp":3904,"Ġred":3905,"Ġretries":3906,"Ġold":3907,"Ġbdist":3908,"ading":3909,"ĠAbstract":3910,"ĠAttribute":3911,"ĠLinear":3912,"ateg":3913,"ĠDec":3914,"apped":3915,"socks":3916,"Ġdest":3917,"Ġtrail":3918,"ĠVer":3919,"Ġchild":3920,"sha":3921,"curacy":3922,"pypa":3923,"ĠUDSRequest":3924,"contextmanager":3925,"Ġmethods":3926,"Ġheight":3927,"editable":3928,"Ġaliases":3929,"Ġdistributions":3930,"Ġhooks":3931,"termine":3932,"rough":3933,".\"<":3934,"27":3935,"GET":3936,"It":3937,"Operator":3938,"Sup":3939,"Windows":3940,"_<":3941,"bz":3942,"istry":3943,"kip":3944,"´í":3945,"åº":3946,"stderr":3947,"Ġaut":3948,"Ġsug":3949,"aris":3950,"Ġparent":3951,"Ġ\"-":3952,"thread":3953,"ends":3954,"ĠLay":3955,"oper":3956,"change":3957,"('.":3958,"Ġcontrib":3959,"ĠFI":3960,"Ġexpression":3961,"Ġparsing":3962,"ĠRich":3963,"ĠRaw":3964,"Ġcompiler":3965,"actory":3966,"rong":3967,"Ġalways":3968,"Start":3969,"registry":3970,"DOERS":3971,"ooki":3972,"Ġchats":3973,"ĠKOF":3974,"safe":3975,"HTML":3976,"Ġpositi":3977,"CCESS":3978,"Ġviews":3979,"Ġescrib":3980,"#!":3981,"35":3982,"AM":3983,"IFI":3984,"Markup":3985,"WOR":3986,"ait":3987,"git":3988,"ia":3989,"ialize":3990,"ker":3991,"mi":3992,"sers":3993,"µĲ":3994,"åĨ":3995,"êµĲ":3996,"íİ":3997,"Ġet":3998,"Ħì":3999,"orch":4000,"allowed":4001,"Ġcallable":4002,"Ġpin":4003,"ance":4004,"odings":4005,"Ġ19":4006,"('*.":4007,"Ġexp":4008,"Ġextract":4009,"Ġord":4010,"Ġbeha":4011,"ocation":4012,"ORM":4013,"ĠControl":4014,"poch":4015,"Ġconfigparser":4016,"layer":4017,"Ġkeyword":4018,"actions":4019,"[:-":4020,"InstallRequirement":4021,"Meta":4022,"stdout":4023,"secondary":4024,"NotFoundError":4025,"Ġbinascii":4026,"ĺìĿ´ì§Ģ":4027,"flict":4028,"ìķĪ":4029,"mixer":4030,"metaclass":4031,"êµĲìķĪ":4032,"íİĺìĿ´ì§Ģ":4033,"Ġbehavi":4034,"\"\\":4035,"++":4036,"=-":4037,"==\"":4038,">}<":4039,"Al":4040,"IF":4041,"Run":4042,"ade":4043,"cost":4044,"dump":4045,"qtd":4046,"tty":4047,"ater":4048,"atis":4049,"sep":4050,"Ġapi":4051,"ali":4052,"users":4053,"ĠPack":4054,"ĠAB":4055,"ĠApr":4056,"ĠLOG":4057,"('|":4058,"Ġconcurrent":4059,"Ġexample":4060,"Ġ{'":4061,"reader":4062,"ĠAnsi":4063,"Ġversions":4064,"labels":4065,"futures":4066,"Ġconfiguration":4067,"canonical":4068,"Ġ|')<":4069,"ITY":4070,"Ġwrap":4071,"Ġattemp":4072,"ference":4073,"FIX":4074,"sessions":4075,"Ġmatriz":4076,"Ġrepresenting":4077,"uffix":4078,"ĠYou":4079,"ĠDEBUG":4080,"íķĺì":4081,"webdriver":4082,"æľī":4083,"Ġfinally":4084,"gorith":4085,"ipping":4086,"ARNING":4087,"?)":4088,"CE":4089,"Hel":4090,"Renderable":4091,"az":4092,"ole":4093,"rf":4094,"rglob":4095,"task":4096,"¾Ħ":4097,"ìĪ":4098,"Ġext":4099,"Ġquery":4100,"(\"[":4101,"Ġsum":4102,"Ġsleep":4103,"Ġfolder":4104,"Ġ\"%":4105,"~~<":4106,"ĠCreate":4107,"ĠStr":4108,"Ġsearch":4109,"allback":4110,"0001":4111,"ily":4112,"Ġhost":4113,"Ġnamespaces":4114,"Ġeither":4115,"foo":4116,"ĠVe":4117,"ĠThese":4118,"Ġadj":4119,"Ġadditional":4120,"Enter":4121,"where":4122,"State":4123,"ä¸į":4124,"modules":4125,"ride":4126,"ĠEnvironment":4127,"Ġlambda":4128,"Any":4129,"MODU":4130,"PRO":4131,"Contain":4132,"LAY":4133,"ictionary":4134,"arison":4135,"ĠABC":4136,").\"\"\"<":4137,"401":4138,">*":4139,"BL":4140,"Client":4141,"Fore":4142,"Of":4143,"So":4144,"Value":4145,"WH":4146,"bt":4147,"ced":4148,"cell":4149,"fit":4150,"hn":4151,"nel":4152,"pat":4153,"variant":4154,"|~":4155,"|--":4156,"ãģ":4157,"ë¡":4158,"Ġfla":4159,"Ġregex":4160,"eso":4161,"ĠTable":4162,"yptography":4163,"tura":4164,"Ġmapping":4165,"ĠNOT":4166,"ĠNormalizedName":4167,"sphinx":4168,"ĠASC":4169,"acklist":4170,"ope":4171,"Ġdigest":4172,"chr":4173,"(':":4174,"Ġconstruct":4175,"Ġgn":4176,"Ġhandler":4177,"Ġexit":4178,"undos":4179,"oci":4180,"ogn":4181,"Ġfilelist":4182,"CHEME":4183,"Ġalready":4184,"sius":4185,"Ġwrapper":4186,"ENTIFI":4187,"VERBOSE":4188,"COMP":4189,"ĠNote":4190,"Results":4191,"Ġscripts":4192,"Ġproble":4193,"ĠSUDOERS":4194,"Ġindent":4195,"Ġsegundos":4196,"Metadata":4197,"Ġpickle":4198,"ertificateVerificationFailed":4199,"Ġlexer":4200,"staticmethod":4201,"ĠOnly":4202,"RCCommand":4203,"Hola":4204,":\\\\').":4205,"|~|--":4206,"ĠASCII":4207,"ENTIFIER":4208,"ertificateVerificationFailedInvalid":4209,"+)":4210,">\"\"\"":4211,"ECT":4212,"Highlighter":4213,"Le":4214,"day":4215,"payload":4216,"¨í":4217,"µĭ":4218,"»´í":4219,"ì»´í":4220,"Įħ":4221,"ĵ¨í":4222,"Ġtorch":4223,"dev":4224,"utor":4225,"Ġnext":4226,"Ġnet":4227,"exe":4228,"ueue":4229,"amer":4230,"listdir":4231,"Ġexpl":4232,"ĠModel":4233,"ĠMicrosoft":4234,"setdefault":4235,"SER":4236,"predict":4237,"moves":4238,"Ġescape":4239,"pyplot":4240,"255":4241,"cret":4242,"Ġ2013":4243,"Ġentrypoint":4244,"void":4245,"lexers":4246,"ĠSUCCESS":4247,"Ġê³¼":4248,"Adapter":4249,"ĠGeneric":4250,"LibraryManager":4251,"ĠOSError":4252,"ĠMutableMapping":4253,"Finder":4254,"ì»´íĵ¨í":4255,"Ġê³¼ìłľ":4256,"ì»´íĵ¨íĮħ":4257,"'.<":4258,"/{":4259,"936":4260,"Cre":4261,"Created":4262,"Label":4263,"NC":4264,"Pr":4265,"Window":4266,"_.":4267,"guild":4268,"mory":4269,"ns":4270,"pu":4271,"tool":4272,"°ì":4273,"éŁ":4274,"Ġerrno":4275,"elib":4276,"eleg":4277,"Ġavoid":4278,"__.__":4279,"uted":4280,"Ġbound":4281,"Ġinv":4282,"edge":4283,"Ġ((":4284,"trl":4285,"ĠĠĠĠĠĠĠĠĠĠĠĠĠĠ":4286,"ĠSer":4287,"ĠPY":4288,"Ġstrict":4289,"Ġprinter":4290,"Ġconnect":4291,"ilar":4292,"appname":4293,"Ġparameters":4294,"Ġstd":4295,"imilar":4296,"Ġjoin":4297,"Ġoptim":4298,"ĠTheme":4299,"builders":4300,"ences":4301,"ALLOW":4302,"DOWN":4303,"Ġcached":4304,"Unsupported":4305,"Ġrequires":4306,"pypi":4307,"RequestException":4308,"video":4309,"Ġsomething":4310,"ĠUDSErrorCodes":4311,"idden":4312,"Ġ60":4313,"Provides":4314,"ìĿ´í":4315,"Ġhex":4316,"Ġè®":4317,"igration":4318,"Ġresolution":4319,"Ġinitialize":4320,"gumentParser":4321,"éŁ³":4322,"ALLOWED":4323,"-%":4324,"Attributes":4325,"Candidate":4326,"Pos":4327,"Render":4328,"Uti":4329,"\\<":4330,"bit":4331,"cast":4332,"ohn":4333,"rate":4334,"sdist":4335,"è·":4336,"Ġç":4337,"Ġent":4338,"Ġlower":4339,"orary":4340,"real":4341,"encryp":4342,"encrypted":4343,"Ġsign":4344,"Ġpas":4345,"Ġfernet":4346,"Ġinherit":4347,"ote":4348,"Ġ'&":4349,"Ġ(``":4350,"getattr":4351,"ĠPerson":4352,"ĠProtocol":4353,"idget":4354,"optim":4355,"Ġ14":4356,"()))<":4357,"ube":4358,"Ġascii":4359,"ists":4360,"ĠDjango":4361,"Ġexclude":4362,"appers":4363,"serve":4364,"ĠRun":4365,"ĠĠĠĠĠĠĠĠĠĠĠĠĠĠĠĠĠĠĠĠĠĠ":4366,"RECT":4367,"chats":4368,"address":4369,"tical":4370,"Ġ...<":4371,"NamedTuple":4372,"EXTR":4373,"EXPR":4374,"Ġesc":4375,"åĪĿ":4376,"Ġaccess":4377,"sysconfig":4378,"ĠQu":4379,"Loss":4380,"Loader":4381,"Ġautoend":4382,"playlist":4383,"ĠRequests":4384,"pires":4385,"ĠZeroOrMore":4386,"StyleType":4387,"Ġsegment":4388,"å®ļ":4389,"itespace":4390,"progress":4391,"close":4392,"Ġtkinter":4393,"ĠBuildEnvironment":4394,"Ġsimple":4395,"Ġsalma":4396,"Trackbar":4397,"Ġtrailing":4398,"mission":4399,"encrypt":4400,")]<":4401,"200":4402,"?\")<":4403,"BACK":4404,"DAT":4405,"Distutils":4406,"Def":4407,"UE":4408,"be":4409,"batch":4410,"cul":4411,"fmt":4412,"sort":4413,"æ³":4414,"çĲ":4415,"é¢":4416,"Ġbise":4417,"Ġinit":4418,"lambda":4419,"Ġ\"\\\\":4420,"exception":4421,"ĠTarget":4422,"Ġmon":4423,"Ġmusic":4424,"ending":4425,"ĠPin":4426,"Ġ15":4427,"child":4428,"combin":4429,"istic":4430,"ets":4431,"appengine":4432,"Ġpartic":4433,"lity":4434,"ĠWINDOWS":4435,"Ġpredict":4436,"ogle":4437,"Ġotherwise":4438,"1234":4439,"ĠDistutilsError":4440,"Ġsubclass":4441,"ĠMethod":4442,"Ġinstallation":4443,"TreeWalker":4444,"achine":4445,"åĪĨ":4446,"Ġcolorama":4447,"NAError":4448,"distributions":4449,"ĠResult":4450,"çĶŁ":4451,"unks":4452,"DeprecationWarning":4453,"æĪĲ":4454,"Ġoffset":4455,"itchen":4456,"å§ĭåĮĸ":4457,"amera":4458,"åĪĿå§ĭåĮĸ":4459,"Ġbisect":4460,"!')<":4461,"(\"\"":4462,"*)":4463,"33":4464,"Auth":4465,"Do":4466,"Default":4467,"Menu":4468,"Pre":4469,"SNI":4470,"[<":4471,"aj":4472,"card":4473,"callable":4474,"hen":4475,"plied":4476,"æģ":4477,"icit":4478,"iones":4479,"Ġ\"--":4480,"Ġmac":4481,"tropy":4482,"usr":4483,"ĠĠĠĠĠĠĠĠĠ":4484,"endenc":4485,"spose":4486,"spinner":4487,"connection":4488,"ĠMax":4489,"Ġtraceback":4490,"ĠEX":4491,"ONG":4492,"ĠUnpack":4493,"Ġmeasurement":4494,"compress":4495,"Ġpyproject":4496,"porter":4497,"Ġpred":4498,"Ġsupplied":4499,"ĠGroup":4500,"ustify":4501,"Entry":4502,"Entropy":4503,"aken":4504,"datetime":4505,"Ġupdate":4506,"Ġaddress":4507,"position":4508,"FILE":4509,"maxsize":4510,"Ġrelated":4511,"Ġ{\"$":4512,"ä»¥":4513,"Ġneeds":4514,"DIRECT":4515,"åŃĹ":4516,"lexer":4517,"rpm":4518,"Ġpyparsing":4519,"Header":4520,"æīĢ":4521,"reshold":4522,"Ġbehavior":4523,"MODULE":4524,"ë¡ľ":4525,"%(":4526,"300":4527,"63":4528,"FE":4529,"PH":4530,"ZE":4531,"du":4532,"fin":4533,"implement":4534,"lint":4535,"ox":4536,"åį":4537,"ê²":4538,"ĠERROR":4539,"Ġquot":4540,"Ġedge":4541,"Ħ°":4542,"łè½":4543,"inary":4544,"Ġissue":4545,"ats":4546,"pri":4547,"look":4548,"Ġtip":4549,"Ġwould":4550,"tid":4551,"Ġclean":4552,"ssboard":4553,"ameter":4554,"Ġthey":4555,"Ġmigrations":4556,"Ġmypy":4557,"Ġmultiple":4558,"Ġ'_":4559,"Ġ'\\\\":4560,"Ġrich":4561,"Ġtool":4562,"ĠĠĠĠĠĠĠĠĠĠĠĠĠ":4563,"Ġdownload":4564,"ĠPool":4565,"choice":4566,"Ġguild":4567,"ĠOther":4568,"SET":4569,"Ġparam":4570,"Ġparameter":4571,"valor":4572,"Ġprog":4573,"imal":4574,"Ġwhat":4575,"ĠVisual":4576,"forms":4577,"Ġpylint":4578,"ĠHel":4579,"ĠHow":4580,"Ġshipping":4581,"Ġcannot":4582,"PEP":4583,"ixed":4584,"ARD":4585,"ATE":4586,"TTING":4587,"Ġlength":4588,"curs":4589,"ĠPyQt":4590,"Ġassoci":4591,"support":4592,"Ġ\"\".":4593,"cluded":4594,"Ġmatrix":4595,"ĠThread":4596,"Ġdocutils":4597,"ĠStringIO":4598,"Ġcompatible":4599,"uffle":4600,"Ġcryptography":4601,"TooL":4602,"Ġpackaging":4603,"ĠTimeout":4604,"HASH":4605,"Ġvendored":4606,"Dataset":4607,"æĢģ":4608,"METHOD":4609,"Ġpassed":4610,"łè½½":4611,"74":4612,"Bar":4613,"CII":4614,"Det":4615,"MAN":4616,"]]:<":4617,"basic":4618,"hand":4619,"lers":4620,"lang":4621,"mod":4622,"multipart":4623,"ps":4624,"pep":4625,"ranch":4626,"ĠYukki":4627,"initi":4628,"inery":4629,"ality":4630,"Ġca":4631,"med":4632,"Ġpage":4633,"andidates":4634,"Ġfree":4635,"Ġflags":4636,"Ġrec":4637,"Ġreport":4638,"active":4639,"Ġinside":4640,"Ġ\"/":4641,"Ġ\"[":4642,"ĠTest":4643,"athroom":4644,"ĠAN":4645,"ĠAuth":4646,"ubyte":4647,"Ġthings":4648,"ĠFlask":4649,"Ġhow":4650,"assert":4651,"ĠEle":4652,"Ġwhole":4653,"ĠĠĠĠĠĠĠĠĠĠĠĠĠĠĠĠĠĠ":4654,"comple":4655,"Ġshort":4656,"Ġpresent":4657,"iterion":4658,"Ġadapter":4659,"irt":4660,"UTF":4661,"encodings":4662,"OTP":4663,"ASCII":4664,"Ġattributes":4665,"achinery":4666,"[:,":4667,"åĪĹ":4668,"Ġdatabase":4669,"ĠEngine":4670,"delta":4671,"Ġverbose":4672,"ĠProxy":4673,"æ¨¡åŀĭ":4674,"Ġconsider":4675,"ĠInstallationError":4676,"ĠTempDirectory":4677,"ecurity":4678,"ĠAttributeError":4679,"Ġetc":4680,"''":4681,"Brand":4682,"CCompiler":4683,"DJ":4684,"HO":4685,"Module":4686,"Package":4687,"Source":4688,"]),":4689,"df":4690,"gz":4691,"hot":4692,"mote":4693,"|\\":4694,"}\"":4695,"éĺ":4696,"Ġide":4697,"losed":4698,"Ġsyntax":4699,"__()<":4700,"ics":4701,"Ġown":4702,"Ġnow":4703,"lis":4704,"ada":4705,"ipad":4706,"Ġisn":4707,"ĠCheck":4708,"ĠCandidate":4709,"Ġdur":4710,"Ġvirt":4711,"aged":4712,"ĠLog":4713,"('-":4714,"istlib":4715,"vehicleManufacturerSpecificConditionsNotCorrectF":4716,"ataque":4717,"Ġnote":4718,"pathlib":4719,"Ġorder":4720,"queue":4721,"ĠMultip":4722,"SETTING":4723,"Ġeh":4724,"vendored":4725,"ĠĠĠĠĠĠĠĠĠĠĠĠĠĠĠĠĠĠĠĠĠĠĠĠĠĠĠ":4726,"Ġchannel":4727,"attribute":4728,"Ġitself":4729,"Ġhashes":4730,"aking":4731,"wrappers":4732,"CODE":4733,"clar":4734,"mono":4735,"ĠDistutilsExec":4736,"ighb":4737,"ìĿĦ":4738,"Ġbackground":4739,"åıĸ":4740,"ĠHTTPError":4741,"HTM":4742,"ĠFileNotFoundError":4743,"Ġë°":4744,"Ġstatic":4745,"Ġexisting":4746,"BOM":4747,"Ġmayor":4748,"blue":4749,"THON":4750,"MAX":4751,"ĠTOML":4752,"ĠNewType":4753,"ĠConfiguration":4754,"Content":4755,"Ġexecutable":4756,"Ġpoints":4757,"================":4758,"resolve":4759,"ĠPyPIRCCommand":4760,"¯å¾Ħ":4761,"sendbt":4762,"temperaturaUs":4763,"ANGO":4764,"éĩı":4765,"endswith":4766,"gorithm":4767,"ĠVehicleManufacturerSpecificConditionsNotCorrectF":4768,"|~|--|~|--":4769,"è·¯å¾Ħ":4770,"çĲĨ":4771,"DJANGO":4772,"istlibException":4773,"ĠMultiplo":4774,"SETTINGS":4775,"ĠDistutilsExecError":4776,"sendbtn":4777,"75":4778,"GS":4779,"My":4780,"MIN":4781,"Pins":4782,"System":4783,"Up":4784,"WR":4785,"cooki":4786,"hook":4787,"mk":4788,"qd":4789,"sleep":4790,"tar":4791,"tension":4792,"³»":4793,"¾ç":4794,"çŁ":4795,"ĠError":4796,"Ġhead":4797,"separ":4798,"section":4799,"Ġcorrect":4800,"ank":4801,"Ġinstan":4802,"dified":4803,"olver":4804,"ipFile":4805,"ĠĠĠĠĠĠĠĠĠĠĠĠ":4806,"span":4807,"Ġsecret":4808,"Ġgre":4809,"Ġdec":4810,"ĠMA":4811,"Ġest":4812,"INT":4813,"ĠRead":4814,"Ġmeta":4815,"ĠHas":4816,"Ġprim":4817,"wrapper":4818,"Stack":4819,"Ġchecking":4820,"curity":4821,"arkers":4822,"entries":4823,"clients":4824,"UDSScanner":4825,"Ġinternal":4826,"'].":4827,"åı£":4828,"Ġoverride":4829,"Ġregular":4830,"Interview":4831,"ä¹Ĳ":4832,"æĺ¯":4833,"ĠPlatformDirs":4834,"è¡¨":4835,"åŃ¦çĶŁ":4836,"éŁ³ä¹Ĳ":4837,")\")<":4838,"CR":4839,"MP":4840,"Rec":4841,"Range":4842,"SY":4843,"XX":4844,"bright":4845,"clear":4846,"ee":4847,"hing":4848,"walk":4849,"xies":4850,"½æķ°":4851,"å°":4852,"Ġutils":4853,"Ġframe":4854,"Ġecu":4855,"İ·":4856,"ression":4857,"atlib":4858,"Ġtur":4859,"Ġwalk":4860,"less":4861,"Ġaio":4862,"align":4863,"Ġcor":4864,"Ġcatch":4865,"Ġbg":4866,"Ġbrand":4867,"unicode":4868,"Ġmy":4869,"upper":4870,"ĠCel":4871,"ĠSup":4872,"aping":4873,"Ġdown":4874,"igger":4875,"Ġstrip":4876,"Ġ2000":4877,"Reader":4878,"ĠFilter":4879,"ĠOP":4880,"agent":4881,"Ġpartial":4882,"indent":4883,"REPO":4884,"REDIRECT":4885,"loader":4886,"stant":4887,"Ġpreprocess":4888,"SIZE":4889,"UTO":4890,"Ġfilesystem":4891,"authuser":4892,"month":4893,"Ġformats":4894,"ĠDictCache":4895,"reqs":4896,"Channel":4897,"asto":4898,"ookup":4899,"Ġknow":4900,"Ġgenerated":4901,"Ġcolors":4902,"network":4903,"Ġhttplib":4904,"Ġskip":4905,"chars":4906,"Activ":4907,"Ġsessions":4908,"ILD":4909,"Ġreference":4910,"Ġmsgpack":4911,"Users":4912,"SUPPORT":4913,"Ġneeded":4914,"ëĭ¤":4915,"ä¿¡":4916,"Ġdocumentation":4917,"åĩ½æķ°":4918,"ĠPackageFinder":4919,"ĠContent":4920,"ĠInfinityType":4921,"Ġìŀħëł¥íķĺì":4922,"#!/":4923,"atisfied":4924,"Ġflag":4925,"Ġexplicit":4926,"\"^":4927,"Fil":4928,"Format":4929,"Total":4930,"Temp":4931,"Widget":4932,"aint":4933,"bine":4934,"block":4935,"ea":4936,"gre":4937,"more":4938,"mask":4939,"nist":4940,"qs":4941,"relu":4942,"£°":4943,"å£°":4944,"ç¨":4945,"ormp":4946,"stand":4947,"(\"-":4948,"Ġsdist":4949,"tify":4950,"itting":4951,"Ġrepr":4952,"ically":4953,"exc":4954,"ecure":4955,"uess":4956,"Ġforward":4957,"ĠSub":4958,"Ġdry":4959,"Ġdictionary":4960,"ĠLocation":4961,"Ġ1000":4962,"Ġstructure":4963,"ateTime":4964,"Ġthrough":4965,"Ġ26":4966,"-------":4967,"Ġlicense":4968,"Ġlru":4969,"ĠBinary":4970,"Int":4971,"ĠVS":4972,"ONE":4973,"lying":4974,"Ġ``<":4975,"bold":4976,"dato":4977,"Ġlogic":4978,"Ġsaved":4979,"sentence":4980,"Triplet":4981,"Listener":4982,"Ġcontextmanager":4983,"archive":4984,"Ġdataclasses":4985,"Ġrepresents":4986,"Ġrelative":4987,"gestion":4988,"COLOR":4989,"CHAR":4990,"Ġboth":4991,"åĽ¾å":4992,"ĠParseException":4993,"Ġnormalize":4994,"ropout":4995,"ĠColorTriplet":4996,"CRET":4997,"ĭľì":4998,"Ġseconds":4999,"Ġallows":5000,"7894":5001,"rossEntropy":5002,"structures":5003,"æīĢæľī":5004,"çŁ©":5005,"Filename":5006,"ormpath":5007,"711":5008,"=\"\"":5009,">.":5010,"AP":5011,"APP":5012,"CL":5013,"CAN":5014,"Callable":5015,"High":5016,"JECT":5017,"Ne":5018,"Qu":5019,"Segment":5020,"SGI":5021,"dt":5022,"machinery":5023,"ply":5024,"ttp":5025,"used":5026,"ºæ":5027,"å»":5028,"æŀ":5029,"ê°":5030,"Ġ),<":5031,"Ġextension":5032,"installed":5033,"ond":5034,"reset":5035,"intain":5036,"alame":5037,"Ġsudoers":5038,"Ġcp":5039,"Ġpossible":5040,"geome":5041,"Ġnormalized":5042,"Ġ\"âĸ":5043,"example":5044,"lish":5045,"Ġmost":5046,"Ġmachine":5047,"Ġ''":5048,"Ġ'--":5049,"termin":5050,"getcwd":5051,"ĠCase":5052,"ĠPO":5053,"convert":5054,"Ġexposes":5055,"ĠMet":5056,"ĠBack":5057,"verse":5058,"indll":5059,"Insensitive":5060,"Ġenvironment":5061,"ĠIndex":5062,"pyproject":5063,"formats":5064,"ĠWARNING":5065,"attributes":5066,"ANUM":5067,"addr":5068,"End":5069,"objects":5070,"Ġrequested":5071,"clus":5072,"Codec":5073,"arial":5074,"ĠJohn":5075,"FIG":5076,"Ġids":5077,"Ġidna":5078,"âĸĪâĸĪâĸĪâĸĪ":5079,"Ġmatching":5080,"Ġsupports":5081,"ĠSpecifierSet":5082,"ĠSocket":5083,"Ġwebencodings":5084,"jpeg":5085,"anchor":5086,"memory":5087,"5678":5088,"æį¢":5089,"ĠKeyError":5090,"Ġchardet":5091,"è¾ĵ":5092,"Ġunittest":5093,"CURITY":5094,"ĠNumber":5095,"REQUIREMENT":5096,"BRACKET":5097,"ĠSECURITY":5098,"PAREN":5099,"entication":5100,"ĠspaceCharacters":5101,"PROJECT":5102,"Ġboundary":5103,"EXTRAS":5104,"æģ¯":5105,"PHANUM":5106,"Ġtipo":5107,"Ġprogress":5108,"TooLow":5109,"CHARS":5110,"ĠCaseInsensitive":5111,"ĠCaseInsensitiveDict":5112,"'ll":5113,")\"<":5114,")}\")<":5115,"-.":5116,"600":5117,"ARE":5118,"AUTO":5119,"Dan":5120,"Factory":5121,"NormalizedName":5122,"OpenSSL":5123,"SCHEME":5124,"Win":5125,"]}')<":5126,"bum":5127,"coder":5128,"gen":5129,"gain":5130,"green":5131,"ken":5132,"qat":5133,"sudo":5134,"satisfied":5135,"tch":5136,"vision":5137,"vider":5138,"zA":5139,"}{":5140,"±¡":5141,"è±¡":5142,"Īëĭ¤":5143,"els":5144,"intypes":5145,"atio":5146,"Ġtoml":5147,"omatic":5148,"(\"/":5149,"Ġscene":5150,"hell":5151,"Ġpatch":5152,"ancy":5153,"Ġfinal":5154,"Ġfail":5155,"itten":5156,"Ġret":5157,"Ġreal":5158,"utos":5159,"disc":5160,"lify":5161,"strain":5162,"###":5163,"Ġform":5164,"Ġtop":5165,"getter":5166,"asc":5167,"Ġsep":5168,"Reporter":5169,"Ġhor":5170,"``).<":5171,"ĠUTF":5172,"Ġly":5173,"ĠMusic":5174,"Ġevery":5175,"arned":5176,"ĠWr":5177,"ixpath":5178,"bound":5179,"Ġletra":5180,"Ġuseful":5181,"Ġuserbot":5182,"template":5183,"tesIO":5184,"ĠCallableOperator":5185,"redo":5186,"ĠHTTPS":5187,"ĠĠĠĠĠĠĠĠĠĠĠĠĠĠĠĠĠĠĠĠĠĠĠĠĠĠĠĠĠĠĠĠĠĠĠĠ":5188,"Returns":5189,"percent":5190,"Ġposixpath":5191,"Load":5192,"ĠThu":5193,"Ġcontents":5194,"Ġregister":5195,"NODE":5196,"PYTHON":5197,"(?:":5198,"returns":5199,"åĲį":5200,"Ġcmdoptions":5201,"transports":5202,"Ġvariables":5203,"ëĭĪëĭ¤":5204,"æİ¥":5205,"ĠRaises":5206,"ĠTreeWalker":5207,"threadChannel":5208,"WHITE":5209,"qdm":5210,"tcha":5211,"threadChannelId":5212,"\"}<":5213,"([\"":5214,")[":5215,"/',":5216,"=(":5217,"Import":5218,"ISE":5219,"Legacy":5220,"SS":5221,"SOR":5222,"Table":5223,"dated":5224,"fp":5225,"lbl":5226,"nost":5227,"normpath":5228,"pur":5229,"year":5230,"æµĭ":5231,"Ġ:<":5232,"Ĭ¶":5233,"ored":5234,"alman":5235,"Ġsm":5236,"Ġsort":5237,"Ġsent":5238,"meta":5239,"Ġmight":5240,"terminal":5241,"ĠĠĠĠĠĠĠĠĠĠĠĠĠĠĠĠĠĠĠĠĠĠĠ":5242,"aming":5243,"idual":5244,"roff":5245,"socket":5246,"pred":5247,"oku":5248,"Ġpydan":5249,"pygame":5250,"Ġ``'":5251,"Ġsha":5252,"Ġshape":5253,"shortcut":5254,"TypeVar":5255,"Ġabstractmethod":5256,"Ġpreserve":5257,"msv":5258,"Ġcompute":5259,"LETE":5260,"cachecontrol":5261,"Ġplace":5262,"pypy":5263,"Ġspecify":5264,"numero":5265,"Ġtests":5266,"LOAD":5267,"ĠInvalidRequirement":5268,"Ġterminal":5269,"contextlib":5270,"Sequence":5271,"Ġconverted":5272,"))?":5273,"Lock":5274,"timer":5275,"Decoder":5276,"ç»Ł":5277,"dividual":5278,"OPEN":5279,"Ġappro":5280,"Ġapplication":5281,"Ġclients":5282,"disable":5283,"Ġgenshi":5284,"ĠInlineKeyboardMarkup":5285,"Documents":5286,"Ġautomatic":5287,"Ġpositivo":5288,"ĠANSI":5289,"ĠElementTree":5290,"InterviewScene":5291,"Ġpydantic":5292,")(\"":5293,"=[":5294,"Abstract":5295,"CB":5296,"GR":5297,"Lay":5298,"Security":5299,"TION":5300,"Val":5301,"]):<":5302,"cc":5303,"do":5304,"long":5305,"neg":5306,"releases":5307,"sy":5308,"uc":5309,"vid":5310,"windows":5311,"yel":5312,"yam":5313,"¯ı":5314,"°ìĿ´í":5315,"ç®":5316,"Ġedit":5317,"ĠâĶ":5318,"į°ìĿ´í":5319,"erate":5320,"eros":5321,"onent":5322,"Ġwell":5323,"Ġwalker":5324,"lements":5325,"Ġax":5326,"Ġcsv":5327,"arp":5328,"Ġpot":5329,"Ġredirect":5330,"uristic":5331,"ssian":5332,"live":5333,"Ġ'\\":5334,"ĠCode":5335,"ĠPadding":5336,"Ġvario":5337,"Ġdisc":5338,"Ġsequence":5339,"prompt":5340,"teger":5341,"Ġlater":5342,"ights":5343,"setter":5344,"Input":5345,"outube":5346,"timeout":5347,"REAM":5348,"ours":5349,"mount":5350,"Ġcolumn":5351,"udent":5352,"LElements":5353,"minimum":5354,"siyam":5355,"defaults":5356,"Ġinstalling":5357,"'],<":5358,"counter":5359,"TreeBuilder":5360,"finder":5361,"aussian":5362,"OFF":5363,"Ġdataset":5364,"Ġmatches":5365,"netbox":5366,"509":5367,"colors":5368,"Ġëį°ìĿ´í":5369,"From":5370,"letters":5371,"Ġindicate":5372,"Ġnamedtuple":5373,"Nodes":5374,"ISOTP":5375,"ĠAdmin":5376,"Ġgroups":5377,"rpc":5378,"ĠTraceback":5379,"PlatformError":5380,"HEADERS":5381,"#############################":5382,"ĠRoomScene":5383,"IFY":5384,"alias":5385,"ìĪĺ":5386,"Ġassociated":5387,"HTMLElements":5388,"iggered":5389,"ä¿¡æģ¯":5390,"å»º":5391,"geometry":5392,"yellow":5393,"Ġvarious":5394,"siyamak":5395,"Ġëį°ìĿ´íĦ°":5396,"\"],":5397,")]":5398,":-":5399,"Cla":5400,"Marker":5401,"Out":5402,"You":5403,"]}":5404,"edia":5405,"false":5406,"got":5407,"here":5408,"home":5409,"mnist":5410,"optional":5411,"pic":5412,"pac":5413,"pap":5414,"sax":5415,"tmp":5416,"uint":5417,"va":5418,"wi":5419,"}({":5420,"ªå£°":5421,"Ġ64":5422,"įç½®":5423,"ĺ¤":5424,"ention":5425,"Ġtqdm":5426,"altura":5427,"Ġsimilar":5428,"heit":5429,"heap":5430,"metic":5431,"Ġperson":5432,"Ġpush":5433,"itmetic":5434,"__).":5435,"Ġbatch":5436,"dim":5437,"extract":5438,"straint":5439,"ĠTo":5440,"ech":5441,"Ġmanager":5442,"Ġ'{}":5443,"ĠSplit":5444,"asets":5445,"ĠAlign":5446,"ĠLIGHT":5447,"Ġconstants":5448,"Ġexpires":5449,"Ġlines":5450,"Ġ{}\".":5451,"SECRET":5452,"verflow":5453,"verything":5454,"preprocess":5455,"ĠECU":5456,"Ġaritmetic":5457,"Ġabs":5458,"SIT":5459,"boot":5460,"Ġadmin":5461,"dataclass":5462,"DOCU":5463,"Ġnewer":5464,"Ġargument":5465,"words":5466,"Ġattrs":5467,"ĠUDSResponse":5468,"penlog":5469,"ĠURI":5470,"Proxy":5471,"Ġdefining":5472,"Ġë³":5473,"global":5474,"erties":5475,"Ġschemes":5476,"Ġdirectly":5477,"åĲİ":5478,"Ġê°":5479,"managed":5480,"Ġnormal":5481,"ĠBytesIO":5482,"æį®":5483,"Iterable":5484,"www":5485,"temperaturaF":5486,"Ġoperations":5487,"toklist":5488,"åĻªå£°":5489,"å½¢":5490,"ĠLayer":5491,"Level":5492,"Ġìŀħëł¥íķĺìĭľì":5493,"Ġaritmeticas":5494,"DOCUMENT":5495,"Ġìŀħëł¥íķĺìĭľìĺ¤":5496,"\"]:<":5497,"05":5498,">=":5499,"At":5500,"BE":5501,"By":5502,"EW":5503,"KOF":5504,"Map":5505,"NS":5506,"VAR":5507,"gits":5508,"ief":5509,"nts":5510,"qrt":5511,"ra":5512,"tom":5513,"}%":5514,"è§":5515,"ìĦ":5516,"Ġetree":5517,"ĥı":5518,"ony":5519,"lopen":5520,"alic":5521,"Ġpost":5522,"Ġrecurs":5523,"urlopen":5524,"Ġolder":5525,"Ġ'-":5526,"Ġdefine":5527,"Ġanything":5528,"ĠSh":5529,"ĠSNI":5530,"spawn":5531,"Ġday":5532,"ĠLicensed":5533,"uble":5534,"('\\\\":5535,"0063":5536,"etags":5537,"Ġgive":5538,"ĠDI":5539,"ĠFr":5540,"Ġ_,":5541,"Ġdescr":5542,"Ġdetermine":5543,"sets":5544,"ĠRelu":5545,"Index":5546,"imshow":5547,"timestamp":5548,"Ġuna":5549,"Ġchain":5550,"Ġprevent":5551,"ynony":5552,"pper":5553,"STY":5554,"requested":5555,"Ġleft":5556,"ĠJon":5557,"ĠTextType":5558,"Ġserialize":5559,"Ġcomment":5560,"Ġrelief":5561,"BUILD":5562,"Ġfunctionality":5563,"Ġlinks":5564,"Ġtuples":5565,"UNK":5566,"Add":5567,"Ġperform":5568,"odern":5569,"RAISE":5570,"Ġauthority":5571,"ĠKeyword":5572,"è¯·":5573,"çĽ¸":5574,"Ġpatterns":5575,"Ġrooms":5576,"Ġcells":5577,"ĠModules":5578,"USIC":5579,"Contains":5580,"elegram":5581,"Ġparticular":5582,"Ġconsidered":5583,"Ġduring":5584,"³»ç»Ł":5585,"ttpResponse":5586,"ĠMetadata":5587,"clusion":5588,"RAISED":5589,"'],":5590,".,":5591,"45":5592,"88":5593,"93":5594,":/":5595,"Back":5596,"Create":5597,"IVE":5598,"JSON":5599,"Num":5600,"Queue":5601,"Rights":5602,"Span":5603,"Warned":5604,"]')<":5605,"aded":5606,"buffer":5607,"ca":5608,"don":5609,"ks":5610,"mime":5611,"maior":5612,"oost":5613,"pool":5614,"pare":5615,"pFormatter":5616,"tot":5617,"vcs":5618,"xx":5619,"åģ":5620,"ë¦":5621,"inay":5622,"ertion":5623,"retry":5624,"omes":5625,"omain":5626,"Ġwrong":5627,"Ġactions":5628,"Ġagreement":5629,"Ġps":5630,"Ġpat":5631,"anel":5632,"__('":5633,"icon":5634,"Ġnao":5635,"extras":5636,"ece":5637,"Ġmask":5638,"Ġmaking":5639,"Ġraw":5640,"triggered":5641,"Ġanother":5642,"ĠColumn":5643,"ĠSte":5644,"ĠSaj":5645,"apsed":5646,"ĠPIL":5647,"andbox":5648,"Ġ.-.":5649,"Ġ24":5650,"ĠDat":5651,"ĠUser":5652,"Ġdecoding":5653,"ĠMIME":5654,"ĠBNC":5655,"setParse":5656,"Ġstarts":5657,"interview":5658,"INTER":5659,"ĠRepr":5660,"ĠVinay":5661,"ONFIG":5662,"ICE":5663,"plac":5664,"ĠHttpResponse":5665,"REEN":5666,"should":5667,"Ġabi":5668,"Ġabstract":5669,"Ġ`-":5670,"ĠGame":5671,"Ġnumbers":5672,"which":5673,"URATION":5674,"Ġlet":5675,"scraping":5676,"ĠDistutilsPlatformError":5677,"Unknown":5678,"methods":5679,"ĠNameError":5680,"ï¼ļ":5681,"']['":5682,"running":5683,"IDENTIFIER":5684,"anned":5685,"Ġå®":5686,"Implementation":5687,"ANDARD":5688,"Ġfragment":5689,"Ġcurrently":5690,"ElementTree":5691,"Ġlocale":5692,"groups":5693,"SCONFIG":5694,"ĠParseResults":5695,"TooHigh":5696,"ĠAdditional":5697,"Ġenumerate":5698,"TLSv":5699,"ABCMeta":5700,"ĠPreprocessor":5701,"ĠDirect":5702,"POINT":5703,"~~~~~~~~~~~~~~~<":5704,"999":5705,"Ġ255":5706,"cells":5707,"BGM":5708,"åĻ¨":5709,"å¯¹":5710,"completeRead":5711,"Ġcontributor":5712,"HelpFormatter":5713,"Ġadjust":5714,"Ġgnui":5715,"ĠTargetURI":5716,"ê²©":5717,"ssboardSize":5718,"Ġvirtualenv":5719,"SYSCONFIG":5720,"Ġcpf":5721,"è¾ĵåħ¥":5722,"Ĭ¶æĢģ":5723,"ĠSajip":5724,"setParseAction":5725,"19":5726,"48":5727,"440":5728,"BER":5729,"BLO":5730,"Called":5731,"Column":5732,"Event":5733,"Final":5734,"Literal":5735,"OS":5736,"TOK":5737,"Wait":5738,"available":5739,"dent":5740,"ming":5741,"oun":5742,"},<":5743,"´ë":5744,"ĴĮ":5745,"ince":5746,"ination":5747,"Ġtakes":5748,"Ġwindows":5749,"Ġagain":5750,"(\"_":5751,"alDat":5752,"Ġscanner":5753,"Ġcop":5754,"ants":5755,"__':<":5756,"uralDat":5757,"utc":5758,"exclude":5759,"Ġmod":5760,"iple":5761,"Ġtoo":5762,"usage":5763,"ĠPet":5764,"identifier":5765,"ĠLibrary":5766,"named":5767,"conn":5768,"Ġconv":5769,"comm":5770,"program":5771,"roid":5772,"Ġhapp":5773,"Ġhome":5774,"://\",":5775,"agnost":5776,"Ġdeprecation":5777,"ĠMatch":5778,"scape":5779,"ĠRTF":5780,"imread":5781,"ĠExt":5782,"ĠĠĠĠĠĠĠĠĠĠĠĠĠĠĠĠĠĠĠĠĠ":5783,"Resolver":5784,"Engine":5785,"Encoder":5786,"uptoolsDeprecationWarning":5787,"125":5788,"Codepoint":5789,"Ġspan":5790,"SSLContext":5791,"Setup":5792,"Ġunicodedata":5793,"entially":5794,"Ġdirname":5795,"Ġtreebuilder":5796,"Search":5797,"features":5798,"mbol":5799,"ĠThere":5800,"ailroad":5801,"Ġèİ·":5802,"Ġcallback":5803,"Ġ~~~~~~~~~~~~~~~~~~~~~~~~":5804,"åŃĺ":5805,"ConnectionPool":5806,"contains":5807,"äºİ":5808,"ĠAdd":5809,"Ġbuiltin":5810,"Ġcalls":5811,"Ġcalcul":5812,"Ġprograma":5813,"Ġblacklist":5814,"Wrapper":5815,"translate":5816,"Ġaccepted":5817,"Ġoccurred":5818,"BLACK":5819,"Details":5820,"Ġidea":5821,"lished":5822,"Clause":5823,"BLOCK":5824,"TOKEN":5825,"uralDatset":5826,"agnostic":5827,"AGE":5828,"CLI":5829,"Icon":5830,"Mode":5831,"Norm":5832,"Optional":5833,"SH":5834,"VAL":5835,"We":5836,"\\\"":5837,"]:":5838,"bon":5839,"ireq":5840,"markup":5841,"non":5842,"pad":5843,"padding":5844,"public":5845,"rl":5846,"raise":5847,"xception":5848,"¬´":5849,"¶ľ":5850,"ê·":5851,"ë¬´":5852,"ĤĺìĿ´":5853,"rection":5854,"Ġtied":5855,"Ġast":5856,"Ġaround":5857,"Ġcert":5858,"ars":5859,"meth":5860,"Ġpts":5861,"acc":5862,"aciones":5863,"Ġincluded":5864,"dispose":5865,"laz":5866,"strap":5867,"ĠTask":5868,"Ġmor":5869,"added":5870,"isdir":5871,"Ġdst":5872,"ĠLabel":5873,"Ġdigit":5874,"ublished":5875,"Ġsection":5876,"Ġconversion":5877,"login":5878,"ationsh":5879,"istent":5880,"matches":5881,"``)<":5882,"ĠUti":5883,"ĠBar":5884,"Ġstep":5885,"four":5886,"oked":5887,"Ġenc":5888,"Ġunsu":5889,"Ġpyt":5890,"Ġ``/":5891,"REC":5892,"loads":5893,"Ġchunk":5894,"Ġartic":5895,"HEEL":5896,"Ġprot":5897,"ĠConnection":5898,"Example":5899,"ensor":5900,"configuration":5901,"Ġrunner":5902,"Ġalgorithm":5903,"based":5904,"Ġapply":5905,"Ġzlib":5906,"Param":5907,"Unpack":5908,"Ġspawn":5909,"Ġì¶ľ":5910,"ĠXXX":5911,"hashes":5912,"Ġgeneric":5913,"resultado":5914,"Ġserializer":5915,"helpers":5916,"compatibility":5917,"ĠåĽ":5918,"Provider":5919,"Ġregalame":5920,"nectTimeoutError":5921,"Ġ~~~~~~~~~~~~~~~~~~~~":5922,"Element":5923,"Ġlanguages":5924,"Ġhandles":5925,"ConnectionError":5926,"ParseError":5927,"Ġunpacked":5928,"patterns":5929,"adores":5930,"PREFIX":5931,"ĠRegister":5932,"è½¬":5933,"recogn":5934,"åĬłè½½":5935,"ĠNoReturn":5936,"Ġseparator":5937,"makedirs":5938,"Ġmkpath":5939,"CharField":5940,"Ġtarfile":5941,"ĠCacheControlAdapter":5942,"ĠNegativeInfinityType":5943,"ORMAT":5944,"DistutilsError":5945,"Ġpredicted":5946,"ĠmacOS":5947,"Widgets":5948,"Query":5949,"ĠMusicHandle":5950,"purelib":5951,"OPENSSL":5952,"ynonyms":5953,"CLIENT":5954,"ationship":5955,"Ġunsuitable":5956,"Ġì¶ľëł¥":5957,"(**":5958,",)<":5959,"=%":5960,"Custom":5961,"Fe":5962,"Form":5963,"LEN":5964,"PU":5965,"Pip":5966,"SK":5967,"`.":5968,"alet":5969,"bu":5970,"brand":5971,"download":5972,"full":5973,"ja":5974,"pause":5975,"random":5976,"venv":5977,"»¤":5978,"å·":5979,"æ»¤":5980,"īį":5981,"eric":5982,"redirect":5983,"Ġimplements":5984,"Ġwild":5985,"seq":5986,"security":5987,"Ġcare":5988,"aries":5989,"Ġref":5990,"Ġreset":5991,"Ġnn":5992,"extra":5993,"Ġmime":5994,"that":5995,"ish":5996,"iso":5997,"Ġdone":5998,"ĠAl":5999,"asename":6000,"Ġdim":6001,"Ġ13":6002,"chunks":6003,"roken":6004,"ilers":6005,"etch":6006,"Ġ\"\"\":":6007,"Ġlxml":6008,"Ġdesi":6009,"ĠMARKER":6010,"ĠMarker":6011,"osx":6012,"screen":6013,"Ġeverything":6014,"Incremental":6015,"inputs":6016,"ĠVide":6017,"timeError":6018,"Ġenable":6019,"ĠIncremental":6020,"ĠHe":6021,"Ġcompile":6022,"ĠstringStart":6023,"ĠstringEnd":6024,"specifier":6025,"spaceCharacters":6026,"monto":6027,"Ġcounter":6028,"ENTR":6029,"Ġupper":6030,"Ġupsert":6031,"Ġtempdir":6032,"Ġbuilding":6033,"Unicode":6034,"FileError":6035,"åı·":6036,"TextFor":6037,"Based":6038,"single":6039,"Ġgenerates":6040,"Ġmaintain":6041,"CommandError":6042,"gistry":6043,"Ġrelationship":6044,"And":6045,"Ġdelay":6046,"âĢĶ":6047,"COMMA":6048,"ĠYour":6049,"gbanned":6050,"Installation":6051,"offee":6052,"Ġimages":6053,"ĠOrderedSet":6054,"ĠDeprecationWarning":6055,"ĠoriginalTextFor":6056,"Ġactually":6057,"Ġmodified":6058,"Ġfinalize":6059,"mediaLibraryManager":6060,"ĠIDNAError":6061,"general":6062,"ĠSTANDARD":6063,"ĠParser":6064,"Ġoperation":6065,"Ġ508":6066,"ĠClassNotFound":6067,"Ġ------------------------------------------------":6068,"Ġmanage":6069,"ĠComment":6070,"ĠCombine":6071,"ĠPipSession":6072,"ĠUDSRequestConfig":6073,"bzr":6074,"kipedia":6075,"patched":6076,"chrome":6077,"Ġstdout":6078,"DOWNLOAD":6079,"ĠProtocolError":6080,"TrackbarPos":6081,"DATA":6082,"implementation":6083,"MANY":6084,"éĺµ":6085,"ighbors":6086,"separated":6087,"Ġaiohttp":6088,"Ġexplicitly":6089,"çŁ©éĺµ":6090,"Ġappropri":6091,"Ġaxis":6092,"!\")<":6093,"\"),":6094,"'])<":6095,"'):":6096,"09":6097,"=(\"":6098,"Ap":6099,"As":6100,"AUTH":6101,"Ctrl":6102,"Candidates":6103,"DURATION":6104,"El":6105,"FC":6106,"La":6107,"LINE":6108,"Lookup":6109,"Match":6110,"Mutable":6111,"NN":6112,"Open":6113,"Page":6114,"Pred":6115,"QQ":6116,"SAN":6117,"Vision":6118,"ftime":6119,"highlighter":6120,"idi":6121,"lin":6122,"nx":6123,"none":6124,"raph":6125,"sur":6126,"sudoers":6127,"sqrt":6128,"tx":6129,"tam":6130,"vol":6131,"window":6132,"zeros":6133,"¾ç½®":6134,"å¹":6135,"åīį":6136,"Ġíķ":6137,"election":6138,"rees":6139,"reating":6140,"ativ":6141,"Ġtaken":6142,"ley":6143,"(\"%":6144,"Ġsur":6145,"Ġsure":6146,"Ġpad":6147,"Ġfl":6148,"Ġfeed":6149,"Ġrepe":6150,"Ġinp":6151,"lik":6152,">#################################":6153,"strftime":6154,"ĠTyp":6155,"ĠTri":6156,"unication":6157,"Ġdefines":6158,"ĠNAME":6159,"ĠCH":6160,"ĠSap":6161,"ĠSim":6162,"ĠSource":6163,"isfile":6164,"isinstance":6165,"athan":6166,"Ġvence":6167,"()]<":6168,"character":6169,"Ġask":6170,"Represent":6171,"Ġgets":6172,"apps":6173,"ĠUD":6174,"Ġdevelopment":6175,"ĠMarkup":6176,"ĠBl":6177,"ictVersion":6178,"Ġprovide":6179,"Ġenti":6180,"platlib":6181,"ĠHart":6182,"Ġjob":6183,"chema":6184,"Ġcompress":6185,"Ġtimedelta":6186,"enerMatrix":6187,"minuto":6188,"iteritems":6189,"STREAM":6190,"URIT":6191,"velib":6192,"Ġdefaultdict":6193,"tices":6194,"tests":6195,"Ġtemporary":6196,"messages":6197,"Ġinterpre":6198,"Ġìł":6199,"ĠTextIO":6200,"TRA":6201,"ĠApplication":6202,"Ġplatforms":6203,"ĠSetuptoolsDeprecationWarning":6204,"asyncio":6205,"Ġmajor":6206,"CTURIT":6207,"Ġlabeler":6208,"netloc":6209,"DIST":6210,"Ġfront":6211,"Ansi":6212,"ressed":6213,"player":6214,"insensitive":6215,"rowser":6216,"boseLogger":6217,"Ġdependency":6218,"Service":6219,"resolvelib":6220,"Comment":6221,"Common":6222,"Ġevict":6223,"ĠAbstractDistribution":6224,"ategory":6225,"ĠDecision":6226,"åº¦":6227,"Ġproblem":6228,"93654":6229,"Utilities":6230,"completed":6231,"ĠHashes":6232,"ListenerPins":6233,"ĠJonathan":6234,"Ġdesired":6235,"SANCTURIT":6236,"ĠTrie":6237,"ĠSapin":6238,"ĠSimon":6239,"Ġvenceu":6240,"ĠHartley":6241,")}":6242,")\"),<":6243,"*\\":6244,"1000":6245,"21":6246,"500":6247,"760":6248,";',<":6249,">\".":6250,">~~~~~~~~~~~~~~~~":6251,"All":6252,"Core":6253,"DL":6254,"EM":6255,"Escape":6256,"NB":6257,"Point":6258,"Scheme":6259,"Vec":6260,"`,":6261,"browser":6262,"cat":6263,"col":6264,"clean":6265,"custom":6266,"gzip":6267,"ived":6268,"mio":6269,"mutable":6270,"ove":6271,"tup":6272,"ttype":6273,"}/{":6274,"¤º":6275,"¦Ĥ":6276,"§åĪ":6277,"ªĹ":6278,"ÎĶ":6279,"å¸":6280,"æĭ":6281,"çĬ¶æĢģ":6282,"Ġ~":6283,"Ļ¯":6284,"ĿåŃĺ":6285,"Ġtab":6286,"Ġwindll":6287,"semb":6288,"setitem":6289,"alg":6290,"Ġson":6291,"Ġsuffix":6292,"Ġcnts":6293,"Ġpic":6294,"Ġppu":6295,"Ġfails":6296,"__\":<":6297,"Ġbold":6298,"Ġbasic":6299,"Ġ\"{}":6300,"strings":6301,"olic":6302,"uninstall":6303,"Ġ'''<":6304,"Ġrc":6305,"tro":6306,"trie":6307,"ismatch":6308,"ĠAss":6309,"ĠAccur":6310,"Ġthose":6311,"Ġ[[":6312,"Ġnotas":6313,"ibly":6314,"ĠBG":6315,"Ġelapsed":6316,"setLevel":6317,"egers":6318,"verbose":6319,"major":6320,"tsx":6321,"Ġei":6322,"userid":6323,"Ġshortcut":6324,"Ġprice":6325,"minor":6326,"actual":6327,"configure":6328,"Ġadded":6329,"Ġwrapped":6330,"oose":6331,"Ġmessages":6332,"LTD":6333,"Ġ\\\"":6334,"Ġspecific":6335,"Ġspecial":6336,"nums":6337,"Ġ\"\",":6338,"ĠExit":6339,"ĠInvalidVersion":6340,"Ġdirurl":6341,"[:]":6342,"ĠCommandError":6343,"Ġtermin":6344,"compatible":6345,"platformdirs":6346,"CTYPE":6347,".*\",":6348,"contents":6349,"Ġ\"<{":6350,"Ġimmutable":6351,"ConsoleOptions":6352,"PYOPENSSL":6353,"Ġè¿":6354,"(?:\\":6355,"Ġwebbrowser":6356,"ĠZipFile":6357,"Ġhandling":6358,">`_":6359,"å¤§":6360,"Ġvalores":6361,"Ġverify":6362,"Serializer":6363,"PoolError":6364,"Ġblue":6365,"Ġbinary":6366,"ä¿ĿåŃĺ":6367,"Structure":6368,"çİĩ":6369,"Supported":6370,"åĨħ":6371,"ĠPacker":6372,"rfc":6373,"combined":6374,"endency":6375,"ĠHowever":6376,"CRIT":6377,"ç¨ĭ":6378,"ºæĻ¯":6379,"Ġpotentially":6380,"aussianNB":6381,"valo":6382,"verflowMethod":6383,"STYLES":6384,"ĠReprHighlighter":6385,"å¯¹è±¡":6386,"ĠåĽ¾å":6387,"Predicate":6388,"unicationLTD":6389,"ªĹåı£":6390,"\"[":6391,"#]*":6392,"-(?":6393,">/":6394,"BIT":6395,"Branch":6396,"DB":6397,"Dis":6398,"GEN":6399,"GHT":6400,"Kind":6401,"Log":6402,"Main":6403,"Per":6404,"QIcon":6405,"Using":6406,"VS":6407,"`_":6408,"adi":6409,"aher":6410,"aving":6411,"certificateVerificationFailedInvalid":6412,"epoch":6413,"fd":6414,"fs":6415,"gacy":6416,"hx":6417,"iel":6418,"markers":6419,"pts":6420,"peed":6421,"peso":6422,"ring":6423,"rake":6424,"ture":6425,"xz":6426,"}\\<":6427,"²´":6428,"¿çĶ¨":6429,"åĴĮ":6430,"æŃ":6431,"ê³":6432,"ëĬ":6433,"Ġ).":6434,"Ġlayer":6435,"ķĮ":6436,"ĻĢ":6437,"ľĢ":6438,"ores":6439,"inst":6440,"erly":6441,"stack":6442,"enheit":6443,"Ġttype":6444,"(\"################################":6445,"dec":6446,"Ġcertificate":6447,"Ġph":6448,"Ġpair":6449,"Ġpeso":6450,"Ġfa":6451,"itz":6452,"Ġrename":6453,"Ġremote":6454,"__}":6455,"Ġopt":6456,"Ġbad":6457,"Ġbuf":6458,"Ġbbox":6459,"Ġ\"#":6460,"exists":6461,"esd":6462,"Ġ',":6463,"ceeded":6464,"utiful":6465,"ĠCan":6466,"ĠCAN":6467,"ĠCertificateVerificationFailedInvalid":6468,"ĠSome":6469,"ĠSecure":6470,"ĠPART":6471,"ileError":6472,"ĠAlso":6473,"ĠLo":6474,"Ġdirec":6475,"()'":6476,"())":6477,"conv":6478,"Ġcond":6479,"Ġconflict":6480,"Ġgmap":6481,"ĠDistlibException":6482,"Ġnotesd":6483,"ift":6484,"ĠFaher":6485,"appdirs":6486,"libc":6487,"ĠMissing":6488,"ĠBor":6489,"vertices":6490,"valu":6491,"Ġ::":6492,"ERGEN":6493,"imc":6494,"Ġonce":6495,"ĠEd":6496,"ĠĠĠĠĠĠĠĠĠĠĠĠĠĠĠĠĠ":6497,"ĠĠĠĠĠĠĠĠĠĠĠĠĠĠĠĠĠĠĠĠ":6498,"ĠInter":6499,"Ġshared":6500,"Ġable":6501,"chessboardSize":6502,"LED":6503,"ARGS":6504,"Ġnovo":6505,"actor":6506,"dataset":6507,"../":6508,"ugador":6509,"Ġappend":6510,"Ġappdirs":6511,"mongo":6512,"arguments":6513,"Chain":6514,"Ġtempo":6515,"NotSupported":6516,"ignore":6517,"Ġitemgetter":6518,"pypirc":6519,"Theme":6520,"framework":6521,"Ġorigin":6522,"LIGHT":6523,"wheels":6524,"Ġentrada":6525,"tail":6526,"Comparison":6527,"slack":6528,"ĠëĤĺìĿ´":6529,"COMMENT":6530,"ELLOW":6531,"NOWN":6532,"PROTOCOL":6533,"ĠnamespaceHTMLElements":6534,"Ġcalling":6535,"chardet":6536,"neth":6537,"Ġêµ":6538,"posturalDatset":6539,"Ġworking":6540,"ĠRequirementSet":6541,"æĸĩä»¶è·¯å¾Ħ":6542,"columnspan":6543,"****************":6544,"ä¸Ģä¸ª":6545,"renderables":6546,"0000000000000000":6547,"ä½¿çĶ¨":6548,"VIEW":6549,"Ġsuggestion":6550,"('./":6551,"BACKOFF":6552,"ustifyMethod":6553,"lookup":6554,"HOST":6555,"ĠCelsius":6556,"indentation":6557,">.+":6558,"TIONS":6559,"symbol":6560,"ĠAdminRights":6561,"Ġèİ·åıĸ":6562,"Ġmimetypes":6563,"ëĬĶ":6564,"ĠFaherenheit":6565,"ERGENCY":6566,"ĠAdminRightsCheck":6567,")-":6568,",))<":6569,"/')<":6570,"1999":6571,"70":6572,"=<":6573,"=\",":6574,">:":6575,">|":6576,"?:":6577,"Be":6578,"Big":6579,"Fed":6580,"Font":6581,"Len":6582,"MT":6583,"Migration":6584,"Pi":6585,"PLAY":6586,"Schema":6587,"TC":6588,"Th":6589,"Vector":6590,"XME":6591,"]'":6592,"done":6593,"gh":6594,"gasto":6595,"highlight":6596,"lat":6597,"migrations":6598,"nam":6599,"next":6600,"olean":6601,"release":6602,"wg":6603,"¡«":6604,"éĿ":6605,"Ġqui":6606,"Ĥ°":6607,"ŀçİ":6608,"inject":6609,"invalid":6610,"lomon":6611,"(\"'":6612,"til":6613,"Ġclosed":6614,"Ġfs":6615,"Ġrecent":6616,"__):<":6617,"urder":6618,"accuracy":6619,"Ġneg":6620,"Ġnatur":6621,"Ġbar":6622,"Ġinject":6623,"Ġmar":6624,"Ġ')<":6625,"ĠNE":6626,"ĠNull":6627,"getopt":6628,"ĠCol":6629,"ĠCSI":6630,"ĠCallback":6631,"ĠSpec":6632,"ĠSpan":6633,"spi":6634,"ĠPr":6635,"formed":6636,"ĠIN":6637,"ĠIS":6638,"('%":6639,"('''<":6640,"ilon":6641,"ĠDO":6642,"uman":6643,"ĠOptions":6644,"ization":6645,"Ġhack":6646,"Ġhaving":6647,"``.":6648,"ĠUsers":6649,"Ġyoutube":6650,"Ġ*,<":6651,"ĠMy":6652,"ĠMigration":6653,"024":6654,"Conflict":6655,"ĠRemoved":6656,"ĠRemem":6657,"ĠĠĠĠĠĠĠĠĠĠĠĠĠĠĠĠĠĠĠĠĠĠĠĠĠĠ":6658,"Ġengine":6659,"Ġsetting":6660,"ĠIniti":6661,"Ġmedia":6662,"Ġuntil":6663,"Ġpyopenssl":6664,"ough":6665,"ĠHash":6666,"Ġlists":6667,"Ġchr":6668,"shared":6669,"Extension":6670,"boolean":6671,"Ġversionadded":6672,"ATOR":6673,"canonicalize":6674,"Ġappauthor":6675,"ĠStream":6676,"mong":6677,"KeyEx":6678,"Trans":6679,"ĠJSON":6680,"Ġinteractions":6681,"ignment":6682,"Measurement":6683,"ASSI":6684,"runner":6685,"stats":6686,"Ġgeneral":6687,"maximum":6688,"Ġ2008":6689,"creen":6690,"ĠArgumentParser":6691,".*?":6692,"åħħ":6693,"âĢĻ":6694,"correct":6695,"ĠSolomon":6696,"Ġregard":6697,"Ġfollows":6698,"æķ°åŃĹ":6699,"æķ°æį®":6700,"ĠGenerated":6701,"åĽŀ":6702,"Internal":6703,"})\"<":6704,"159":6705,"RAM":6706,"å¼Ģ":6707,"ŀħëĭĪëĭ¤":6708,"ĠTimestamp":6709,"ĠRegion":6710,"closed":6711,"NoReturn":6712,"OPS":6713,"ĠDiagnostic":6714,"Writer":6715,"çĽ®":6716,"Ġtranslate":6717,"Required":6718,"ä¼ĺ":6719,"ArgumentParser":6720,"unpacked":6721,"14159":6722,"Ġeven":6723,"CACHE":6724,"åľ¨":6725,"Ġdestination":6726,"ĠFIXME":6727,"WORD":6728,"åĨĻ":6729,"ĦìĤ°":6730,"Ġexpects":6731,"Creates":6732,"æ³¢":6733,"ĠOtherwise":6734,"Ġparams":6735,"basicConfig":6736,"dtc":6737,"Valid":6738,"tomli":6739,"Ġdescrib":6740,"ecess":6741,"Ġagainst":6742,"OpenKeyEx":6743,"VisionError":6744,"Ġflush":6745,"Length":6746,"¡«åħħ":6747,"ŀçİ°":6748,"ĠRemovedCommandError":6749,"ĠRemember":6750,"ĠSolomonVisionError":6751,"'%":6752,")\"":6753,")\\":6754,"-<":6755,".\\":6756,"77":6757,"=='":6758,"Byte":6759,"CrossEntropy":6760,"DING":6761,"Dep":6762,"ELE":6763,"FFIX":6764,"Go":6765,"Group":6766,"HER":6767,"NT":6768,"Null":6769,"Pic":6770,"Raw":6771,"TENSION":6772,"VG":6773,"Your":6774,"]\\":6775,"ald":6776,"dom":6777,"down":6778,"fc":6779,"iloc":6780,"lru":6781,"marker":6782,"ners":6783,"ounter":6784,"raries":6785,"uin":6786,"vet":6787,"warp":6788,"}):<":6789,"å±":6790,"èī":6791,"éĥ":6792,"ê³¼":6793,"Ġ$":6794,"Ġlimit":6795,"include":6796,"Ġip":6797,"Ġtd":6798,"Ġtam":6799,"Ġwon":6800,"Ġclear":6801,"arm":6802,"ane":6803,"anum":6804,"Ġfname":6805,"urposes":6806,"Ġbs":6807,"Ġbit":6808,"Ġinst":6809,"lap":6810,"exclusion":6811,"unpatched":6812,"track":6813,"traceback":6814,"thor":6815,"getenv":6816,"ĠSection":6817,"ĠSVG":6818,"apters":6819,"endar":6820,"ĠPanel":6821,"idpoint":6822,"ably":6823,"ĠLinux":6824,"forc":6825,"Ġdid":6826,"android":6827,"Ġthus":6828,"ationFailed":6829,"Ġguess":6830,"ĠBad":6831,"Ġbyte":6832,"Ġstore":6833,"Ġemoji":6834,"ĠRFC":6835,"InlineKeyboard":6836,"Ġenviron":6837,"Ġ%')<":6838,"ĠHidden":6839,"Ġ``\"":6840,"Ġpri":6841,"Ġprec":6842,"ANT":6843,"ARY":6844,"addHandler":6845,"ira":6846,"ivers":6847,"whl":6848,"white":6849,"Ġroaming":6850,"vely":6851,"Ġless":6852,"Ġ|=":6853,"ĠDistutilsFileError":6854,"Ġdetect":6855,"filesystem":6856,"Ġparses":6857,"ĠConsoleRenderable":6858,"Ġspe":6859,"ignKey":6860,"ferences":6861,"åıĤ":6862,"ĠìĤ":6863,"000000":6864,"Ġcomm":6865,"Ġ'.'<":6866,"ĠĠĠĠĠĠĠĠĠĠĠĠĠĠĠĠĠĠĠĠĠĠĠĠĠĠĠĠĠĠĠĠĠĠ":6867,"ĠKNN":6868,"Process":6869,"Ġwheels":6870,"centual":6871,"rooms":6872,"Ġsuc":6873,"ToWin":6874,"Ġ123":6875,"offset":6876,"åĮº":6877,"stdlib":6878,"google":6879,"Ġ...]":6880,"Ġinitial":6881,"PRETER":6882,"SUFFIX":6883,"article":6884,"phanum":6885,"ä¹ī":6886,"panel":6887,"such":6888,"GPIOListenerPins":6889,"åĩº":6890,"ĠDanI":6891,"è¡Į":6892,"LEGRAM":6893,"Ġdisabled":6894,"operators":6895,"OUP":6896,"Ġoccurs":6897,"ĠVertical":6898,"kernel":6899,"ĠAnsiToWin":6900,"Ġwraps":6901,"Ġinvoked":6902,"ĠRuntimeError":6903,"ĠMaximum":6904,"ĠEXTENSION":6905,"HeaderDict":6906,"ĠPoolManager":6907,"åĪĹè¡¨":6908,"Ġinstances":6909,"boundary":6910,"GROUP":6911,"Ġpsutil":6912,"INTERPRETER":6913,"Ġcertain":6914,"alette":6915,"æ»¤æ³¢":6916,"Ġwildcard":6917,"ENTRY":6918,"Ġappropriate":6919,"Ġìłķ":6920,"AnsiToken":6921,"ĠAccuracy":6922,"ELEMENT":6923,"èī²":6924,"SUFFIXES":6925,"'\\":6926,"'}<":6927,")*":6928,")+":6929,"06":6930,"55":6931,"512":6932,"89":6933,"Are":6934,"Attribute":6935,"ACY":6936,"Book":6937,"Basic":6938,"DD":6939,"Download":6940,"Emoji":6941,"HACK":6942,"If":6943,"Is":6944,"KING":6945,"Phot":6946,"RU":6947,"Variant":6948,"WM":6949,"`:":6950,"aut":6951,"after":6952,"bbox":6953,"hg":6954,"linux":6955,"mar":6956,"oid":6957,"sorted":6958,"sitting":6959,"will":6960,"zed":6961,"¡ç®":6962,"å¾":6963,"åĢ":6964,"æĹ":6965,"ç¼":6966,"ĠKe":6967,"Ġ#############################":6968,"erce":6969,"onts":6970,"Ġireq":6971,"into":6972,"enor":6973,"prot":6974,"Ġsend":6975,"Ġsites":6976,"Ġsolution":6977,"Ġsince":6978,"declar":6979,"Ġpp":6980,"Ġpause":6981,"Ġfig":6982,"Ġrest":6983,"Ġow":6984,"aced":6985,"Ġnul":6986,"lash":6987,"otonic":6988,"Ġrot":6989,"this":6990,"getTreeBuilder":6991,"ĠCoffee":6992,"ĠSystem":6993,"ĠAc":6994,"Ġvcs":6995,"Ġvariant":6996,"assets":6997,"Ġintegers":6998,"ĠId":6999,"ulate":7000,"Ġsecure":7001,"('--------------------------------":7002,"('.')<":7003,"Ġconstant":7004,"istory":7005,"eted":7006,"ĠDis":7007,"ĠFull":7008,"ĠOperator":7009,"filepath":7010,"aix":7011,"ĠMac":7012,"SException":7013,"Ġstill":7014,"Ġstudent":7015,"intern":7016,"Ġep":7017,"indices":7018,"ĠRLock":7019,"ĠEach":7020,"outfiles":7021,"ĠValue":7022,"ONS":7023,"times":7024,"Ġ%.":7025,"Ġmeans":7026,"dataElements":7027,"plt":7028,"Ġ31":7029,"Ġ36":7030,"Ġ3000":7031,"Ġlisted":7032,"ĠlistenerMatrix":7033,"RED":7034,"READ":7035,"Ġshuffle":7036,"shuffle":7037,"ocal":7038,"Ġcanonical":7039,"),(":7040,"ĠConv":7041,"quer":7042,"Ġcomple":7043,"Ġcomparison":7044,"Ġcomponent":7045,"Ġhasn":7046,"CHEMA":7047,"Ġlock":7048,"DELL":7049,"ĠSearch":7050,"layers":7051,"Ġapplied":7052,"csi":7053,"ä¸Ń":7054,"Trie":7055,"Ġbackwards":7056,"ignAttributes":7057,"ferred":7058,"coerce":7059,"ĠìĦ":7060,"ensions":7061,"ĠXCP":7062,"Ġscreen":7063,"FILEN":7064,"filters":7065,"TROL":7066,"Ġfinding":7067,"Ġmade":7068,"Ġdato":7069,"Ġfractions":7070,"Ġsupporting":7071,"winreg":7072,"Ġstarting":7073,"Fragment":7074,"ConsoleError":7075,"Accept":7076,"Active":7077,"FFFF":7078,"Ġwords":7079,"TEMP":7080,"åĲ¦":7081,"Ġhandlers":7082,"ĠHTMLParser":7083,"IGNO":7084,"ĠNews":7085,"ATHONS":7086,"Ġunpackb":7087,"Ġexecute":7088,"Ġresolve":7089,"Ġcriterion":7090,"Ġimglbl":7091,"Ġfullname":7092,"RetryError":7093,"ĠForeignKey":7094,"~~~~~~~~~~~~~~<":7095,"Iteration":7096,"Links":7097,"Ġmkdir":7098,"Ġkinds":7099,"warnings":7100,"LEGAL":7101,"normal":7102,"ä¼ł":7103,"Ġcelery":7104,"ĠCacheController":7105,"GEST":7106,"history":7107,"ategories":7108,"Ġchildren":7109,"WORKING":7110,"ForeignAttributes":7111,"Ġdigests":7112,"Ġnetloc":7113,"Ġconnecting":7114,"realpath":7115,"children":7116,"MenuBar":7117,"ĠTOMLDecodeError":7118,"åŃ¦çĶŁçļĦ":7119,"Ġturn":7120,"ĠJohnDL":7121,"ImportError":7122,"Ġautomatically":7123,"Output":7124,"Ġ'{}/":7125,"è¯·è¾ĵåħ¥":7126,"Number":7127,"Ġhappens":7128,"accines":7129,"Application":7130,"MutableMapping":7131,"linen":7132,"Represents":7133,"urderer":7134,"åıĤæķ°":7135,"HACKATHONS":7136,"Photo":7137,"¡ç®Ĺ":7138,"åĢ¼":7139,"FILENAME":7140,"è¯·è¾ĵåħ¥åŃ¦çĶŁçļĦ":7141,")?":7142,"*<":7143,",'":7144,"90":7145,"98":7146,":\")<":7147,">(":7148,">âĸĪâĸĪ":7149,"@@":7150,"AV":7151,"Auto":7152,"BLE":7153,"BAS":7154,"GER":7155,"GaussianNB":7156,"Hash":7157,"Jog":7158,"JupyterMixin":7159,"RO":7160,"Sender":7161,"Tk":7162,"\\/":7163,"]):":7164,"_|":7165,"cool":7166,"cython":7167,"eval":7168,"free":7169,"lm":7170,"nomes":7171,"oki":7172,"pg":7173,"sHelpFormatter":7174,"tab":7175,"vices":7176,"wine":7177,"way":7178,"your":7179,"}},":7180,"¡°ì":7181,"©ê²©":7182,"¼ë¬´":7183,"Î±":7184,"æĽ":7185,"æ¯ı":7186,"çªĹåı£":7187,"éĹ":7188,"ë³":7189,"Ħæµĭ":7190,"łé":7191,"ĠĠĠĠčĊ":7192,"inhas":7193,"erm":7194,"erminal":7195,"sted":7196,"enlog":7197,"prite":7198,"Ġwintypes":7199,"leach":7200,"letra":7201,"(\"../":7202,"Ġpjoin":7203,"Ġpager":7204,"Ġpenlog":7205,"anh":7206,"iting":7207,"itall":7208,"Ġrevision":7209,"__\",":7210,"urinha":7211,"gether":7212,"icao":7213,"Ġbel":7214,"Ġbright":7215,"ently":7216,".</":7217,"lain":7218,"lake":7219,"edDict":7220,"oting":7221,"unch":7222,"Ġ(?:":7223,"Ġrailroad":7224,"traction":7225,"Ġtogether":7226,"ĠCO":7227,"ĠCython":7228,"spaced":7229,"spitall":7230,"Ġdan":7231,"ĠPango":7232,"idna":7233,"asol":7234,"ĠISO":7235,"Ġsequ":7236,"('<":7237,"(')<":7238,"Ġthink":7239,"Ġ<<":7240,"Ġ[]":7241,"rog":7242,"Ġgot":7243,"ĠDateTime":7244,"__(*":7245,"ĠFind":7246,"matriz":7247,"Ġgetgr":7248,"parsers":7249,"://...":7250,"Ġlinha":7251,"ENCO":7252,"ĠMap":7253,"setopt":7254,"previous":7255,"Ġstop":7256,"Ġstuff":7257,"owels":7258,"osSearch":7259,"ĠRec":7260,"INST":7261,"Ingre":7262,"IncompleteRead":7263,"ĠRequire":7264,"ĠInt":7265,"ĠInsecure":7266,"Ġ``.":7267,"quit":7268,"Ġcompare":7269,"angoli":7270,"Ġhashed":7271,"crap":7272,"itertools":7273,"Ġaddition":7274,"ugins":7275,"ird":7276,"what":7277,"Ġrobot":7278,"ĠStudio":7279,"Ġleast":7280,"Ġformatters":7281,"Ġcooki":7282,"background":7283,"Ġzero":7284,"ParsedVersion":7285,"alizar":7286,"Ġupdated":7287,"astype":7288,"properties":7289,"ìĿĢ":7290,"ĠBaseTransport":7291,"ĠBaseEnvironment":7292,"EPT":7293,"([])<":7294,"audio":7295,"Ġgeneration":7296,"ĠSets":7297,"Ġ[\"_":7298,"((-":7299,"ĠEnd":7300,"Ġfraction":7301,"Controller":7302,"treebuilders":7303,"Ġhelper":7304,"ĠResolution":7305,"ĠRequestError":7306,"Ġ~~~~~~~~~~~~~~~~~~<":7307,"...,":7308,"KEYS":7309,"charmap":7310,"Ġcases":7311,"ĠZIP":7312,"Ġhandle":7313,"ImageFormatter":7314,"EnumKey":7315,"EnumValue":7316,"ĠDetermine":7317,"Ġreferenc":7318,"Ġ'/',":7319,"Ġ'/'<":7320,"Intervalo":7321,"mantic":7322,"Ġqueue":7323,"CCEPT":7324,"ĠTrans":7325,"Tests":7326,"åĬ¡":7327,"searchpython":7328,"macro":7329,"çĽ´":7330,"revision":7331,"Ġlexers":7332,"æłı":7333,"ĠMutableSet":7334,"ĠFormatControl":7335,"OKU":7336,"ç§°":7337,"Requirements":7338,">...</":7339,"éĢŁ":7340,"ircu":7341,"¬ì¡°ì":7342,"åľºæĻ¯":7343,"ĠuniqueID":7344,"ĠVerboseLogger":7345,"åºĶ":7346,"ĠLayout":7347,"operaciones":7348,"ĠFILES":7349,"Ġescribe":7350,"ĠLOGGER":7351,"ĠStrictVersion":7352,"(':)')<":7353,"(':(')<":7354,"é¢Ħæµĭ":7355,"DefaultsHelpFormatter":7356,"ĠUnpackException":7357,"ĠPoolError":7358,"ĠHelper":7359,"handlers":7360,"initial":7361,"initialize":7362,"ĠEngineering":7363,"ĠProxyScheme":7364,"ipadx":7365,"ipady":7366,"monospaced":7367,"ĠMultiplos":7368,"mkdir":7369,"ĠLocationParseError":7370,"-------')<":7371,"IntEnum":7372,"asctime":7373,"msvc":7374,"SecurityWarning":7375,"paco":7376,"Ġrecursive":7377,"RECASE":7378,"Ġ~~~~~~~~~~~~~~~~~~~~~~~<":7379,"ĠVideosSearch":7380,"ĠBGM":7381,"Ġêµ¬ì¡°ì":7382,"BigAuto":7383,"Ġyoutubesearchpython":7384,"HEROKU":7385,"phanums":7386,"Ġnullable":7387,"('---------------------------------------')<":7388,"IGNORECASE":7389,"Jogador":7390,"Ġsequences":7391,"Ġgetgrnam":7392,"://...``)<":7393,"ENCODING":7394,"Ingrese":7395,"Ġêµ¬ì¡°ì²´":7396,"BigAutoField":7397,".{":7398,"/#":7399,"/\"<":7400,"44":7401,">\\":7402,">/<":7403,"AC":7404,"Date":7405,"Host":7406,"Imp":7407,"LAT":7408,"MY":7409,"Mismatch":7410,"Pack":7411,"SQ":7412,"TO":7413,"Types":7414,"User":7415,"ULO":7416,"[\\":7417,"]{":7418,"]\")<":7419,"cpp":7420,"dtemp":7421,"draw":7422,"hitespace":7423,"ik":7424,"ier":7425,"iod":7426,"native":7427,"otify":7428,"pha":7429,"pair":7430,"sug":7431,"tls":7432,"ume":7433,"ued":7434,"uch":7435,"walker":7436,"wrong":7437,"}'":7438,"¦ģ":7439,"¬¬":7440,"Ãº":7441,"éħ":7442,"ìļ":7443,"Ġ^":7444,"Ġkw":7445,"Ġextensions":7446,"Ġurlopen":7447,"ĩå®ļ":7448,"Įĩå®ļ":7449,"inued":7450,"reference":7451,"reverse":7452,"Ġai":7453,"Ġaudio":7454,"\"\"\")<":7455,"alive":7456,"Ġsimp":7457,"tition":7458,"Ġpower":7459,"__:<":7460,"acent":7461,"digits":7462,"ĠTABLE":7463,"Ġmodern":7464,"Ġround":7465,"trics":7466,"Ġisfile":7467,"ĠCate":7468,"ĠSans":7469,"ĠScheme":7470,"ĠSCHEMA":7471,"spotify":7472,"amily":7473,"abs":7474,"ability":7475,"Ġ18":7476,"Ġ.._":7477,"ĠIP":7478,"conf":7479,"ĠFuture":7480,"ĠFixed":7481,"ctypes":7482,"Ġextras":7483,"partition":7484,"agename":7485,"ĠUp":7486,"library":7487,"Ġlinux":7488,"Ġdeclar":7489,"ĠMin":7490,"ĠBASE":7491,"ĠBea":7492,"SES":7493,"pres":7494,"pretty":7495,"oreset":7496,"codepoint":7497,"Ġproxies":7498,"sched":7499,"versioncontrol":7500,"packagename":7501,"imwrite":7502,"Ġones":7503,"Ġwhose":7504,"ĠInteger":7505,"Ġuuid":7506,"Ġpassword":7507,"Ġ302":7508,"ORY":7509,"Ġabove":7510,"most":7511,"quare":7512,"mlink":7513,"chatdb":7514,"START":7515,"ives":7516,"Ġoutfiles":7517,"ĠStatic":7518,"Ġleading":7519,"ĠDistutilsInternal":7520,"EXC":7521,"continued":7522,"Ġbackward":7523,"Ġrendered":7524,"crypto":7525,"Ġidentifier":7526,"Ġminor":7527,"traData":7528,"images":7529,"Ġimplementing":7530,"widths":7531,"Ġbutton":7532,"voke":7533,"MOVE":7534,"ertifi":7535,"TERMIN":7536,"Admin":7537,"Ġdifference":7538,"Methods":7539,"å¤±":7540,"å¤´":7541,"engineering":7542,"})>\".":7543,"Ġmove":7544,"ĠPretty":7545,"Generic":7546,"gorical":7547,"Ġbetter":7548,"ngw":7549,"Ġprocessing":7550,"Ġdisplayed":7551,"ANGULO":7552,"ĠParsedVersion":7553,"Ġgradi":7554,"AppName":7555,"AppConfig":7556,"overflow":7557,"âģĥâģĥâģĥâģĥâģĥâģĥâģĥâģĥâģĥâģĥâģĥâģĥâģĥâģĥâģĥâģĥ":7558,"Ġreplacement":7559,"ĠAppConfig":7560,"Ġutility":7561,"æĴŃæĶ¾å¤´":7562,"ĠController":7563,"Ġadjacent":7564,"Soup":7565,"ĠNOTE":7566,"SERV":7567,"Ġè®¾ç½®":7568,"Utility":7569,"WRITE":7570,"hooks":7571,"Ġmetavar":7572,"ĠSupports":7573,"REPOSIT":7574,"åĽ¾åĥı":7575,"ĠIndexError":7576,"æį¢æĪĲ":7577,"TableScene":7578,"shortcuts":7579,"ĠTracebackType":7580,"ĠAlignMethod":7581,"ìĦ±":7582,"UNKNOWN":7583,"åģľ":7584,"BLACKLIST":7585,"Ġprotocol":7586,"ĠDecisionTree":7587,"utifulSoup":7588,"NTL":7589,"ĠHiddenText":7590,"Ġpriority":7591,"Ġsuccess":7592,"RUCache":7593,"ĠEngineeringTableScene":7594,"éħįç½®":7595,"ĠCategorical":7596,"ĠBeautifulSoup":7597,"ĠDistutilsInternalError":7598,"TERMINAL":7599,"Ġgradient":7600,"REPOSITORY":7601,"ĠCategoricalCrossEntropy":7602,"\">":7603,"\"')<":7604,"\"[{":7605,"$\")<":7606,"'^":7607,"-]":7608,"59":7609,"</":7610,"Could":7611,"Django":7612,"FON":7613,"Fail":7614,"GP":7615,"Given":7616,"LD":7617,"LY":7618,"LBRACKET":7619,"LPAREN":7620,"LPHANUM":7621,"MIC":7622,"Program":7623,"PUN":7624,"Sc":7625,"SCK":7626,"TA":7627,"UP":7628,"Used":7629,"UATION":7630,"Url":7631,"baz":7632,"cmp":7633,"called":7634,"clock":7635,"fancy":7636,"gal":7637,"gdb":7638,"jmar":7639,"lings":7640,"lice":7641,"many":7642,"nao":7643,"pager":7644,"pwn":7645,"rel":7646,"sim":7647,"suffix":7648,"silon":7649,"tb":7650,"tf":7651,"two":7652,"tColor":7653,"zone":7654,"»ĺ":7655,"æ¸":7656,"è¦ģ":7657,"é»ĺ":7658,"ìĥ":7659,"íĺ":7660,"ðŁ":7661,"ĉĉ":7662,"īĩ":7663,"Ĭ¸":7664,"ĺ±":7665,"oring":7666,"Ġiglob":7667,"Ġtrees":7668,"Ġaver":7669,"(\",":7670,"(\"{":7671,"album":7672,"alphanums":7673,"Ġsour":7674,"Ġsgr":7675,"Ġshell":7676,"deo":7677,"deprecation":7678,"development":7679,"Ġcould":7680,"Ġcamera":7681,"Ġpop":7682,"Ġplease":7683,"Ġfi":7684,"Ġregistry":7685,"icial":7686,"Ġbeg":7687,"Ġbasename":7688,"Ġinsert":7689,"Ġmark":7690,"Ġmakes":7691,"Ġmultipart":7692,"Ġ'{":7693,"Ġrow":7694,"trace":7695,"triplet":7696,"getTrackbarPos":7697,"ĠCUR":7698,"ĠScanner":7699,"Ġdf":7700,"ĠPress":7701,"ĠASGI":7702,"ĠALPHANUM":7703,"Ġvis":7704,"Ġvoid":7705,"forwards":7706,"Ġ.__":7707,"()[":7708,"()):<":7709,"Ġ[],<":7710,"Ġgzip":7711,"ĠDropout":7712,"umb":7713,"pathname":7714,"ĠFun":7715,"ĠOut":7716,"iblings":7717,"Ġexact":7718,"Ġexceeded":7719,"Ġgetpwn":7720,"Ġosc":7721,"``:":7722,"partial":7723,"Ġliteral":7724,"Ġdeque":7725,"ENV":7726,"ĠMal":7727,"ĠMain":7728,"ĠMake":7729,"ĠButton":7730,"Ġ{__":7731,"SEPAR":7732,"eground":7733,"Ġpardir":7734,"valent":7735,"Ġstates":7736,"quivalent":7737,"osen":7738,"Ġeff":7739,"Ġevalu":7740,"packed":7741,"Individual":7742,"imit":7743,"ĠEvery":7744,"Ġwhite":7745,"ĠUndefined":7746,"Ġuid":7747,"Ġmemory":7748,"compilers":7749,"REG":7750,"Ġshlex":7751,"Ġchosen":7752,"areMixin":7753,"ĠConvert":7754,"ĠWhen":7755,"ĠWSGI":7756,"ĠThey":7757,"Ġcontact":7758,"=\"%":7759,"=\"\\":7760,"minutes":7761,"criterion":7762,"Ġloss":7763,"STAT":7764,"Ġconfigure":7765,"modeline":7766,"artboard":7767,"VersionTypeVar":7768,"epsilon":7769,"ĠStop":7770,"Ġlearning":7771,"clf":7772,"ä¸»":7773,"heroku":7774,"ALPHANUM":7775,"Ġcheckers":7776,"Ġwritten":7777,"OTIFY":7778,"nothing":7779,"Undefined":7780,"NotIn":7781,"Ġ['/":7782,"')\")<":7783,"subclass":7784,"subdir":7785,"ĠBaseCache":7786,":`.":7787,"Media":7788,"ASGI":7789,"Ġìĭľ":7790,"entity":7791,"ĠVersionPredicate":7792,"runTests":7793,"LOG":7794,"frames":7795,"ĠInvalidWheel":7796,"ĠInvalidHeader":7797,"Ġgenerating":7798,"Ġaccomp":7799,"CTUATION":7800,"dependenc":7801,"Ġ'.')<":7802,"CompareMixin":7803,"wininst":7804,"ĠæĮĩå®ļ":7805,"Ġoverload":7806,"Ġheuristic":7807,"playmode":7808,"checklist":7809,"Ġstartproject":7810,"externally":7811,"Ġ80":7812,"cvtColor":7813,"Access":7814,"Accuracy":7815,"ĠSUPPORT":7816,"gban":7817,"åĽ¾ç":7818,"WSGI":7819,"180":7820,"Ġignored":7821,"ĠPROPS":7822,"Ġlibraries":7823,"ĠimgPath":7824,"cyan":7825,"Ġhighlighting":7826,"INESE":7827,"createTrackbar":7828,"EnvironmentName":7829,"Generate":7830,"Generated":7831,"ĠIDENTIFIER":7832,"Ġnever":7833,"ĠWeb":7834,"Novo":7835,"generator":7836,":`~.":7837,"æ¨¡å¼ı":7838,"æł¼":7839,"transform":7840,"ĠSTART":7841,"OLON":7842,"è¿ĩ":7843,"ĠCompileError":7844,"LEGACY":7845,"ĠInlineKeyboardButton":7846,"METHODS":7847,"topics":7848,"---<":7849,"SPOTIFY":7850,"(\".\"):<":7851,"åıĺå":7852,"Running":7853,"Ġattempted":7854,"?)-(?":7855,"Container":7856,"Ġproblems":7857,"ĠQuick":7858,"(\"\",":7859,"ĠMaxRetryError":7860,"ĠEXTRA":7861,"Ġedges":7862,"Ġcaption":7863,"cookies":7864,"åŃ¦çĶŁä¿¡æģ¯":7865,"789425":7866,"=\"\",":7867,"Segmentation":7868,"Ġ''')<":7869,"termines":7870,"ĠBackend":7871,"ĠWrite":7872,"ĠcomputeAccuracy":7873,"longopt":7874,"ĠâĶĤ":7875,"FromPage":7876,"ĠSplitting":7877,"8859":7878,"ë¦¬ì":7879,"ï¼ļ\")<":7880,"ĠConnectionError":7881,"recognized":7882,"BasedCompareMixin":7883,"ĠCHINESE":7884,"936549":7885,"HOSTS":7886,">.+?)-(?":7887,"Before":7888,"InlineKeyboardButton":7889,"Ġturned":7890,"whatwg":7891,"FONT":7892,"MICOLON":7893,"PUNCTUATION":7894,"ìĥģ":7895,"ðŁĺ±":7896,"Ġaverage":7897,"ĠCURSOR":7898,"ĠvoidElements":7899,"Ġgetpwnam":7900,"SEPARATOR":7901,"dependencies":7902,"åĽ¾çīĩ":7903,")$":7904,"47":7905,">''":7906,"Align":7907,"Del":7908,"Don":7909,"DateTime":7910,"GENT":7911,"GREEN":7912,"Lat":7913,"On":7914,"TENT":7915,"TERS":7916,"XGB":7917,"YELLOW":7918,"]'<":7919,"_*":7920,"cid":7921,"cert":7922,"cfg":7923,"ez":7924,"fonts":7925,"iho":7926,"ihat":7927,"lates":7928,"lchemy":7929,"midpoint":7930,"selection":7931,"uish":7932,"yclass":7933,"}'.":7934,"¨ì":7935,"ãĢ":7936,"ìŀ":7937,"Ġing":7938,"Ġeg":7939,"Ģí":7940,"Ħë¡ľ":7941,"Ĭ½":7942,"Ńç»":7943,"inline":7944,"eliho":7945,"rest":7946,"repl":7947,"inten":7948,"ening":7949,"loss":7950,"loud":7951,"seen":7952,"lection":7953,"alls":7954,"Ġsy":7955,"Ġsen":7956,"destr":7957,"fraction":7958,"Ġche":7959,"Ġported":7960,"Ġpayload":7961,"Ġpublic":7962,"anose":7963,"Ġfall":7964,"Ġrepo":7965,"inguish":7966,"__'":7967,"Ġ\"?":7968,"exml":7969,"ĠTR":7970,"fidf":7971,"Ġ({":7972,"Ġrand":7973,"Ġratio":7974,"Ġforce":7975,"Ġansi":7976,"ĠShow":7977,"Ġdot":7978,"Ġdue":7979,"ĠPri":7980,"ĠAs":7981,"ĠACT":7982,"ĠLib":7983,"ĠLive":7984,"():":7985,"()}<":7986,"uler":7987,"Ġthing":7988,"extend":7989,"Ġconn":7990,"allpap":7991,"005":7992,"Ġ[-":7993,"provid":7994,"Ġgit":7995,"Ġgreen":7996,"ĠDNS":7997,"ĠOne":7998,"Ġhi":7999,"Ġlang":8000,"Ġ{!":8001,"Ġpara":8002,"prep":8003,"ERT":8004,"owner":8005,"Ġepoch":8006,"Ġranges":8007,"ĠEM":8008,"ĠRetry":8009,"ĠVariable":8010,"ĠVoting":8011,"formdata":8012,"Ġunsupported":8013,"pyt":8014,"ĠWin":8015,"validate":8016,"validator":8017,"too":8018,"Ġtimestamp":8019,"uding":8020,"SITE":8021,"Ġsuppress":8022,"ATA":8023,"dataclasses":8024,"STANT":8025,"Ġlogical":8026,"Ġkeyring":8027,"ĠStore":8028,"Ġlegacy":8029,"cluding":8030,"backwards":8031,"Ġusername":8032,"ĠDistutilsSetup":8033,"argmax":8034,"DOCTYPE":8035,"alizer":8036,"alization":8037,"Ġtemplate":8038,"byte":8039,"SSLError":8040,"Ġatt":8041,"subdirectory":8042,"ĠBaseModel":8043,"cryptography":8044,"Ġends":8045,"BaseModel":8046,"IDNAError":8047,"Ġoutputs":8048,"Ġaccount":8049,"{}.":8050,"See":8051,"Ġpkgutil":8052,"Ġnodes":8053,"Ġimplemented":8054,"ĠEncode":8055,"ĠQueue":8056,"æĸ°":8057,"conds":8058,"ĠFileCache":8059,"Ġè¯":8060,"Ġloads":8061,"Ġlocals":8062,"TERM":8063,"TERN":8064,"åĲĮ":8065,"Ġdistinguish":8066,"NAMES":8067,"ĠDev":8068,"å¤į":8069,"æĶ¹":8070,"ĠLinkError":8071,"äºº":8072,"LAlchemy":8073,"SessionControl":8074,"Ġcalendar":8075,"seconds":8076,"TYPES":8077,"ìłķ":8078,"ĠSSLTransport":8079,"âķĲ":8080,"Ġseparate":8081,"æīĵ":8082,"Ġparsedate":8083,"æĺ¾ç":8084,"signed":8085,"everseen":8086,"ç§»":8087,"ĠContain":8088,"2017":8089,"ĠPipError":8090,"Ġexpressions":8091,"OfView":8092,"æ³ķ":8093,"ĠMethods":8094,"finalize":8095,"looks":8096,"Ġinstanti":8097,"ĠReadTimeoutError":8098,"WHITELIST":8099,"Ġsmall":8100,"Ġê°Ĵ":8101,"Ġcopied":8102,"1252":8103,"lazyclass":8104,"ĠUtils":8105,"ORMATTERS":8106,"Ġrepeat":8107,"ĠTypedDict":8108,"Ġevicted":8109,"MainWindow":8110,"ASSISTANT":8111,"ĠDiagnosticSessionControl":8112,"Ġprecision":8113,"Ġbelow":8114,"rogate":8115,"ĠProxySchemeUnsupported":8116,"GENTA":8117,"XGBoost":8118,"fontsize":8119,"ihatexml":8120,"Ńç»ĥ":8121,"elihood":8122,"intenance":8123,"anoseconds":8124,"ĠLibError":8125,"allpaper":8126,"ĠDistutilsSetupError":8127,"æĺ¾ç¤º":8128,"lazyclassproperty":8129,"\"(\\":8130,"'[{":8131,")\"\"\"<":8132,".\",<":8133,"/'":8134,"37":8135,"42":8136,"49":8137,"76":8138,":,":8139,"=['":8140,">[":8141,">**":8142,"?#]*":8143,"ALE":8144,"BIN":8145,"Cam":8146,"CLE":8147,"DistlibException":8148,"Ed":8149,"GGEST":8150,"IST":8151,"Los":8152,"MUSIC":8153,"NE":8154,"Non":8155,"OverflowMethod":8156,"Pin":8157,"Please":8158,"PORT":8159,"PAP":8160,"SLE":8161,"THE":8162,"UD":8163,"With":8164,"WINDOWS":8165,"WARE":8166,"]],":8167,"`\"\"\"<":8168,"built":8169,"css":8170,"cun":8171,"cas":8172,"camera":8173,"dl":8174,"dTemp":8175,"dropout":8176,"easy":8177,"gmail":8178,"kitchen":8179,"lack":8180,"land":8181,"mero":8182,"mypy":8183,"ngs":8184,"oices":8185,"patch":8186,"pick":8187,"push":8188,"qr":8189,"ran":8190,"slas":8191,"taken":8192,"uFE":8193,"vOptions":8194,"yann":8195,"|{":8196,"};":8197,"}\\":8198,"}}):<":8199,"·®":8200,"ä¾":8201,"çī":8202,"çķĮ":8203,"ĠEND":8204,"įåĬ¡":8205,"ĵį":8206,"ĶåĽŀ":8207,"ļĤ":8208,"eroku":8209,"Ġig":8210,"Ġiss":8211,"ately":8212,"enum":8213,"enneth":8214,"loaded":8215,"Ġtu":8216,"Ġwere":8217,"Ġwait":8218,"lecun":8219,"Ġsitting":8220,"Ġsynonyms":8221,"tile":8222,"Ġimports":8223,"Ġimportant":8224,"Ġcause":8225,"Ġpida":8226,"Ġpublished":8227,"Ġreverse":8228,"Ġretrie":8229,"__\":":8230,"icates":8231,"utors":8232,"Ġnx":8233,"Ġnest":8234,"Ġnecess":8235,"ĠnÃº":8236,"Ġbuffer":8237,"Ġindividual":8238,"lare":8239,"exdb":8240,"ĠTER":8241,"ĠTakes":8242,"ĠTCP":8243,"Ġmenor":8244,"Ġ'%":8245,"adapters":8246,"Ġrout":8247,"through":8248,"threshold":8249,"usd":8250,"usl":8251,"using":8252,"Ġ#/":8253,"Ġans":8254,"ather":8255,"Ġder":8256,"Ġdtype":8257,"Ġdomain":8258,"ĠPart":8259,"ĠLO":8260,"ĠLRUCache":8261,"constant":8262,"constrain":8263,"Ġprints":8264,"allfiles":8265,"Ġ</":8266,"ReString":8267,"ReSub":8268,"Ġ[],":8269,"proxies":8270,"ĠDon":8271,"Ġnothing":8272,"ifest":8273,"ĠFed":8274,"\",\"":8275,"Ġhal":8276,"Ġoscrypto":8277,"Ġliter":8278,"filetype":8279,"Ġdev":8280,"serializer":8281,"setWindow":8282,"versed":8283,"Ġstored":8284,"Ġemit":8285,"imer":8286,"ĠEmoji":8287,"ĠReitz":8288,"ĠRevOptions":8289,"ĠVision":8290,"ĠUnparsedVersion":8291,"Ġunits":8292,"Ġ300":8293,"Ġchoice":8294,"Ġopts":8295,"ĠConstrain":8296,"Ġpreserved":8297,"validation":8298,"Ġcompiled":8299,"atedb":8300,"Exchange":8301,"LEX":8302,"minutos":8303,"parseString":8304,"usted":8305,"ATCH":8306,"DELETE":8307,"Ġalgo":8308,"Ġaltura":8309,"ivatedb":8310,"Ġresponses":8311,"ĠStack":8312,"Ġformatting":8313,"Ġcoun":8314,"120":8315,"128":8316,"Ġsubcommand":8317,"Chunk":8318,"Ġspaces":8319,"ansdb":8320,"ĠBaseReporter":8321,"Ġknown":8322,"ĠNamedTemp":8323,"Ġadds":8324,"Ġadding":8325,"Ġìķ":8326,"entify":8327,"ĠVersionControl":8328,"Ġtesting":8329,"RequestField":8330,"ĠInvalidCodepoint":8331,"leano":8332,"EDIT":8333,"ĠHTTPResponse":8334,"Timestamp":8335,"Ġnumpngw":8336,"created":8337,"iscord":8338,"Ġminutos":8339,"Ġtokenize":8340,"Ġconvertid":8341,"mbers":8342,"ĠEncoding":8343,"savet":8344,"Ġdelta":8345,"resado":8346,"levelname":8347,"ĠRequestField":8348,"Ġ~~~~~~~~~~~~~~~~<":8349,"Ġprobably":8350,"zipfile":8351,"charset":8352,"FFFE":8353,"blacklist":8354,"Ġbotoy":8355,"UND":8356,"Ġeventually":8357,"ConnectionModel":8358,"regexp":8359,"ĠGeneral":8360,"TokenType":8361,"hostname":8362,"webp":8363,"anchard":8364,"Ġexecuted":8365,"äºĭ":8366,"ĠVERBOSE":8367,"ĠRobot":8368,"Ġencoded":8369,"cloud":8370,"PoolExec":8371,"horas":8372,"musicas":8373,"licit":8374,"hexlify":8375,"ĠSoftmax":8376,"[[_":8377,"è¯¯å":8378,"CREAT":8379,"~~~~~~~~~~~~<":8380,"ĠíĻ":8381,"ALLPAP":8382,"captcha":8383,"ĠâĸĪâĸĪ<":8384,"Ġmkdtemp":8385,"celsius":8386,"è®¤":8387,"CURSOR":8388,"(.*)\")<":8389,"STRING":8390,"StreamHandler":8391,"normalize":8392,"HEADER":8393,"Ġcaptcha":8394,"ecurs":8395,"æĸ¹æ³ķ":8396,"±ĤçļĦ":8397,"ĠRichRenderable":8398,"Ġextracted":8399,"Ġattempting":8400,"ìĪĺì":8401,"Ġsummary":8402,"LAYER":8403,"Ġconstructor":8404,"Ġè®¡ç®Ĺ":8405,"Rendering":8406,"Ġç³»ç»Ł":8407,"oraryFile":8408,"Defines":8409,"Authentication":8410,"finalized":8411,"åįķ":8412,"ĠThreadPoolExec":8413,"Ġrecord":8414,"CODES":8415,"ĠConfigurationError":8416,"|~|--|~|--|~|--|~|--":8417,"Ġcorrectly":8418,"ĠPlatformDirsABC":8419,"Activity":8420,"æŀľ":8421,"FactoryFactory":8422,"discos":8423,"Ġhoras":8424,"LegacyVersion":8425,"wiki":8426,"wikipedia":8427,"Attemp":8428,"9364":8429,"ertionError":8430,"ĠadjustForeignAttributes":8431,"ĠLibraryLoader":8432,"ê·¼ë¬´":8433,"Ġarticles":8434,"Ġcareful":8435,"§åĪ¶":8436,"å¸ĥ":8437,"ĠExitStack":8438,"æŃ¢":8439,"(\"####################################":8440,"Ġbadly":8441,"ĠBorland":8442,"PLAYLIST":8443,"ĠCollection":8444,"Ġbytearray":8445,"Ġspeak":8446,"Area":8447,"BasicAuth":8448,"declarar":8449,"ĠCoffeeScene":8450,"ĠFullConnectionModel":8451,"queries":8452,"ä¼łåħ¥":8453,"ĠDecisionTreeClassifier":8454,"é»ĺè®¤":8455,"ĠStopIteration":8456,"Ġingresado":8457,"loudRendering":8458,"ĠTRUE":8459,"âķĲâķ":8460,"GGESTION":8461,"SLEEP":8462,"THEME":8463,"slashes":8464,"ĠnÃºmero":8465,"ReStringMatch":8466,"ReSubCallable":8467,"ĠVisioner":8468,"ĠNamedTemporaryFile":8469,"Ġconvertidos":8470,"è¯¯å·®":8471,"ALLPAPER":8472,"ĠThreadPoolExecutor":8473,"!'<":8474,"'m":8475,"*_":8476,"*\",":8477,"/.":8478,"46":8479,"800":8480,">\"<":8481,">``.<":8482,"BAL":8483,"Bold":8484,"Cor":8485,"Driver":8486,"Float":8487,"HH":8488,"HKEY":8489,"KG":8490,"Now":8491,"New":8492,"PS":8493,"Pick":8494,"PALE":8495,"RITE":8496,"Some":8497,"Sao":8498,"Scal":8499,"Split":8500,"Speed":8501,"TEXT":8502,"UBE":8503,"WER":8504,"What":8505,"When":8506,"WHEEL":8507,"[_":8508,"_|\\":8509,"aist":8510,"aich":8511,"best":8512,"bathroom":8513,"blake":8514,"ctrl":8515,"dst":8516,"dar":8517,"dumb":8518,"gin":8519,"gid":8520,"gwin":8521,"have":8522,"hidden":8523,"iÃ":8524,"iro":8525,"kh":8526,"lon":8527,"lle":8528,"mro":8529,"mtree":8530,"magent":8531,"ospitall":8532,"rodu":8533,"rill":8534,"sen":8535,"tage":8536,"tType":8537,"tech":8538,"uuid":8539,"wintypes":8540,"xkey":8541,"yRe":8542,"³ĦìĤ°":8543,"¸æĪ":8544,"ÅŁ":8545,"ç³»ç»Ł":8546,"è´":8547,"ë°":8548,"ìŀħëĭĪëĭ¤":8549,"Ġer":8550,"Ġuri":8551,"ĠÎĶ":8552,"ĢâĶ":8553,"ıĲ":8554,"Łå¤±":8555,"orn":8556,"inates":8557,"inicial":8558,"ret":8559,"retries":8560,"lood":8561,"(\"[\"":8562,"ldflags":8563,"alcul":8564,"tips":8565,"fragment":8566,"helpl":8567,"Ġimporting":8568,"Ġcc":8569,"Ġcid":8570,"Ġcwd":8571,"Ġcfg":8572,"heets":8573,"meg":8574,"members":8575,"Ġpadding":8576,"Ġpolic":8577,"Ġfoo":8578,"Ġfactor":8579,"ito":8580,"Ġrecomm":8581,"Ġremembers":8582,"urinhas":8583,"ged":8584,"iced":8585,"distrib":8586,"dify":8587,"Ġ\":":8588,"esel":8589,">#:":8590,"otui":8591,"ĠTH":8592,"olation":8593,"uno":8594,"unit":8595,"unique":8596,"unused":8597,"filas":8598,"--<":8599,"Ġmd":8600,"Ġmixed":8601,"Ġmarkers":8602,"Ġ'*":8603,"Ġ()<":8604,"Ġrgb":8605,"Ġtoday":8606,"ĠNon":8607,"ĠNUM":8608,"ĠCur":8609,"ĠCandidates":8610,"ĠCrossEntropy":8611,"ĠCreating":8612,"ĠScreen":8613,"apq":8614,"apture":8615,"ĠPix":8616,"ĠPWM":8617,"ĠAt":8618,"Ġvari":8619,"Ġvowels":8620,"Ġintrodu":8621,"about":8622,"abstract":8623,"abbox":8624,"ĠLexer":8625,"forgot":8626,"Ġdispose":8627,"igmo":8628,"namespaces":8629,"()),<":8630,"()``,":8631,"Ġ__|":8632,"ĠIT":8633,"const":8634,"Ġsever":8635,"uide":8636,"('{}":8637,"Ġ<!":8638,"----<":8639,"ros":8640,"Ġgu":8641,"Ġgasto":8642,"Ġglibc":8643,"ĠDB":8644,"ĠDUR":8645,"umask":8646,"ummy":8647,"ĠFill":8648,"ĠFlood":8649,"Ġ_*_":8650,"yscrap":8651,"matrix":8652,"ctype":8653,"Ġhour":8654,"Ġhold":8655,"Ġhospitall":8656,"agram":8657,"soSer":8658,"Ġlr":8659,"filepost":8660,"aives":8661,"ĠMUSIC":8662,"ĠBecause":8663,"ached":8664,"question":8665,"versions":8666,"Ġear":8667,"ĠRenderable":8668,"Ġtrange":8669,"Ġtransport":8670,"outp":8671,"outfile":8672,"ConnectTimeoutError":8673,"ĠVt":8674,"ĠVaccines":8675,"Ġmean":8676,"Ġunless":8677,"ĠHE":8678,"ĠHOR":8679,"ĠpathTo":8680,"Ġchunks":8681,"Ġarm":8682,"area":8683,"HES":8684,"Ġabspath":8685,"Ġprivate":8686,"ĠWRITE":8687,"ĠWaist":8688,"readable":8689,"readthe":8690,"quite":8691,"=\"#":8692,"Ġunderlying":8693,"ExtType":8694,"SIsoSer":8695,"potify":8696,"Ġsuppres":8697,"PIP":8698,"...<":8699,"akref":8700,"Ġtexto":8701,"TTE":8702,"Ġdefaults":8703,"Ġ440":8704,"Ġ4500":8705,"authusers":8706,"Std":8707,"backport":8708,"Ġchecker":8709,"ĠPyOpenSSL":8710,"testset":8711,"DOC":8712,"Ġcollect":8713,"params":8714,"Ġtempd":8715,"Union":8716,"Ġspeed":8717,"ĠJOG":8718,"ĠBaseSpecifier":8719,"Ġespaco":8720,"Memory":8721,"Ġ\\__":8722,"([[":8723,"ential":8724,"Ġspecifiers":8725,"numbers":8726,"Ġmaxsize":8727,"Ġyourformatter":8728,"LOBAL":8729,"IDF":8730,"TRAN":8731,"\"].":8732,"åĪ«":8733,"Ġserial":8734,"Ġtreebuilders":8735,"Ġ2002":8736,"Ġminuto":8737,"{}\".":8738,"depend":8739,"Semantic":8740,"Ġcombin":8741,"Ġrepresentative":8742,"Ġå¡«åħħ":8743,"ĠĠĠĠĠĠĠĠĠĠĠĠĠĠĠĠĠĠĠĠĠĠĠĠĠĠĠĠĠĠĠĠĠĠĠĠĠĠĠĠĠĠĠĠĠĠĠĠĠĠĠĠĠ":8744,"ADATA":8745,"ĠKdatabase":8746,"saved":8747,"ĠFileList":8748,"ĠFileController":8749,"sliced":8750,"ĠMessageType":8751,"IOError":8752,"åħ³":8753,"Ġoverflow":8754,"Ġheapq":8755,"svc":8756,"hashlib":8757,"ĠStringBuilder":8758,"HTTPWarning":8759,"systemWheel":8760,"Ġ~~~~~~~~~~~~~~~~~<":8761,"IIII":8762,"ToImage":8763,"elementTree":8764,"BuildSystem":8765,"Ġwebdriver":8766,"rtf":8767,"Ġ-->":8768,"Ġê³ĦìĤ°":8769,"ParseResults":8770,"ĠHTMLInput":8771,">`.<":8772,">`_<":8773,"ĠChen":8774,"ILLEGAL":8775,"Ġdonate":8776,"ĠConfigOption":8777,"ializers":8778,"ĠCacheValue":8779,"ensitively":8780,"impl":8781,"nodeType":8782,"good":8783,"autoend":8784,"ĠFoundCandidates":8785,"ĠFoundLinks":8786,"quality":8787,"HASHES":8788,"Server":8789,"mediaLibrary":8790,"âĶĢâĶ":8791,"Ġtkvideo":8792,"ingleByte":8793,"xmlrpc":8794,"orityQueue":8795,"Ġpypa":8796,"ĠSSLError":8797,"revctrl":8798,"Iterate":8799,"ColorTuple":8800,"Ġtransforms":8801,"LinkSource":8802,"Ġgrad":8803,"securetransport":8804,"Ġtarinfo":8805,"æİ§åĪ¶":8806,"PlatformDirs":8807,"overload":8808,"Ġplaylist":8809,"ootstrap":8810,"ĠTLSv":8811,"ĠTodoSerializer":8812,"ChildNodes":8813,"OUTUBE":8814,"expand":8815,"CONTROL":8816,"Ġgoals":8817,"Ġdefinitions":8818,"Ġsuggdb":8819,"Algor":8820,"ĠPacket":8821,"BLUE":8822,"Ġregexes":8823,"COMPAT":8824,"+)\"')<":8825,"Ġautoenddb":8826,"playlists":8827,"Define":8828,"Ġmonth":8829,"(\"\")<":8830,"connectionpool":8831,"ONGO":8832,"ĠUnpacker":8833,"Ġquoted":8834,"tidas":8835,"ĠfreeGPIOListenerPins":8836,"Ġreporting":8837,"completion":8838,"Ġë°°ì":8839,"blueprint":8840,"================================":8841,"Ġheading":8842,"Ġgretest":8843,"ĠMAIN":8844,"éŁ³ä¹Ĳæĸĩä»¶è·¯å¾Ħ":8845,"å°ı":8846,"standing":8847,"=\"\")<":8848,"ĠSocketError":8849,"SCHEMES":8850,"ascade":8851,"Ġhora":8852,"ĠCodec":8853,"Ġëį°ìĿ´íĦ°ë¥¼":8854,"papel":8855,"Ġë³´ë":8856,"('\\\\')":8857,"ĠDIR":8858,"donate":8859,"ĠStepper":8860,"ĠDataset":8861,"Ġ`-'":8862,"ĠGameState":8863,"Ġgnuize":8864,"Ġgnuized":8865,"ounded":8866,"Ġcalculate":8867,"raises":8868,"Ġmoradores":8869,"Ġsurlist":8870,"ĠUDSIsoSer":8871,"Ġfrontend":8872,"EMERGENCY":8873,"Ġpicotui":8874,"ĠSecureTransport":8875,"éĿ¢":8876,"çĽ®åīį":8877,"ä¼ĺåĮĸ":8878,"éĥ¨":8879,"forcelist":8880,"ĠcommunicationLTD":8881,"Ġcompletion":8882,"BASIC":8883,"æĽ´":8884,"Ġcookie":8885,"éĢŁåº¦":8886,"åľºæĻ¯çļĦ":8887,"Failure":8888,"galResponse":8889,"æ¸¸æĪ":8890,"Ġaccomplish":8891,"æł¼å¼ı":8892,"recognizedFormat":8893,"Latin":8894,"_*_<":8895,"ĠACTION":8896,"PALETTE":8897,"Scaler":8898,"aichia":8899,"darwin":8900,"iÃ³":8901,"llegalResponse":8902,"magenta":8903,"rillic":8904,"helpline":8905,"Ġrecommended":8906,"uniqueID":8907,"ĠNUMBER":8908,"ĠCandidatesFromPage":8909,"abstractproperty":8910,"abboxes":8911,"igmoid":8912,"Ġseveral":8913,"ĠDUROU":8914,"ĠHORA":8915,"ĠpathToName":8916,"readthedocs":8917,"Ġsuppressed":8918,"ĠJOGO":8919,"BuildSystemDetails":8920,"ĠHTMLInputStream":8921,"ĠConfigOptionParser":8922,"ingleByteChar":8923,"PlatformDirsABC":8924,"ĠUDSIsoServices":8925,"æ¸¸æĪı":8926,"!!":8927,"!\"<":8928,"\"):":8929,"\"])":8930,")/":8931,"+<":8932,"+\\":8933,".)<":8934,"/'<":8935,"41":8936,"82":8937,"=\"\"\"":8938,"={}":8939,">>":8940,">\"\"\")<":8941,"Bound":8942,"CAL":8943,"Dim":8944,"Equal":8945,"Graph":8946,"HW":8947,"History":8948,"ILS":8949,"LP":8950,"LU":8951,"Mon":8952,"Men":8953,"Protocol":8954,"Red":8955,"RUN":8956,"RGB":8957,"Telegram":8958,"Will":8959,"WARNING":8960,"ZipFile":8961,"]])":8962,"_%":8963,"asp":8964,"ba":8965,"button":8966,"cd":8967,"cpython":8968,"certifi":8969,"dry":8970,"family":8971,"ging":8972,"gallia":8973,"imple":8974,"job":8975,"need":8976,"pk":8977,"pv":8978,"ped":8979,"sage":8980,"say":8981,"uce":8982,"}/":8983,"¡ë":8984,"£Į":8985,"¶Ī":8986,"æĿ":8987,"æ¦Ĥ":8988,"èı":8989,"ìĸ":8990,"Ġâķ":8991,"Ġç±»":8992,"Ĩ¡ë":8993,"Ĭłè½½":8994,"ļä¹ī":8995,"ľåįķ":8996,"orld":8997,"order":8998,"insecure":8999,"></":9000,"erts":9001,"ernel":9002,"ons":9003,"Ġtail":9004,"Ġtake":9005,"see":9006,"Ġage":9007,"Ġamount":9008,"Ġaway":9009,"Ġsol":9010,"dest":9011,"tir":9012,"arily":9013,"Ġpure":9014,"Ġplain":9015,"Ġfh":9016,"Ġfit":9017,"Ġfix":9018,"Ġreplac":9019,"getr":9020,"Ġbranch":9021,"edGraph":9022,"Ġ\"'":9023,">####":9024,"oll":9025,"olated":9026,"uname":9027,"ersist":9028,"Ġ(-":9029,"Ġrank":9030,"updated":9031,"ipes":9032,"thImage":9033,"ĠNorm":9034,"ternal":9035,"getTreeWalker":9036,"ĠCopy":9037,"ĠCalled":9038,"ĠSpin":9039,"ĠSph":9040,"ĠSimple":9041,"Ġduration":9042,"ĠPATH":9043,"Ġintranges":9044,"ĠLe":9045,"ĠIssue":9046,"cons":9047,"comments":9048,"istants":9049,"Ġ27":9050,"tplib":9051,"Ġgid":9052,"ĠFORMATTERS":9053,"ĠOption":9054,"Ġexcluded":9055,"ĠUsage":9056,"Ġlon":9057,"Ġ*_":9058,"server":9059,"serialize":9060,"ĠMS":9061,"ĠBL":9062,"ĠBrand":9063,"Ġemp":9064,"ĠRGB":9065,"Initi":9066,"Integer":9067,"imary":9068,"ĠEnum":9069,"Ġwhitespace":9070,"ĠRemove":9071,"timezone":9072,"pyc":9073,"ĠHere":9074,"ĠHAS":9075,"Ġshare":9076,"splitext":9077,"ORITE":9078,"Ġarr":9079,"ĠConstraint":9080,"ĠWill":9081,"underline":9082,"Ġtimes":9083,"ffine":9084,"Ġ@_":9085,"poss":9086,"iteria":9087,"ĠGo":9088,"DEO":9089,"DEV":9090,"Ġruns":9091,"COUN":9092,"processError":9093,"UTILS":9094,"ĠStart":9095,"Ġleave":9096,"Studio":9097,"Ġplugin":9098,"itive":9099,"Ġwriting":9100,"DOUT":9101,"Ġcollection":9102,"UnexpectedNegativeResponse":9103,"Ġinstallations":9104,"640":9105,"Ġkernel":9106,"åıª":9107,"åı¯":9108,"without":9109,"Ġìŀ":9110,"Ġglobally":9111,"LOCAL":9112,"issue":9113,"BaseCache":9114,"\"][":9115,"Ġterm":9116,"creating":9117,"{}\\\"":9118,"encoded":9119,"Ġ100000":9120,"Ġcomments":9121,"ConfigParser":9122,"ĠEntry":9123,"ĠåĬłè½½":9124,"Ġ'./":9125,"Ġzipimport":9126,"scanner":9127,"Ġdeleted":9128,"voices":9129,"âĢ¦":9130,"ĠfieldOfView":9131,"Ġlooks":9132,"TELEGRAM":9133,"ĠZip":9134,"ç»Ħ":9135,"ç»ĵ":9136,"ĠChr":9137,"outputs":9138,"Ġvalidate":9139,"Shift":9140,"})\".":9141,"ĠDistributionVersion":9142,"æľįåĬ¡":9143,"viously":9144,"Ġchanges":9145,"rotli":9146,"vars":9147,"enience":9148,"QtWidgets":9149,"QtCore":9150,"record":9151,"Ġpyplot":9152,"Ġtraining":9153,"Ġseparators":9154,"Ġproperly":9155,"fontface":9156,"æłĩ":9157,"Ġside":9158,"Ġtransform":9159,"SubMethod":9160,"ĠĠĠĠĠĠĠĠĠĠĠĠĠĠĠĠĠĠĠĠĠĠĠĠĠĠĠĠ":9161,"è¾¹":9162,"è¿Ļ":9163,"Requires":9164,"ĠUnicodeDecodeError":9165,"StreamWriter":9166,"SOCKS":9167,"VIDEO":9168,"dots":9169,"Ġ----------------------------------------------------------------":9170,"å½ķ":9171,"Ġutilities":9172,"åıĺéĩı":9173,"384":9174,"ĠService":9175,"ĠAuthInfo":9176,"assertEqual":9177,"Ġprimary":9178,"ĠmyData":9179,"ĠCelery":9180,"ĠreferenceMatrix":9181,"SUPPORTED":9182,"-------<":9183,"æİ¥åı£":9184,"Ġsmtplib":9185,"msvccompiler":9186,"uctur":9187,"ICEAC":9188,"Ġå®ļä¹ī":9189,"ĠDirectedGraph":9190,"nonadmin":9191,"bugs":9192,"likelihood":9193,">#################################################################":9194,"Ġ\\\"{}\\\"":9195,"endencyWarning":9196,"ĠInteraction":9197,"Ġoriginally":9198,"Ġregardless":9199,"DepthImage":9200,"ProcessError":9201,"mlinks":9202,"SERVICEAC":9203,"Ġevaluate":9204,"Ġ\"?\"<":9205,"ĠContainer":9206,"ä¼ĺåĮĸåĻ¨":9207,"Dimensions":9208,"RUNTIME":9209,"æ¦Ĥçİĩ":9210,"èıľåįķ":9211,"Ĩ¡ë£Į":9212,"getroot":9213,"ĠCalledProcessError":9214,"ĠSpinner":9215,"ĠSphinx":9216,"COUNT":9217,"Ġ\\\"{}\\\"'.":9218,"SERVICEACCOUNT":9219,"']:<":9220,"'>)<":9221,"'``).<":9222,"(['":9223,")``":9224,")])<":9225,")**":9226,")://\",":9227,".]*":9228,"1024":9229,"530":9230,"560":9231,"750":9232,"=\\":9233,"=_":9234,"=(),":9235,">'":9236,">]":9237,"?\\":9238,"AI":9239,"Act":9240,"Cs":9241,"Cour":9242,"Csv":9243,"Cooki":9244,"Em":9245,"FER":9246,"GAT":9247,"GIT":9248,"LAL":9249,"MULT":9250,"MBER":9251,"NAB":9252,"Nao":9253,"PACK":9254,"Prop":9255,"RT":9256,"Recurs":9257,"Secure":9258,"Top":9259,"Upper":9260,"].*":9261,"aste":9262,"circu":9263,"dr":9264,"ds":9265,"drop":9266,"eign":9267,"fac":9268,"given":9269,"hi":9270,"hyp":9271,"hind":9272,"ior":9273,"iet":9274,"ktop":9275,"mm":9276,"mor":9277,"qq":9278,"rup":9279,"sqlalchemy":9280,"uste":9281,"vers":9282,"wallpaper":9283,"yi":9284,"}.":9285,"}')":9286,"¯æ":9287,"°ĥ":9288,"·ç§":9289,"ÃŃ":9290,"åĵį":9291,"çº":9292,"è°ĥ":9293,"ëħ":9294,"ĠìĿ´":9295,"Ġæĸĩä»¶":9296,"ĥĿ":9297,"Ħë":9298,"ĦçĲĨ":9299,"ĩĴ":9300,"Įģ":9301,"ĮæĪĲ":9302,"ĶìĿ´í":9303,"ĹĲ":9304,"Ļ¤":9305,"Ļĺ":9306,"orage":9307,"inplace":9308,"elect":9309,"resource":9310,"intranges":9311,"enar":9312,"Ġtask":9313,"oman":9314,"Ġwindow":9315,"(\"(?:":9316,"allow":9317,"ĠsMax":9318,"ĠsMin":9319,"desc":9320,"develop":9321,"armap":9322,"Ġpins":9323,"anis":9324,"anho":9325,"Ġrece":9326,"__\")<":9327,"acao":9328,"Ġbund":9329,"Ġbox":9330,"Ġ\",<":9331,"Ġ\"âĸĪ":9332,"ĠTerminal":9333,"Ġmusl":9334,"uest":9335,"adapter":9336,"Ġforeign":9337,"ĠCustom":9338,"ĠCounter":9339,"ĠSize":9340,"ĠScan":9341,"ĠSkip":9342,"ĠSCHEME":9343,"Ġdummy":9344,"ĠPi":9345,"ĠAct":9346,"ams":9347,"ĠvMax":9348,"ĠvMin":9349,"Ġvars":9350,"classifiers":9351,"Ġintended":9352,"ĠLINE":9353,"forward":9354,"iglob":9355,"atever":9356,"()`":9357,"ully":9358,"chanis":9359,"Ġthrow":9360,"logy":9361,"ationError":9362,"Reaj":9363,"Ġ[(":9364,"prob":9365,"Ġganho":9366,"ĠDel":9367,"pathsep":9368,"ĠFinal":9369,"Ġhig":9370,"Ġexpos":9371,"Ġgetopt":9372,"Ġgetpass":9373,"ĠgetCsv":9374,"://\"<":9375,"agic":9376,"ĠUP":9377,"ĠMon":9378,"ĠManager":9379,"ĠBathroom":9380,"verify":9381,"Ġbehind":9382,"Ġtypically":9383,"owers":9384,"Ġprompt":9385,"osh":9386,"osname":9387,"020":9388,"ĠRPi":9389,"Installed":9390,"ĠEIGHT":9391,"Ġwhatever":9392,"eless":9393,"Ġencounter":9394,"userdb":9395,"ICAL":9396,"Ġmeant":9397,"Ġmechanis":9398,"RESP":9399,"RESET":9400,"REMOVE":9401,"iveTreeWalker":9402,"shal":9403,"arest":9404,"ĠConnectTimeoutError":9405,"ĠWork":9406,"ĠWHEEL":9407,"ĠWhitespace":9408,"Ġpret":9409,"Ġpreferred":9410,"attrs":9411,"Exit":9412,"CHEMY":9413,"ards":9414,"typed":9415,"='')<":9416,"ĠGNU":9417,"ĠmoduleFactoryFactory":9418,"axis":9419,"010":9420,"Ġalg":9421,"Ġaltern":9422,"specs":9423,"iving":9424,"berry":9425,"Ġappname":9426,"joinpath":9427,"NUMBER":9428,"Ġplugins":9429,"Ġdoing":9430,"Ġchecks":9431,"EXCL":9432,"ĠMemory":9433,"entrypoint":9434,"astian":9435,"Ġbuilder":9436,"Traceback":9437,"ĠJustifyMethod":9438,"Files":9439,"FileHandler":9440,"FileAttributes":9441,"')]<":9442,"')))<":9443,"Ġbackoff":9444,"Ġatexit":9445,"EPTIONS":9446,"covery":9447,"runtime":9448,"Ġspecification":9449,"BaseException":9450,"BaseSpecifier":9451,"ĠExceptions":9452,"Ġsomeone":9453,"ĠStyled":9454,"announ":9455,"Ġidentify":9456,"224":9457,"required":9458,"{}'.":9459,"LScheme":9460,"ABEL":9461,"Ġrelwidth":9462,"Ġrelheight":9463,"ĠEnsure":9464,"Ġåħ":9465,"ĠKitchen":9466,"worked":9467,"Ġæµĭ":9468,"Ġæ¯ı":9469,"Ġëĭ":9470,"Ġautocomplete":9471,"åħ¨":9472,"ĠThat":9473,"Ġwidths":9474,"Ġrenderables":9475,"Forward":9476,"checksum":9477,"ELL":9478,"delitem":9479,"Ġdepends":9480,"black":9481,"ness":9482,"Ġindic":9483,"Ġensures":9484,"Ġthreads":9485,"unknown":9486,"Ġreqs":9487,"Ġpercentual":9488,"ĠDetermines":9489,"æĶ¯æ":9490,"Ġworks":9491,"detector":9492,"Usage":9493,"å®¹":9494,"å®ŀçİ°":9495,"Ġresolver":9496,"nodes":9497,"Ġ...]<":9498,"Ġgroupby":9499,"æľ¬":9500,"Ġmoving":9501,"Ġproduct":9502,"Ġproduced":9503,"SUGGESTION":9504,"defining":9505,"Generates":9506,"PyPI":9507,"Ġxmlrpc":9508,"åĬ¨":9509,"åĬł":9510,"Ġ308":9511,"CRETE":9512,"disk":9513,"ĠíĮ":9514,"æĢ§":9515,"ipped":9516,"Ġgraph":9517,"SubprocessError":9518,"GPIOSender":9519,"ĠInputMedia":9520,"ĠInstallationSubprocessError":9521,"ä½įç½®":9522,"BGR":9523,"hours":9524,"StreamReader":9525,"ĠDataLoader":9526,"ĠModuleType":9527,"Ġsalario":9528,"Ġmanip":9529,"TIMEOUT":9530,"ĠNumPy":9531,"CONCRETE":9532,"ĠAbstractProvider":9533,"threading":9534,"ĠControlType":9535,"COMPLETE":9536,"ĠSerializer":9537,"Ġsigned":9538,"childNodes":9539,"Ġparticiple":9540,"åĪĨå¸ĥ":9541,"7498":9542,"ĠProxyError":9543,"HOW":9544,"ighbour":9545,"Ġë°Ľ":9546,"Ġestim":9547,"Ġstrips":9548,"\"^(":9549,"ĠPOSIT":9550,"memorydatabase":9551,"(?:[":9552,"AbstractDistribution":9553,"Layout":9554,"bootstrap":9555,"Ġë³Ģí":9556,"åĲİç¼":9557,"Address":9558,"çĽ¸åĲĮ":9559,"ĠExtType":9560,"ĠExtension":9561,"Ġ~~~~~~~~~~~~~~~~~~~~~~~~~<":9562,"Ġmorning":9563,"Ġpytg":9564,"SKIP":9565,"IncrementalDecoder":9566,"IncrementalEncoder":9567,"ĠIncrementalDecoder":9568,"ĠIncrementalEncoder":9569,"idiError":9570,"ativo":9571,"Ġfeeds":9572,"ĠSourceDistribution":9573,"Ġtabulate":9574,"semble":9575,"ĠrcdataElements":9576,"Ġspecifically":9577,"CRITICAL":9578,"Ġpairs":9579,"FedXGBoost":9580,"Ġnegativo":9581,"Ġnaturally":9582,"Ġmarshal":9583,"ĠNEGAT":9584,"ĠINFO":9585,"å±ŀ":9586,"Ġinstallable":9587,"Ġenvironments":9588,"å¾Ĺ":9589,"Ġowner":9590,"ĠActiv":9591,"ĠIntEnum":9592,"SQLAL":9593,"suggestion":9594,"EXCEPTIONS":9595,"TACT":9596,"IndividualSpecifier":9597,"ĠInvalidWheelFilename":9598,"pyttsx":9599,"NonRecurs":9600,"Ġissues":9601,"Ġnested":9602,"Ġnecessary":9603,"aspberry":9604,"consistent":9605,"Actual":9606,"Courier":9607,"Cookie":9608,"NABidiError":9609,"Property":9610,"åĵįåºĶ":9611,"ĶìĿ´íĬ¸":9612,"ĠTerminalTheme":9613,"Reajuste":9614,"Ġexposing":9615,"ĠgetCsvDataset":9616,"ĠBathroomScene":9617,"Ġencountered":9618,"RESPON":9619,"entrypoints":9620,"announce":9621,"LSchemeUnknown":9622,"ĠKitchenScene":9623,"Ġæµĭéĩı":9624,"æĶ¯æĮģ":9625,"GPIOSenderPins":9626,"ĠPOSITIVE":9627,"Ġë³ĢíĻĺ":9628,"åĲİç¼Ģ":9629,"ĠNEGATIVE":9630,"SQLALCHEMY":9631,"NonRecursiveTreeWalker":9632,"\"'":9633,"\"(?":9634,"#\")<":9635,"(\"\"\"<":9636,")).":9637,")\").":9638,",\"":9639,"-]*":9640,".\"))<":9641,"/...":9642,"150":9643,"456":9644,"66":9645,"87":9646,"97":9647,":**":9648,":].":9649,";<":9650,";').":9651,">`<":9652,">~~~~~~~~~~~~~~<":9653,"AU":9654,"Available":9655,"BB":9656,"Body":9657,"Case":9658,"Coin":9659,"CTR":9660,"CERT":9661,"DK":9662,"DLL":9663,"Empty":9664,"Gn":9665,"HSV":9666,"IA":9667,"KEL":9668,"Kalman":9669,"Lim":9670,"LABEL":9671,"MD":9672,"Microsoft":9673,"Normalized":9674,"Ordered":9675,"Ped":9676,"PAT":9677,"Part":9678,"PLA":9679,"PLAT":9680,"Ratio":9681,"Tube":9682,"Tensor":9683,"UI":9684,"Usted":9685,"Width":9686,"WALLPAPER":9687,"Za":9688,"[...,":9689,"_{":9690,"afe":9691,"bzip":9692,"broken":9693,"bansdb":9694,"cn":9695,"cu":9696,"categories":9697,"dger":9698,"ei":9699,"feed":9700,"fake":9701,"fetch":9702,"ghost":9703,"guess":9704,"hint":9705,"human":9706,"justify":9707,"mist":9708,"multiple":9709,"modern":9710,"mira":9711,"oom":9712,"pb":9713,"pay":9714,"phas":9715,"pull":9716,"person":9717,"pdu":9718,"published":9719,"rx":9720,"rcode":9721,"rks":9722,"rmtree":9723,"sz":9724,"synonyms":9725,"uation":9726,"vs":9727,"vis":9728,"xied":9729,"yo":9730,"}\",":9731,"¡Ĩ":9732,"¢ŀ":9733,"¥åħ":9734,"©ìŀ":9735,"¯åĲ¦":9736,"³å®ļ":9737,"µëĭĪëĭ¤":9738,"¶æķ":9739,"¸ë":9740,"ãĤ":9741,"åŁ":9742,"å¢ŀ":9743,"æ±Ĥ":9744,"æ¡Ĩ":9745,"ê¸":9746,"ìĭľ":9747,"Ġ]":9748,"Ġ]+":9749,"Ġerr":9750,"Ġ~~~~~~~~~~~~~~~<":9751,"Ĩåı":9752,"ĬµëĭĪëĭ¤":9753,"İĨåı":9754,"ĶĦë¡ľ":9755,"ĸè¾":9756,"ĺ¯åĲ¦":9757,"ļ©ìŀ":9758,"Ľç¨":9759,"ľìĿĺ":9760,"ĿìĪĺì":9761,"inp":9762,"infer":9763,"erature":9764,"reply":9765,"atten":9766,"student":9767,"sect":9768,"leSpeed":9769,"Ġahead":9770,"(\"]":9771,"(\"--":9772,"(\"########":9773,"alone":9774,"Ġsr":9775,"Ġsatis":9776,"Ġsandbox":9777,"Ġslice":9778,"tist":9779,"Ġcre":9780,"Ġcategory":9781,"arms":9782,"argest":9783,"Ġpo":9784,"Ġposs":9785,"Ġfalse":9786,"Ġfailed":9787,"Ġfash":9788,"Ġfounded":9789,"Ġrestr":9790,"Ġrefi":9791,"ssh":9792,"icsearch":9793,"Ġoth":9794,"acion":9795,"access":9796,"Ġnative":9797,"Ġnanoseconds":9798,"Ġbd":9799,"Ġblock":9800,"Ġinvoke":9801,"digit":9802,"direction":9803,"expr":9804,"exports":9805,"liant":9806,"otp":9807,"otor":9808,"otools":9809,"ectr":9810,"uni":9811,"unct":9812,"unded":9813,"unnel":9814,"fid":9815,"Ġ''.":9816,"Ġ(~":9817,"Ġran":9818,"upchannel":9819,"Ġforeground":9820,"Ġaname":9821,"Ġanim":9822,"ĠSH":9823,"ĠSyntax":9824,"isotp":9825,"Ġdos":9826,"ĠPer":9827,"ĠPass":9828,"ĠPattern":9829,"ĠPurposes":9830,"ĠAttributes":9831,"amd":9832,"ĠLookup":9833,"Ġdigits":9834,"ĠIpv":9835,"ulche":9836,"ublish":9837,"Ġsecurity":9838,"('/')<":9839,"Ġthree":9840,"001":9841,"002":9842,"Ġ234":9843,"Regex":9844,"Ġ[\\":9845,"etwork":9846,"Ġgbansdb":9847,"ĠDep":9848,"umen":9849,"ĠFL":9850,"ĠFast":9851,"ĠFernet":9852,"izes":9853,"parsed":9854,"agraph":9855,"Ġyet":9856,"Ġyear":9857,"Ġdevelop":9858,"Ġdetermin":9859,"ĠMo":9860,"ĠBB":9861,"ĠBut":9862,"setFormatter":9863,"anges":9864,"prepare":9865,"ERIA":9866,"scope":9867,"assignment":9868,"Information":9869,"InActive":9870,"found":9871,"#########<":9872,"okens":9873,"ĠEdu":9874,"ĠRepo":9875,"ĠRemote":9876,"texto":9877,"userbot":9878,"pyopenssl":9879,"ĠHKEY":9880,"REPLA":9881,"Ġabis":9882,"Ġprivatedb":9883,"ĠWinter":9884,"ĠWhat":9885,"Ġpreprocessor":9886,"Ġcompression":9887,"Ġcompressed":9888,"Ġitalic":9889,"Expi":9890,"Exists":9891,"SIMP":9892,"],[":9893,"minus":9894,"Ġnose":9895,"cachestr":9896,"cachepoints":9897,"ĠclassDict":9898,"Encode":9899,"Ġtextvariable":9900,"waist":9901,"whitespace":9902,"VersionError":9903,"URCE":9904,"Ġoutp":9905,"SLACK":9906,"Ġledger":9907,"####################":9908,"ITER":9909,"Ġformatted":9910,"backtrace":9911,"backslashes":9912,"csize":9913,"Ġplatlib":9914,"])):<":9915,"Ġwriter":9916,"Parameters":9917,"Partial":9918,"ĠparseFragment":9919,"Ġbuildsys":9920,"Unavailable":9921,"Ġspinner":9922,"ĠJugador":9923,"FileName":9924,"cational":9925,"ĠBaseSSLError":9926,"mainloop":9927,"lowercase":9928,"trainset":9929,"Requests":9930,"aching":9931,"IDD":9932,"VERIFY":9933,"Ġactive":9934,"Ġaccuracy":9935,"2231":9936,"matching":9937,"crete":9938,"ĠArms":9939,"CacheKey":9940,"ThisLim":9941,"tlePed":9942,"Ġdjangochat":9943,"Ġ'.'":9944,"haha":9945,"DIO":9946,"Prompt":9947,"ĠFileExists":9948,"GetConsole":9949,"GetStd":9950,"colorama":9951,"noise":9952,"Ġæĺ¯åĲ¦":9953,"åħ¬":9954,"ĠSoulche":9955,"objp":9956,"insensitively":9957,"111":9958,"filtername":9959,"ĠStringVar":9960,"HTTPConnectionPool":9961,"systemId":9962,"DataFrame":9963,"DataTrans":9964,"MENTS":9965,"CHANG":9966,"TEST":9967,"UNC":9968,"íķĺ":9969,"íķ©ê²©":9970,"Admission":9971,"ĠGenerate":9972,"Development":9973,"ĠChange":9974,"ĠChats":9975,"æĶ¶æķ":9976,"Ġsegundo":9977,"Contours":9978,"Show":9979,"hicleSpeed":9980,"ĠLinks":9981,"äºĮ":9982,"Direct":9983,"ĺìľ":9984,"Ġselected":9985,"rottlePed":9986,"precision":9987,"Ġneighbors":9988,"ĠProvides":9989,"Ġincludes":9990,"Video":9991,"TestCase":9992,"hexdigest":9993,"Ġfeature":9994,"firm":9995,"Height":9996,"sume":9997,"Ġseparated":9998,"generate":9999,"MessagePr":10000,"Ġjustify":10001,"Ġproperties":10002,"æł·":10003,"ĠíĶĦë¡ľ":10004,"flatten":10005,"ĠâĸĪâĸĪâĸĪâĸĪâĸĪâĸĪ":10006,"cheduler":10007,"Ġconsistent":10008,"(.*?)":10009,"respond":10010,"namespaceURI":10011,"ä¼°":10012,"Children":10013,"calcsize":10014,"ĠAppEngine":10015,"Ġutili":10016,"Ġ{}'.":10017,"REQUIRES":10018,"FunctionNotSupported":10019,"¬ìļ©ìŀ":10020,"itablePartial":10021,"ĠDecodeError":10022,"Ġcontributed":10023,"ĠRawCAN":10024,"Ġescribio":10025,"ĠescribiÃ³":10026,"aliases":10027,"Ġattempt":10028,"CEMENTS":10029,"Socket":10030,"SERVER":10031,"Ġoptimizer":10032,"optimize":10033,"ĠasciiUpper":10034,"Ġaccessible":10035,"Ġsimplejson":10036,"missionRange":10037,"BACKEND":10038,"12345678":10039,"Dock":10040,"Preprocessor":10041,"Ġquotation":10042,"priority":10043,"Ġdownloading":10044,"æĢģåĵįåºĶ":10045,"Ġfreeze":10046,"ĠLogLoss":10047,"separator":10048,"Ġturns":10049,"Ġcorrespond":10050,"ĠBinaryIO":10051,"ê°ľìĿĺ":10052,"convertTo":10053,"ĠSocketTimeout":10054,"åĲįç§°":10055,"Ġredirects":10056,"ìĪĺë¥¼":10057,"paca":10058,"å½¢å¼ı":10059,"}%\"<":10060,"çĽ¸åħ³":10061,"JSONPATH":10062,"ë¦Ħ":10063,"ĠStep":10064,"Ġconvention":10065,"publicId":10066,"ê·¸ë":10067,"Ġpyttsx":10068,"Ġarticle":10069,"buleano":10070,"å·¥åħ":10071,"InstallationCandidate":10072,"Async":10073,"volumen":10074,"å¹¶":10075,"likely":10076,">##########################################<":10077,"Ġasked":10078,"Ġinterpreters":10079,"åĨħå®¹":10080,"CRITERIA":10081,"ĠåĽ¾åĥı":10082,"ê³ł":10083,"ĠLoad":10084,"ĠLock":10085,"ĠëĤĺìĿ´ë¥¼":10086,"('%.":10087,"Conflicted":10088,"Ġdescribed":10089,"ĠìĤ¬ìļ©ìŀ":10090,"ĠDanIAdmission":10091,"Ġwildcards":10092,"æĹ¶":10093,"Ġrotation":10094,"Ġsecuretransport":10095,"ĠDiscontent":10096,"ë³Ģ":10097,"Ġgots":10098,"çĽ´æĸ¹":10099,"Impossible":10100,"ĠIPv":10101,"Scope":10102,"UPSTREAM":10103,"jmarotools":10104,"suffixes":10105,"Ġbegin":10106,"ĠinsertBefore":10107,"Ġrows":10108,"ĠFunction":10109,"ĠSplittingInfo":10110,"ðŁĺ±ðŁĺ±":10111,"DateTimeField":10112,"destroy":10113,"ĠPriorityQueue":10114,"providers":10115,"Ġattack":10116,"æīĵå¼Ģ":10117,"Ġderived":10118,"Ġliterals":10119,"ExchangeList":10120,"ĠíĻĺìľ":10121,"Ġerros":10122,"unittest":10123,"Ġintroduced":10124,"Ġmeaning":10125,"Algoritem":10126,"ingleByteCharSet":10127,"TracebackLexer":10128,"åĬ¨æĢģåĵįåºĶ":10129,"æĢ§åıĺå":10130,"consistentCandidate":10131,"45676":10132,"AUDIO":10133,"CTRL":10134,"PATTERN":10135,"Party":10136,"³å®ļæĢ§åıĺå":10137,"å¢ŀå¤§":10138,"ìĭľê°":10139,"İĨåı²":10140,"ĸè¾ĳ":10141,"Ľç¨³å®ļæĢ§åıĺå":10142,"Ġfashion":10143,"Ġrefiere":10144,"Ġothers":10145,"ectronic":10146,"unctuation":10147,"Ġanimation":10148,"InActiveSession":10149,"ĠEducational":10150,"REPLACEMENTS":10151,"Expired":10152,"ParametersInfo":10153,"ThisLimn":10154,"ĠFileExistsError":10155,"GetConsoleMode":10156,"GetStdHandle":10157,"ĠSoulchemist":10158,"DataTransmission":10159,"CHANGE":10160,"æĶ¶æķĽç¨³å®ļæĢ§åıĺå":10161,"rottlePedal":10162,"MessagePrio":10163,"ĠíĶĦë¡ľê·¸ë":10164,"ĠRawCANTransport":10165,"missionRangeNotIn":10166,"å·¥åħ·":10167,"ĠìĤ¬ìļ©ìŀĲ":10168,"ĠDanIAdmissionScene":10169,"ĠíĶĦë¡ľê·¸ëŀ":10170,"\"[-":10171,"((\"":10172,")^":10173,"*(":10174,"-_":10175,".\")":10176,"68":10177,"83":10178,"92":10179,":(":10180,":])<":10181,">}":10182,">----------------":10183,"?([^":10184,"AX":10185,"AVE":10186,"Box":10187,"Boost":10188,"Can":10189,"Cython":10190,"Cast":10191,"CATION":10192,"Deleg":10193,"FORMAT":10194,"HAND":10195,"IDE":10196,"JI":10197,"JustifyMethod":10198,"Linear":10199,"Location":10200,"Local":10201,"MS":10202,"Man":10203,"Multi":10204,"MONGO":10205,"NORM":10206,"OAUTH":10207,"QLAlchemy":10208,"Rout":10209,"Sample":10210,"Square":10211,"Select":10212,"Tool":10213,"Where":10214,"[(":10215,"[^":10216,"[{}":10217,"]\"":10218,"]\",<":10219,"clib":10220,"could":10221,"category":10222,"certs":10223,"dark":10224,"eil":10225,"fallback":10226,"gm":10227,"gres":10228,"groff":10229,"hf":10230,"hos":10231,"ire":10232,"iron":10233,"ikipedia":10234,"jy":10235,"jython":10236,"joy":10237,"kalman":10238,"lue":10239,"lugin":10240,"mark":10241,"myscrap":10242,"nally":10243,"nump":10244,"ospace":10245,"ptim":10246,"power":10247,"rst":10248,"rip":10249,"sul":10250,"similar":10251,"slash":10252,"tz":10253,"tcp":10254,"ussion":10255,"vant":10256,"windll":10257,"}(.*)\")<":10258,"¡çĲĨ":10259,"¸ª":10260,"½¬":10261,"Âł":10262,"åĿ":10263,"å±ĤçļĦ":10264,"æ¯":10265,"è¸ª":10266,"Ġ--------":10267,"Ġurls":10268,"Ġquite":10269,"Ġlikelihood":10270,"ĸçļĦ":10271,"inion":10272,"inspec":10273,"repository":10274,"recurs":10275,"atter":10276,"Ġtf":10277,"Ġtensor":10278,"omas":10279,"sec":10280,"leand":10281,"leave":10282,"alys":10283,"alabel":10284,"alpha":10285,"Ġsyste":10286,"Ġsiblings":10287,"dee":10288,"Ġcreating":10289,"Ġcaching":10290,"Ġceil":10291,"arri":10292,"Ġpur":10293,"Ġfg":10294,"Ġfancy":10295,"itect":10296,"Ġreported":10297,"Ġreports":10298,"urn":10299,"Ġob":10300,"\"\"\",<":10301,"acity":10302,"Ġnom":10303,"Ġbec":10304,"Ġbind":10305,"ente":10306,"expression":10307,"expires":10308,"lips":10309,">###":10310,"ĠTools":10311,"ĠTfidf":10312,"ecker":10313,"unc":10314,"Ġmute":10315,"Ġmulti":10316,"Ġmagic":10317,"###<":10318,"Ġ'(":10319,"Ġ'**":10320,"aders":10321,"cepts":10322,"tri":10323,"trust":10324,"Ġisolated":10325,"though":10326,"ĠCould":10327,"ĠCPU":10328,"ĠSlack":10329,"ĠSQLAlchemy":10330,"Ġdrop":10331,"Ġdlm":10332,"ĠPerr":10333,"ĠPalette":10334,"ĠAda":10335,"ĠAPP":10336,"amic":10337,"idom":10338,"asd":10339,"abe":10340,"ĠLa":10341,"Ġstrto":10342,"()).":10343,"()``<":10344,"chunk":10345,"chmod":10346,"conditions":10347,"consume":10348,"Ġsegments":10349,"('&":10350,"logits":10351,"0020":10352,"Ġ256":10353,"References":10354,"route":10355,"vem":10356,"Ġgpu":10357,"Ġ\"\"\"\\<":10358,"ĠDoc":10359,"ĠDIS":10360,"Ġxterm":10361,"iff":10362,"ĠOVER":10363,"Ġfilepath":10364,"Ġfilecmp":10365,"ibr":10366,"izing":10367,"Ġhigh":10368,"Ġhuman":10369,"Ġexternal":10370,"paration":10371,"ĠUN":10372,"solas":10373,"Ġdecomp":10374,"Ġdeep":10375,"Ġdecor":10376,"Ġdedent":10377,"Ġdesigned":10378,"Ġ*,":10379,"ENABLE":10380,"ĠMse":10381,"ĠMSV":10382,"ĠBe":10383,"ĠBuffer":10384,"ĠBroken":10385,"ĠBecker":10386,"Ġ{:.":10387,"prefs":10388,"Ġprovid":10389,"Ġtriple":10390,"ĠEMO":10391,"ĠEmpty":10392,"ĠReading":10393,"ĠVendor":10394,"ONLY":10395,"elevant":10396,"ĠInherit":10397,"ĠIntro":10398,"ĠUnknown":10399,"Ġuds":10400,"Ġmetrics":10401,"Ġunhexlify":10402,"Ġ360":10403,"ouse":10404,"ĠHook":10405,"ĠHandle":10406,"ĠHSV":10407,"Ġchoose":10408,"Ġchoices":10409,"splitlines":10410,"gray":10411,"vedReferences":10412,"Ġpretty":10413,"Ġprepare":10414,"Ġpreparation":10415,"ynamic":10416,"ANY":10417,"ious":10418,"ffee":10419,"ExtraData":10420,"LEAVE":10421,"posed":10422,"Ġsupposed":10423,"Ġnoise":10424,"Ġnoinspec":10425,"ensity":10426,"ĠGit":10427,"cacheable":10428,"dating":10429,"datasets":10430,"Ġnumeric":10431,"addMenu":10432,"rency":10433,"Encoding":10434,"Ġalter":10435,"Ġalph":10436,"wrapped":10437,"Ġ/<":10438,"Ġbases":10439,"VersionControl":10440,"ĠStoll":10441,"monkey":10442,"Ġcovariant":10443,"127":10444,"Ġdouble":10445,"ä¸²":10446,"ä¸ĭ":10447,"Ġsubdirs":10448,"\"))":10449,"ĠPyUn":10450,"ĠMedia":10451,"Ġwrapping":10452,"Ġassertion":10453,"Ġassignment":10454,"supports":10455,"astSquare":10456,"Ġcacheable":10457,"Try":10458,"Ġshouldn":10459,"UDSRequest":10460,"Ġinternally":10461,"Ġkitchen":10462,"redenti":10463,"reduce":10464,"coord":10465,"çļĦåĽ¾çīĩ":10466,"entities":10467,"document":10468,"Ġscope":10469,"Ġglobals":10470,"RequestWarning":10471,"Ġendpoints":10472,"hashed":10473,"ongo":10474,"aused":10475,"Ġgenerator":10476,"Ġplatformdirs":10477,"ĠSetup":10478,"ĠHTTPHeaderDict":10479,"Ġacross":10480,"Ġaccepts":10481,"Ġtreewalker":10482,"Ġidentifi":10483,"Ġdatos":10484,"Ġreads":10485,"cial":10486,"ABASE":10487,"(((":10488,"Ġcomma":10489,"Ġcurrency":10490,"NAO":10491,"ĠEncap":10492,"Ġentries":10493,"ĠKenneth":10494,"treebuilder":10495,"ĠThomas":10496,"cmdline":10497,"Ġdocuments":10498,"Ġoverwrite":10499,"Ġhelpers":10500,"svg":10501,"Ġregion":10502,"ĠYork":10503,"]]]<":10504,"ConsoleFe":10505,"HTTPConnection":10506,"HTTPHeaderDict":10507,"Ġè½¬":10508,"Ġ~~~~~~~~~~~~~~~~~~~<":10509,"renderDepthImage":10510,"ĠlanguageCB":10511,"Ġ\".\".":10512,"MAP":10513,"Ġhandled":10514,"ĠDefaultDict":10515,"ç»ı":10516,"åĽ¾":10517,"åĽĽ":10518,"Dee":10519,"TokenFormatter":10520,"postgres":10521,"cases":10522,"})'<":10523,"Ġresolved":10524,"Ġ...,":10525,"Ġ...]:<":10526,"]+\")<":10527,"ĠRobin":10528,"}]*)":10529,"resolvedReferences":10530,"Ġblend":10531,"ĠTrain":10532,"Ġdebugging":10533,"makefile":10534,"Ġkeeping":10535,"ictions":10536,"Ġtransl":10537,"Checks":10538,"capit":10539,"(\\(.*":10540,"éĩĮ":10541,"PATHS":10542,"cpu":10543,"MODEL":10544,"tokens":10545,"ĠCompat":10546,"æİ¨":10547,"Ġconnections":10548,"7895":10549,"Ġtracks":10550,"SizeEnum":10551,"Arch":10552,"SVC":10553,"Ġtables":10554,"calls":10555,"([^}]*)":10556,"Ġutime":10557,"2015":10558,"CONTENT":10559,"åľ°":10560,"ĠWindowsConsoleFe":10561,"385":10562,"Ġredact":10563,"ĠLinearSVC":10564,"Ġexpect":10565,"ĠYouTube":10566,"Ġnetbox":10567,"_.]+\")<":10568,"Ġhexlify":10569,"Ġè®Ńç»ĥ":10570,"Ġç¬¬":10571,"Ġlowercase":10572,"ĠQuan":10573,"DATABASE":10574,"Ġmonotonic":10575,"Ġmonospace":10576,"*)\\":10577,"positions":10578,"ĠHelp":10579,"ĠHeller":10580,"Ġ\"/\"":10581,"ĠAuthentication":10582,"assertTrue":10583,"ĠCandidateLookup":10584,"cookie":10585,"Ġgremio":10586,"ĠMAX":10587,"Ġestab":10588,"StackError":10589,"Record":10590,"walkers":10591,"Ġwalking":10592,"Ġaiofiles":10593,"Ġcorners":10594,"Ġknows":10595,"Ġthroughout":10596,"genshi":10597,"Ġlyr":10598,"ĠWritten":10599,"Ġspecifying":10600,"ç®¡çĲĨ":10601,"ĠPaddingDimensions":10602,"ĠLayerParam":10603,"ByIdentifier":10604,"è§Ĥ":10605,"Ġrecursion":10606,"ĠFraction":10607,"ĠDatasets":10608,"ĠPetSizeEnum":10609,"Normalize":10610,"SHORT":10611,"Web":10612,"ĠHeaders":10613,"âĢĶâĢĶ":10614,"ĠParserElement":10615,"ĠUDSException":10616,"cleanup":10617,"çĬ¶æĢģåıĺéĩı":10618,">`_.<":10619,"decimal":10620,"Ġphone":10621,"ĠEdge":10622,"Ġbarcode":10623,"Ġhacked":10624,"ĠHashMismatch":10625,"Transform":10626,"å¼Ģå§ĭ":10627,"Ġipaddress":10628,"lapse":10629,"exclusions":10630,"AttributeError":10631,"autoreset":10632,"ĠKeys":10633,"protected":10634,"ĠXCPService":10635,"PhotoImage":10636,")?$":10637,"éĹŃ":10638,"TOML":10639,"Ġsimply":10640,"ĠSupportsInt":10641,"æį¢æĪĲåĪĨå¸ĥ":10642,"(\"{([^}]*)":10643,"REGEX":10644,"Ġchessboard":10645,"ĠVotingClassifier":10646,"ĠDevStudio":10647,"Ġinstantiate":10648,"NEWS":10649,"ĠEmojiVariant":10650,"Ġcounts":10651,"ChunkLength":10652,"dependent":10653,"Ġë°°ìĨ¡ë£Į":10654,"seek":10655,"ĠLeastSquare":10656,"ĠEntryPoint":10657,"Ġ-------------------------------------------------------------------<":10658,"Ġåħ³":10659,"Kalmanæ»¤æ³¢":10660,"ĠDependencyWarning":10661,"ĠRemoteNotFoundError":10662,"\"[-_.]+\")<":10663,"ToolBar":10664,"[{}]":10665,"ironpython":10666,"sulates":10667,"Ġtensorflow":10668,"Ġsystems":10669,"itecture":10670,"Ġbecome":10671,"lipsis":10672,"ĠTfidfVector":10673,"Ġdlmath":10674,"ĠPerry":10675,"ĠAdaBoost":10676,"Ġstrtobool":10677,"consumes":10678,"ĠDocument":10679,"ĠMSVCCompiler":10680,"Ġproviding":10681,"ĠEMOJI":10682,"ĠIntroScene":10683,"ĠHookMissing":10684,"Ġnoinspection":10685,"Ġalphabe":10686,"ĠPyUnresolvedReferences":10687,"redentials":10688,"ĠEncapsulates":10689,"ĠWindowsConsoleFeatures":10690,"(\"{([^}]*)}(.*)\")<":10691,"ĠLeastSquareLoss":10692,"$\",":10693,"%+":10694,"(%":10695,"(('-":10696,")\",<":10697,")),<":10698,")):":10699,")}\"<":10700,"+{":10701,"+':<":10702,",(":10703,"-{":10704,".:":10705,"/\")<":10706,"08":10707,"132":10708,"360":10709,"69":10710,"822":10711,"874":10712,":\",":10713,";'":10714,">âģĥâģĥâģĥâģĥâģĥâģĥâģĥâģĥâģĥâģĥâģĥâģĥâģĥâģĥâģĥâģĥ":10715,"@-":10716,"AF":10717,"AG":10718,"Atras":10719,"ACCEPT":10720,"Bit":10721,"BNC":10722,"Clean":10723,"Camera":10724,"CDATA":10725,"Capture":10726,"Dom":10727,"Draw":10728,"EC":10729,"EV":10730,"Eix":10731,"ELS":10732,"Fal":10733,"Fig":10734,"Fib":10735,"FOR":10736,"FRA":10737,"Fetch":10738,"Gif":10739,"GMENT":10740,"Green":10741,"GLOBAL":10742,"GUI":10743,"HU":10744,"Hi":10745,"IR":10746,"IV":10747,"IllegalResponse":10748,"Jar":10749,"Let":10750,"MOT":10751,"MMENT":10752,"MIDD":10753,"NOT":10754,"NOF":10755,"Naives":10756,"Ow":10757,"ODD":10758,"PM":10759,"Pers":10760,"Pango":10761,"Pager":10762,"Rich":10763,"RENT":10764,"RenderResult":10765,"Root":10766,"Rangoli":10767,"Sound":10768,"SSION":10769,"Sprite":10770,"TP":10771,"Term":10772,"Vu":10773,"WG":10774,"Word":10775,"XFrame":10776,"XCP":10777,"YES":10778,"ZEN":10779,"_,":10780,"_/":10781,"_]\\":10782,"bb":10783,"bli":10784,"bio":10785,"bidi":10786,"car":10787,"cing":10788,"cam":10789,"cos":10790,"cgi":10791,"dic":10792,"ders":10793,"dtype":10794,"em":10795,"give":10796,"gasol":10797,"hone":10798,"house":10799,"jack":10800,"lls":10801,"linha":10802,"nfc":10803,"pang":10804,"rn":10805,"sb":10806,"sor":10807,"skip":10808,"sprite":10809,"tforms":10810,"twine":10811,"uz":10812,"uer":10813,"uas":10814,"uctions":10815,"ven":10816,"vic":10817,"vos":10818,"wer":10819,"wap":10820,"xterm":10821,"zma":10822,"zio":10823,"}},<":10824,"¢å¤į":10825,"©è§":10826,"¸ìļ":10827,"¿«":10828,"íĴ":10829,"ĠìĿ":10830,"ĠåĪĿå§ĭåĮĸ":10831,"Ġä»¥":10832,"Ġataque":10833,"Ġä¿ĿåŃĺ":10834,"ĠåĪĹè¡¨":10835,"Ġä¼łåħ¥":10836,"Ġhelpline":10837,"Ģê²©":10838,"ģè®":10839,"Ħ¸ìļ":10840,"ĪìĿĺ":10841,"īæĭ":10842,"įç§»":10843,"Ĵèī²":10844,"ĸ¼":10845,"ina":10846,"ino":10847,"instead":10848,"inho":10849,"inja":10850,"inners":10851,"inÎ±":10852,"erno":10853,"rename":10854,"resize":10855,"remap":10856,"repe":10857,"mplot":10858,"Ġ=\"":10859,"attle":10860,"ensemble":10861,"price":10862,"mportar":10863,"lose":10864,"Ġtc":10865,"Ġtit":10866,"Ġtwine":10867,"omarkup":10868,"omeless":10869,"Ġwxkey":10870,"Ġwtforms":10871,"segments":10872,"leading":10873,"Ġace":10874,"Ġalabel":10875,"alise":10876,"alcool":10877,"aluno":10878,"Ġsf":10879,"Ġsay":10880,"Ġslic":10881,"Ġsending":10882,"Ġswap":10883,"frase":10884,"Ġimporter":10885,"Ġcas":10886,"Ġcarr":10887,"Ġcpu":10888,"Ġcwords":10889,"arded":10890,"Ġpi":10891,"Ġpil":10892,"Ġpull":10893,"Ġpurposes":10894,"Ġfac":10895,"Ġfoot":10896,"itow":10897,"itos":10898,"ityn":10899,"Ġreally":10900,"Ġreached":10901,"__)":10902,"__`":10903,"___/":10904,"uts":10905,"uting":10906,"utch":10907,"Ġnull":10908,"Ġbon":10909,"Ġbol":10910,"Ġbug":10911,"Ġbathroom":10912,"deflate":10913,"entro":10914,"Ġinstr":10915,"Ġincluding":10916,"diesel":10917,"lave":10918,"edu":10919,"excel":10920,"exchange":10921,"extraction":10922,"oted":10923,"ĠTAR":10924,"ĠTEXT":10925,"ĠTelegram":10926,"ĠTanh":10927,"undefined":10928,"fila":10929,"Ġmf":10930,"Ġmi":10931,"Ġ':<":10932,"Ġ'))<":10933,"Ġ'+':<":10934,"ueprint":10935,"Ġ(/":10936,"adas":10937,"ipy":10938,"ipython":10939,"Ġfora":10940,"trape":10941,"odConfig":10942,"than":10943,"ĠNB":10944,"ĠNO":10945,"getChildNodes":10946,"ĠCA":10947,"ĠCreated":10948,"ĠSat":10949,"ĠSigmoid":10950,"ĠSuer":10951,"ĠSlave":10952,"islower":10953,"spinners":10954,"Ġdt":10955,"Ġdump":10956,"Ġduas":10957,"Ġdentro":10958,"ĠPoint":10959,"ĠPLAY":10960,"identity":10961,"Ġvery":10962,"Ġvez":10963,"ashes":10964,"Ġintention":10965,"abling":10966,"ĠLAB":10967,"ĠLoss":10968,"ĠLBRACK":10969,"ĠLimit":10970,"fora":10971,"Ġdif":10972,"Ġdiff":10973,"Ġ150":10974,"Ġstride":10975,"kills":10976,"andBG":10977,"Ġ___":10978,"Ġ+<":10979,"ĠIs":10980,"ĠItems":10981,"ulli":10982,"('#":10983,"Ġconfid":10984,"ationFunction":10985,"007":10986,"commit":10987,"isting":10988,"Ġ23":10989,"proc":10990,"illi":10991,"Ġground":10992,"Ġgroff":10993,"ĠDom":10994,"ĠDTC":10995,"Ġxshape":10996,"ĠFollow":10997,"ĠFlat":10998,"Ġ_`":10999,"izers":11000,"jectBuild":11001,"Ġhours":11002,"Ġheroku":11003,"Ġexcl":11004,"Ġextraction":11005,"://``":11006,"again":11007,"ĠUS":11008,"Ġyt":11009,"quees":11010,"Ġdevice":11011,"aiyi":11012,"Ġ*********":11013,"serializers":11014,"ĠMY":11015,"ĠMust":11016,"ĠBU":11017,"ĠBZ":11018,"ĠBasic":11019,"ĠBox":11020,"ĠBleach":11021,"ĠBootstrap":11022,"ĠBerno":11023,"undant":11024,"Ġelim":11025,"urlToImage":11026,"Ġnameprep":11027,"figurinha":11028,"Ġbest":11029,"Ġstarg":11030,"Ġstderr":11031,"ERMAN":11032,"maker":11033,"MusicLibrary":11034,"codec":11035,"scente":11036,"vival":11037,"ĠRBRACK":11038,"ĠRangoli":11039,"ĠRPM":11040,"imo":11041,"ĠEC":11042,"ĠEpoch":11043,"ĠEven":11044,"Convert":11045,"ĠVAI":11046,"ĠIncompleteRead":11047,"ĠUnix":11048,"Ġulabel":11049,"Ġuvic":11050,"Ġmes":11051,"Ġmet":11052,"dataBase":11053,"Ġunexpected":11054,"Ġunknown":11055,"ĠHX":11056,"ĠHold":11057,"ĠHighlighter":11058,"pective":11059,"Ġardu":11060,"arehouse":11061,"Ġarea":11062,"ĠWarehouse":11063,"Ġpreference":11064,"quar":11065,"Ġweakref":11066,"=\"(\\":11067,"Ġunderstand":11068,"ffff":11069,"Ġ`__":11070,"song":11071,"LEWARE":11072,"ResponseException":11073,"solve":11074,"='\\":11075,"ĠGET":11076,"labelt":11077,"labeler":11078,"***<":11079,"ATWG":11080,"STEM":11081,"Ġalgorith":11082,"Ġalthough":11083,"special":11084,"Ġlogtools":11085,"URVI":11086,"Ġiterator":11087,"Ġ40":11088,"Ġ427":11089,"Ġletras":11090,"):.":11091,"click":11092,"Ġ|-":11093,"Ġ|/":11094,"Ġ|__":11095,"Ġ|_<":11096,"Static":11097,"monotonic":11098,"Ġ5000":11099,"Ġ503":11100,"ITAL":11101,"waitKey":11102,"Ġformatdate":11103,"NULL":11104,"Ġcomportar":11105,"1235":11106,"csrf":11107,"distort":11108,"\")]<":11109,"ALLED":11110,"Ġsao":11111,"EXEC":11112,"regular":11113,"ĠPyPi":11114,"simple":11115,"Ġassistant":11116,"Ġassume":11117,"Ġnewline":11118,"UnrecognizedFormat":11119,"Undistort":11120,"Ġrenders":11121,"ĠJust":11122,"ourceCache":11123,"FileWrapper":11124,"SetReader":11125,"expectedResponse":11126,"ansitow":11127,"subject":11128,"substring":11129,"Ġescap":11130,"Medi":11131,"ASK":11132,"ĠìĥĿ":11133,"ĠXZ":11134,"Ġscipy":11135,"Ġ\"\")<":11136,"Ġ\"\"))<":11137,"otherfile":11138,"Ġbreakpoint":11139,"RequestError":11140,"Ġmaximo":11141,"Ġsomefile":11142,"Ġsomeotherfile":11143,"COMPRE":11144,"\"],<":11145,"[:]<":11146,"åĪłé":11147,"ĠSetFileAttributes":11148,"ĠHTTPAdapter":11149,"angulo":11150,"Ġdatasets":11151,"Ġreading":11152,"Ġ2005":11153,"contextj":11154,"contexto":11155,"platforms":11156,"Ġmatched":11157,"Ġ600":11158,"Ġtokenizer":11159,"locshow":11160,"Ġlabelt":11161,"179":11162,"Ġconverting":11163,"feito":11164,"giao":11165,"Ġentradas":11166,"ä»İ":11167,"ä»ĸçļĦ":11168,"Ġ72":11169,"Ġå°":11170,"ĠåĨ":11171,"ĠQApplication":11172,"Ġ'.'.":11173,"Ġlaz":11174,"ĠKaichia":11175,"Compat":11176,"Provide":11177,"ProjectBuild":11178,"lothes":11179,"ĠFilesystemWheel":11180,"*******<":11181,"Ġlinked":11182,"Ġcovered":11183,"Ġposicao":11184,"ĠæıĲ":11185,"åħ±":11186,"åħģè®":11187,"ĠThen":11188,"contenttypes":11189,"filenames":11190,"USES":11191,"ìĿ´ì":11192,"OptionsMiddleware":11193,"Ġhess":11194,"news":11195,"newList":11196,"BOLD":11197,"ĠYOU":11198,"Ġoptionally":11199,"imglbl":11200,"InvalidCodepoint":11201,"Ġ~~~~~~~~~~~~~~~~~~~~~~~~~~~~~~~<":11202,"...\")<":11203,"Ġ800":11204,"Ġ8000":11205,"CHANN":11206,"Ġlocshow":11207,"ĠattributeMap":11208,"Ġlooked":11209,"MAGENTA":11210,"Installer":11211,"Installing":11212,"gnb":11213,"regexes":11214,"Ġsessionmaker":11215,"ĠGenerator":11216,">`_.":11217,"Ġperc":11218,"Ġperfeito":11219,"Deja":11220,"ILINE":11221,"Ġtherefore":11222,"ufft":11223,"detect":11224,"404":11225,"ĠAPIs":11226,"Ġ\"\\\"":11227,"ushort":11228,"Ġmov":11229,"ertificates":11230,"RAY":11231,"cyrillic":11232,"fully":11233,"Ġlocations":11234,"Ġpickling":11235,"SessionMiddleware":11236,"PREV":11237,"FOUND":11238,"}]\"<":11239,"Ġ99":11240,"Ġcalibr":11241,"GenerationFailed":11242,"WNER":11243,"Minimum":11244,"PyProjectBuild":11245,"ĠColorSystem":11246,"TRIANGULO":11247,"OPTIONS":11248,"Funcs":11249,"IMPORT":11250,"Wrap":11251,"hexversion":11252,"Heuristic":11253,"ĠsystemId":11254,"]*[":11255,"generated":11256,"MessageMiddleware":11257,"events":11258,"staticfiles":11259,"OLLOW":11260,"ĠParameters":11261,"çĶ¨äºİ":11262,"SubFuncs":11263,"awnser":11264,"Ġusages":11265,"CURRENT":11266,"ĠResponseError":11267,"SONG":11268,"ä½įç§»":11269,"290":11270,"PlatformWarning":11271,"å¯¼":11272,"Ġplaymode":11273,"Ġmaps":11274,">``\"\"\"<":11275,"ĠDataLoss":11276,"ĠDataSetReader":11277,"ViewMiddleware":11278,"gumentDefaultsHelpFormatter":11279,"ĠREQUIRE":11280,"USAGE":11281,"éĢļ":11282,"éĢīæĭ":11283,"ĠTemplate":11284,"ReadTimeoutError":11285,"æĸ¹ç¨ĭ":11286,"CYAN":11287,"MissingWarning":11288,"Ġgood":11289,"Ġgoogle":11290,"Ġ(_|":11291,"Ġlocalrev":11292,"Document":11293,"Ġredo":11294,"Ġredundant":11295,"2728":11296,"Ġsuggest":11297,"operations":11298,"StartTag":11299,"Ġpositivos":11300,"MarkupFormatter":11301,"Ġextracting":11302,"Ġkeywords":11303,"azing":11304,"rfViewMiddleware":11305,"ĠStrings":11306,"ĠStructure":11307,"StateError":11308,"WHATWG":11309,"predicted":11310,"Ġentrypoints":11311,"ĠGenericMeta":11312,"Ġoptimizers":11313,"Defect":11314,"combiner":11315,"åĪĿå§ĭåĮĸå¯¹è±¡":11316,"(\"\".":11317,"Double":11318,"åį·ç§":11319,"Ġcleanup":11320,"valores":11321,"ĠTimeoutStateError":11322,"Ġrecogn":11323,"Ġvirtual":11324,"cookielib":11325,"Ġdecimal":11326,"ĠReads":11327,"Ġprimo":11328,"Recogn":11329,"å°Ķ":11330,"Ġbrands":11331,"Activityn":11332,"eaf":11333,"åĽ¾å±Ĥ":11334,"æīĢæľīåľºæĻ¯çļĦ":11335,"çŁ©å½¢":11336,"APPS":11337,"Nearest":11338,"Neighbour":11339,"ĠPOST":11340,"(\"/\",":11341,"Importer":11342,"roffFormatter":11343,"Layer":11344,"Layers":11345,"SecurityMiddleware":11346,"Valores":11347,"å»ºæ¨¡":11348,"saxutils":11349,"tmpl":11350,"Ġpersons":11351,"Ġê°Ģê²©":11352,"Ġ'-')))<":11353,"ĠShift":11354,"ĠSNIMissingWarning":11355,"ĠDIFF":11356,"Ġparticularly":11357,"ĠMetadataGenerationFailed":11358,"placas":11359,"Ġå®ŀçİ°":11360,"dentro":11361,"communicationLTD":11362,"Ġdeprecations":11363,"Ġdigito":11364,"Ġdigital":11365,"Ġencodings":11366,"UnpackException":11367,"UnpackValueError":11368,"Feb":11369,"Formerly":11370,"PipSession":11371,"brands":11372,"InstallationResult":11373,"096":11374,"ĠBlueprint":11375,"Ġentities":11376,"CommonMiddleware":11377,">~~~~~~~~~~~~~~~~~~~<":11378,"collapse":11379,"Ġsuffixes":11380,"Ġterminals":11381,"Logo":11382,"ĠrenameFiles":11383,"Ġdirecao":11384,"Ġnatural":11385,"Ġmarquees":11386,"ĠNEWS":11387,"ĠCallbackFileWrapper":11388,"ĠSpecific":11389,"ĠPrivate":11390,"Ġengineering":11391,"ĠmediaLibraryManager":11392,"mongodb":11393,"ValidationError":11394,"Ġdescribing":11395,"YourFormatter":11396,"ĠìĤ¬":11397,"ĠDanIInterviewScene":11398,"è¡Įäºº":11399,"EmojiVariant":11400,"ĠKeep":11401,"Ġfigurinha":11402,"Ġfigurinhas":11403,"Ġ365":11404,"linenos":11405,"@@@":11406,"pguser":11407,"entlyUsed":11408,"ĠCOMMENT":11409,"INSTALL":11410,"INSTALLED":11411,"ĠInsecureRequestWarning":11412,"ĠInsecurePlatformWarning":11413,"Ġreferencing":11414,"Ġreferenced":11415,"ĠBGMService":11416,"443":11417,"Packer":11418,"}'\".":11419,"Ġdeclarative":11420,"åĽ¾åĥıè·¯å¾Ħ":11421,"Ġsuccessfully":11422,"UrlValidationError":11423,"tfFormatter":11424,"Ġsources":11425,"ĠOutput":11426,"ĠMala":11427,"ĠMainGUI":11428,"ĠEverytime":11429,"STATUSES":11430,"Ġìĭľë¦¬ì":11431,"ĠæĮĩå®ļåħģè®":11432,"ĠSUPPORTED":11433,"ĠWebDriver":11434,"ìĥģíĴ":11435,"Ĭ½è±¡":11436,"ĠpublicId":11437,"ĠDiagnosticSessionControlResponse":11438,"CLEAR":11439,"UDSException":11440,"dlp":11441,"ä¾Ľ":11442,"çī©":11443,"Ġroutines":11444,"ĠLOWER":11445,"Ġhalf":11446,"Ġdevpi":11447,"äºĭçī©":11448,"Ġç³»ç»Łå»ºæ¨¡":11449,"AuthenticationMiddleware":11450,"_|\\__,":11451,"ĠÎĶt":11452,"Łå¤±åĩ½æķ°":11453,"ĠTHAT":11454,"Ġ<!--------":11455,"Ġhospitallngs":11456,"Ġearly":11457,"ĠHEAD":11458,"TRANSL":11459,"xmlrpclib":11460,"Ġë³´ëĤ":11461,"('\\\\')[":11462,"æ¸¸æĪıä¸»":11463,"Menlo":11464,"pkgs":11465,"Ġsolve":11466,"Ġ*_:":11467,">#############################################################################":11468,"CsrfViewMiddleware":11469,"MULTILINE":11470,"Toplevel":11471,"circulo":11472,"hyphen":11473,"ietf":11474,"moradores":11475,"çº§":11476,"ĮæĪĲæīĢæľī":11477,"Ġbundle":11478,"ĠActually":11479,"Ġthrowing":11480,"ĠMono":11481,"Ġmechanisms":11482,"Ġalternative":11483,"ĠMemoryWheel":11484,"Ġindicating":11485,"Ġpytgcalls":11486,"FedXGBoostTree":11487,"ĠActivationFunction":11488,"CookieJar":11489,"publishedAt":11490,"RegexLexer":11491,"ĠFastAPI":11492,"Delegate":11493,"LocationValueError":11494,"Ġ--------><":11495,"triangulo":11496,"ĠVendorImporter":11497,"datingDefaultsHelpFormatter":11498,"ĠMediaLibraryManager":11499,"UDSRequestConfig":11500,"è§Ĥæµĭ":11501,"WebEngine":11502,"(('-'.":11503,"Atraso":11504,"EVEN":11505,"Eixo":11506,"Figure":11507,"FRAGMENT":11508,"HUB":11509,"IVATE":11510,"Letters":11511,"MOTOR":11512,"MIDDLEWARE":11513,"NOFOLLOW":11514,"Perspective":11515,"WordUnicode":11516,"XFrameOptionsMiddleware":11517,"blique":11518,"camel":11519,"cosÎ±":11520,"jacking":11521,"pangomarkup":11522,"©è§Ĵèī²":11523,"Ħ¸ìļĶ":11524,"repetidas":11525,"Ġtitans":11526,"Ġaceitos":11527,"Ġsliced":11528,"Ġcasas":11529,"Ġfacil":11530,"Ġinstructions":11531,"trapezio":11532,"ĠSuerte":11533,"ĠLABELS":11534,"Ġdiffers":11535,"Ġconfidence":11536,"ĠFlatten":11537,"against":11538,"Ġ****************<":11539,"ĠBernoulli":11540,"Ġstargazing":11541,"ERMANENT":11542,"Ġuvicorn":11543,"ĠHolds":11544,"Ġarduino":11545,"Ġalgorithms":11546,"URVIVAL":11547,"clickjacking":11548,"ITALIC":11549,"Ġcomportaram":11550,"ansitowin":11551,"ĠìĥĿìĦ±":11552,"COMPRESSION":11553,"åĪłéĻ¤":11554,"ĠæıĲä¾Ľ":11555,"CHANNEL":11556,"DejaVu":11557,"Ġcalibration":11558,"PyProjectBuildRequires":11559,"ĠDataLossWarning":11560,"éĢīæĭ©è§Ĵèī²":11561,"Activitynum":11562,"Ġê°Ģê²©ìĿĦ":11563,"entlyUsedContainer":11564,"Ġìĭľë¦¬ìĸ¼":11565,"ĠæĮĩå®ļåħģè®¸":11566,"ĠWebDriverWait":11567,"ìĥģíĴĪìĿĺ":11568,"\"%":11569,"\"(":11570,"\"(?:\\":11571,"'])":11572,")'":11573,")\",":11574,")'<":11575,"+(\\":11576,"+-]":11577,",)":11578,"-*.":11579,"24":11580,"234":11581,"403":11582,"448":11583,"79":11584,":{":11585,":]}":11586,";\").":11587,"=[\"":11588,"?)<":11589,"@\").":11590,"Am":11591,"Block":11592,"CS":11593,"Cur":11594,"CEL":11595,"Certificate":11596,"Counter":11597,"Des":11598,"Dartboard":11599,"Discord":11600,"EEX":11601,"FD":11602,"FORM":11603,"FPS":11604,"Gui":11605,"GINE":11606,"Highlight":11607,"HMax":11608,"Item":11609,"IBLE":11610,"JK":11611,"John":11612,"MU":11613,"Mac":11614,"Msg":11615,"Make":11616,"Murderer":11617,"Power":11618,"Raise":11619,"RIGHT":11620,"RBRACKET":11621,"RPAREN":11622,"Sex":11623,"SMax":11624,"Sandbox":11625,"Todo":11626,"Title":11627,"Timer":11628,"TADATA":11629,"UU":11630,"VMax":11631,"VORITE":11632,"Way":11633,"ZeroOrMore":11634,"[]\")<":11635,"_.\")<":11636,"aabboxes":11637,"affine":11638,"bf":11639,"bet":11640,"bpath":11641,"bund":11642,"bca":11643,"basename":11644,"care":11645,"fec":11646,"gular":11647,"ju":11648,"lstrip":11649,"ny":11650,"nan":11651,"pc":11652,"pets":11653,"polic":11654,"rack":11655,"railroad":11656,"sid":11657,"some":11658,"sandbox":11659,"ua":11660,"uec":11661,"witch":11662,"xff":11663,"za":11664,"zil":11665,"¤åı·":11666,"¥½":11667,"¬¦":11668,"°æį®":11669,"´é":11670,"»åıĸ":11671,"¼âĶ":11672,"Ã¡":11673,"æ¬":11674,"çı":11675,"èİ·":11676,"éĽ":11677,"éľĢ":11678,"ìľ":11679,"Ġort":11680,"Ġlow":11681,"Ġ),":11682,"Ġ])<":11683,"Ġ],<":11684,"Ġeditable":11685,"Ġ~~~~~~~~~~~~~~<":11686,"ĦìĿĺ":11687,"Ĳ\",":11688,"ĵåĲį":11689,"ķ°æį®":11690,"ľèī²":11691,"ľâĶĢâĶ":11692,"Ŀå®":11693,"ŀæİ¥":11694,"Ńçº§":11695,"orated":11696,"orarily":11697,"increment":11698,"rew":11699,"report":11700,"Ġia":11701,"Ġie":11702,"orth":11703,"enge":11704,"engin":11705,"primary":11706,"Ġtt":11707,"Ġtails":11708,"Ġtreated":11709,"Ġtunnel":11710,"leine":11711,"Ġalen":11712,"Ġamong":11713,"(\"(\"":11714,"(\"\\\\":11715,"(\">=":11716,"(\")\").":11717,"(\";\").":11718,"(\"@\").":11719,"aler":11720,"alter":11721,"Ġsid":11722,"tice":11723,"Ġcython":11724,"Ġcenter":11725,"Ġcategories":11726,"hem":11727,"heet":11728,"arity":11729,"mean":11730,"Ġpare":11731,"Ġpublish":11732,"Ġflex":11733,"Ġfresh":11734,"Ġfmt":11735,"itelist":11736,"italic":11737,"Ġresources":11738,"__))<":11739,"Ġbo":11740,"Ġbunch":11741,"Ġbrotli":11742,"defs":11743,"entype":11744,"Ġinsensitive":11745,"diag":11746,"lared":11747,"Ġ\"(":11748,"ecode":11749,"oltage":11750,"unnamed":11751,"--[":11752,"Ġmarker":11753,"Ġmsvc":11754,"Ġdefects":11755,"Ġ(:":11756,"Ġ(((":11757,"mental":11758,"Ġrfc":11759,"Ġisdir":11760,"ĠisEmpty":11761,"odoc":11762,"Ġ#<":11763,"Ġanalys":11764,"Ġangular":11765,"ĠCall":11766,"ĠCatch":11767,"ĠCalcul":11768,"ĠSIG":11769,"ĠSelection":11770,"ĠSpeed":11771,"ĠSDK":11772,"Ġdartboard":11773,"ĠPic":11774,"ĠPDU":11775,"ĠAT":11776,"idam":11777,"assemb":11778,"ĠLEX":11779,"andard":11780,"())(\"":11781,"ĠImplements":11782,"('',":11783,"('%(":11784,"Ġprinted":11785,"Ġconstraint":11786,"allenge":11787,"Ġ230":11788,"Ref":11789,"Reject":11790,"Reset":11791,"Reparse":11792,"Remove":11793,"Registry":11794,"roi":11795,"Ġgc":11796,"Ġgreate":11797,"Ġguide":11798,"Ġ\"\"\"``":11799,"ĠDownload":11800,"pathitems":11801,"ĠFe":11802,"ĠOver":11803,"ĠOverflowMethod":11804,"ctor":11805,"izable":11806,"ĠhMax":11807,"Ġexha":11808,"Ġexclusion":11809,"``:<":11810,"parsing":11811,"ĠUNI":11812,"ureTree":11813,"filecontroller":11814,"Ġdeinit":11815,"ENGINE":11816,"ĠMan":11817,"ĠMCC":11818,"ĠBot":11819,"ĠBastian":11820,"Ġelen":11821,"Ġelectronic":11822,"setTrackbarPos":11823,"setProperty":11824,"SEMICOLON":11825,"Ġparagraph":11826,"prefer":11827,"urlpatterns":11828,"Ġstale":11829,"interface":11830,"gsheets":11831,"maintain":11832,"maintenance":11833,"Ġproc":11834,"quiet":11835,"Ġeager":11836,"ĠRBRACKET":11837,"ĠRPAREN":11838,"ĠRSS":11839,"ĠRaspberry":11840,"ĠRanges":11841,"INSER":11842,"iteon":11843,"Intr":11844,"Instance":11845,"InFileName":11846,"fold":11847,"founded":11848,"ĠEquality":11849,"ĠReplace":11850,"ĠsetUp":11851,"ĠInstan":11852,"ĠInstead":11853,"Ġmeasure":11854,"dataFrame":11855,"Ġunn":11856,"Ġ33":11857,"Ġ301":11858,"Ġ3600":11859,"Ġpygsheets":11860,"Ġlisting":11861,"keyword":11862,"Ġpathname":11863,"RETR":11864,"RESH":11865,"Ġjugador":11866,"Ġshown":11867,"Resolution":11868,"\":\"":11869,"short":11870,"Ġcanny":11871,"TypeRegistry":11872,"PEER":11873,"ĠContext":11874,"grad":11875,"grading":11876,"grade":11877,"ĠWH":11878,"modified":11879,"appendChild":11880,"Ġcompilers":11881,"uda":11882,"udrate":11883,"ffset":11884,"ffects":11885,"ĠPythonVersion":11886,"ĠhasChildren":11887,"iterkeys":11888,"Ġloaded":11889,"STALL":11890,"Ġclassname":11891,"METADATA":11892,"Ġrunpy":11893,"akyRe":11894,"Ġalpaca":11895,"Ġlogits":11896,"Ġapplying":11897,"Ġroi":11898,"epat":11899,"Ġfilesize":11900,"ĠStandard":11901,"Ġdatefmt":11902,"Ġcoord":11903,"123":11904,"Ġplus":11905,"envbuild":11906,"ä¸Ĭ":11907,"\")(\"":11908,"argtypes":11909,"tempo":11910,"tempt":11911,"templates":11912,"ĠPyPy":11913,"alizing":11914,"okenizer":11915,"ENTITY":11916,"Ġupgrading":11917,"KeyBasedCompareMixin":11918,"Ġbuilds":11919,"Unable":11920,"NotAvailable":11921,"Ġspam":11922,"ĠJoy":11923,"FileCache":11924,"LTokenizer":11925,"Ġargv":11926,"messageContent":11927,"Ġtoklist":11928,"alsImage":11929,"ferenc":11930,"coffee":11931,"posix":11932,"runAnd":11933,"Ġscale":11934,"Ġscaler":11935,"FAVORITE":11936,"numeric":11937,"104":11938,"RequestHistory":11939,"Ġmaximal":11940,"Ġending":11941,"Ġsomehow":11942,"ĠInvalidMarker":11943,"Ġfinder":11944,"auses":11945,"Ġhashable":11946,"Ġacc":11947,"Ġidx":11948,"Ġidle":11949,"Ġidentic":11950,"Ġmaster":11951,"ĠCommands":11952,"221":11953,"Ġreader":11954,"ĠArch":11955,"locals":11956,"Ġdicts":11957,"feature":11958,"Ġ()))<":11959,"IdList":11960,"Ġentropy":11961,"Ġneedles":11962,"ĠKleine":11963,"))]<":11964,"ControlType":11965,"ControlCode":11966,".*',":11967,"treeType":11968,"Ġæ¨¡":11969,"ĠæļĤ":11970,"Ġæķ°æį®":11971,"resizable":11972,"Ġdepth":11973,"objs":11974,"Ġstats":11975,"playtype":11976,"ĠResolver":11977,"imgPath":11978,"ĠRequestMethods":11979,"PYPI":11980,"InvalidMarker":11981,"DataBase":11982,"replacements":11983,">)(\"_":11984,"...\\":11985,"Ġ1234":11986,"bars":11987,"ĠForward":11988,"CHINE":11989,"ESCA":11990,"THRESH":11991,"ĠSOL":11992,"MACHINE":11993,"tokenizer":11994,"NAMED":11995,"ĠChoice":11996,"ClassVar":11997,"NIST":11998,"Short":11999,"ĠParseFloat":12000,"Ġdiscontinued":12001,"å®ŀ":12002,"Ġfiltername":12003,"Ġusersdb":12004,"]+\\":12005,"Ġacts":12006,"Ġverb":12007,"Ġvertical":12008,"1500":12009,"cygwin":12010,"Ġinitialization":12011,"Diagram":12012,"Ġstanding":12013,"Ġstandalone":12014,"Ġchanged":12015,"varfmt":12016,"ĠLegacySpecifier":12017,"ĠRegression":12018,"âĶĤ":12019,"QtGui":12020,"localtime":12021,"localhost":12022,"Pygments":12023,"PyChain":12024,"tended":12025,"graphic":12026,"rective":12027,"columns":12028,"Ġauthentic":12029,"Ġauthuserdb":12030,"ĠDirection":12031,"ĠKeyBasedCompareMixin":12032,"ĠUnsupportedExtension":12033,"ĠGetting":12034,"sumed":12035,"CREATE":12036,"hographic":12037,"refresh":12038,"sendto":12039,"transforms":12040,"HookMissing":12041,"æĢ§åĪ":12042,"ç±»åŀĭ":12043,"Ġgrid":12044,"quotes":12045,"Applied":12046,"ĠImageFont":12047,"ĠImageDraw":12048,"ĠĠĠĠĠĠĠĠĠĠĠĠĠĠĠĠĠĠĠĠĠĠĠĠĠĠĠĠĠĠ":12049,"theta":12050,"fnmatch":12051,"è®¡":12052,"è®¾":12053,"å§ĵåĲį":12054,"è¿ŀæİ¥":12055,"8601":12056,"tokentype":12057,"ä½ĵ":12058,"STRONG":12059,"overwrite":12060,"å¯Ŀå®":12061,"namespaceHTMLElements":12062,"Ġtrackbars":12063,"SOURCE":12064,"normalizer":12065,"Ġcapture":12066,"kinds":12067,"ĠApple":12068,"åŃ¦åı·":12069,"ĠSEMICOLON":12070,"Ġgoes":12071,"ĠTreeNode":12072,"operador":12073,"Ġchatsdb":12074,"HTMLParser":12075,"Ġexpval":12076,"Album":12077,"Ġqueryset":12078,"Ġexitcode":12079,"+)*\\":12080,"LeakyRe":12081,"dayInFileName":12082,"Ġnetwork":12083,"Ġstdlib":12084,"ĠjoinString":12085,"Ġsignature":12086,"ĠasciiLetters":12087,"EXTRA":12088,"ĠQuoted":12089,"é¢ĺ":12090,"é¢ľèī²":12091,"combining":12092,"123445676":12093,"Author":12094,"cards":12095,"Ġmacosx":12096,"Ġquote":12097,"Detector":12098,"ĠYukkiBot":12099,"monofont":12100,"MyMainWindow":12101,"Ġesta":12102,"aligned":12103,"Activation":12104,"\"^\\":12105,"(\"-_.\")<":12106,"APPENGINE":12107,"Neighbors":12108,"æŀĦ":12109,"Ġsudoersdb":12110,"Ġ\"âĸĲ\",":12111,"567812345678":12112,"discover":12113,"bounds":12114,"LegacySpecifier":12115,"disabled":12116,"=[('":12117,"ĠâĶľâĶĢâĶ":12118,"ByAddress":12119,"AddTh":12120,"Backend":12121,"196":12122,"mingju":12123,"utcnow":12124,"ĠPetKind":12125,"ĠPetSex":12126,"Ġconvenience":12127,"NormalsImage":12128,"Ġchunked":12129,"PipError":12130,"å·®":12131,"Ġrefresh":12132,"çŁ©éĺµçļĦ":12133,"Matcher":12134,"surrogate":12135,"å¹´é":12136,"ĠTypically":12137,"ĠNAMED":12138,"å¸¸":12139,"Ġè¿ĶåĽŀ":12140,"\"[^":12141,"Percentual":12142,"Ġoptsep":12143,"ĠPARTY":12144,"Ġcondic":12145,"ĠMissingResponse":12146,"ĠEditablePartial":12147,"=\",\",":12148,"Ġquirks":12149,"ĠINSTALL":12150,"ĠMyWidgets":12151,".*?\\":12152,"Ġregarding":12153,"ĠRegionDock":12154,"Validator":12155,"ĠBadCommand":12156,"iversal":12157,"æĹłé":12158,"Ġrotate":12159,"lineno":12160,"tablename":12161,"yourDiscord":12162,"éĹ´":12163,"ĠRecord":12164,"ĠRequirements":12165,"irdParty":12166,"ĠResolutionImpossible":12167,"confstr":12168,"Ġdeclaration":12169,"schedu":12170,"Programming":12171,"(\",\").":12172,"Ġmarks":12173,"Ġeffect":12174,"ĠUndefinedComparison":12175,"ĠUndefinedEnvironmentName":12176,"Ġconfigured":12177,"UndefinedComparison":12178,"UndefinedEnvironmentName":12179,"ĠBackendInvalid":12180,"ĠBackendUnavailable":12181,"ĠâĶĤâĶĤ":12182,"AlignMethod":12183,"restype":12184,"Ġrandint":12185,"ĠEMERGENCY":12186,"Ġè¯»åıĸ":12187,"setWindowTitle":12188,"LEXER":12189,"bestSplit":12190,"longest":12191,"(\"[\").":12192,"ĠCurrent":12193,"ĠAttempt":12194,"Ġvariants":12195,"Ġguard":12196,"matrixFile":12197,"ĠVaccinesApplied":12198,"SemanticSegmentation":12199,"Ġplaylistdb":12200,"expanduser":12201,"COMPATIBLE":12202,"ìĸ´ë":12203,"ĠNormalize":12204,"Initialize":12205,"possibly":12206,"enarate":12207,"uestion":12208,"ĠDelcare":12209,"å±ŀäºİ":12210,"visible":12211,"åŁº":12212,"Ġ]+\")(\"":12213,"(\"]\").":12214,"Ġsatisfy":12215,"Ġcreates":12216,"EncodeError":12217,"PromptType":12218,"ä¼°è®¡":12219,"ĠAppEngineManager":12220,"Ġcorresponding":12221,"çĽ´æĸ¹åĽ¾":12222,"å·¥åħ·æłı":12223,"æİ¨çĲĨ":12224,"Ġdumps":12225,"Ġå°Ĩ":12226,"+(\\.\\":12227,"44860":12228,"EEXIST":12229,"MurdererScene":12230,"Raises":12231,"UUID":12232,"policel":12233,"rackets":12234,"zilla":12235,"¼âĶ¤":12236,"çıŃçº§":12237,"éĽĨ":12238,"éľĢè¦ģ":12239,"Ġorthographic":12240,"(\"(\").":12241,"Ġflexible":12242,"Ġanalysis":12243,"assembly":12244,"ĠLEXERS":12245,"ReparseException":12246,"maintainer":12247,"Ġeagerly":12248,"INSERT":12249,"InstanceSegmentation":12250,"ĠInstances":12251,"ĠStandardScaler":12252,"runAndWait":12253,"Ġidentical":12254,"ĠKleineidam":12255,"Ġæ¨¡åŀĭ":12256,"ESCAPE":12257,"æĢ§åĪ«":12258,"å¯Ŀå®¤åı·":12259,"LeakyReLU":12260,"ĠQuotedString":12261,"ĠâĶľâĶĢâĶ¼âĶ¤":12262,"AddThirdParty":12263,"ĠPetKindEnum":12264,"ĠPetSexEnum":12265,"å¹´é¾Ħ":12266,"ĠRegionDockWidget":12267,"æĹłéľĢ":12268,"yourDiscordToken":12269,"ĠDelcareMurdererScene":12270,"AddThirdPartyCamera":12271,"\"',":12272,"\"'<":12273,"#]+":12274,"#(.*":12275,"#\\/":12276,"'[":12277,"'\"<":12278,"({}":12279,"*=\\":12280,"+\",":12281,"-'":12282,"/\"":12283,"/?#]*":12284,"1000000":12285,"400":12286,"58":12287,"540":12288,"61":12289,"650":12290,"700":12291,"91":12292,"901":12293,":'":12294,":],":12295,">.<":12296,">--":12297,">âĸĪâĸĪâĸĪâĸĪ":12298,">~~~~~~~~~~~~~~~<":12299,"?!":12300,"Ass":12301,"Also":12302,"Co":12303,"Cat":12304,"Cls":12305,"CloudRendering":12306,"DER":12307,"Domain":12308,"Estr":12309,"EST":12310,"ELEGRAM":12311,"Full":12312,"First":12313,"Folder":12314,"Git":12315,"Guild":12316,"GCOMPLETE":12317,"Ham":12318,"Hub":12319,"Hashes":12320,"JU":12321,"Look":12322,"Lower":12323,"May":12324,"MASK":12325,"NSP":12326,"OVER":12327,"Ori":12328,"Oper":12329,"One":12330,"Offset":12331,"Pts":12332,"PKG":12333,"QR":12334,"Sx":12335,"Sur":12336,"Sol":12337,"Sum":12338,"SPI":12339,"SVE":12340,"Screen":12341,"TG":12342,"Te":12343,"Typ":12344,"UAL":12345,"UDO":12346,"VED":12347,"WID":12348,"WARD":12349,"YOUTUBE":12350,"](":12351,"]])<":12352,"_(":12353,"ae":12354,"ais":12355,"audrate":12356,"bad":12357,"bind":12358,"bert":12359,"bcpp":12360,"coc":12361,"cmode":12362,"das":12363,"dtext":12364,"dang":12365,"eError":12366,"fundo":12367,"factory":12368,"gg":12369,"gError":12370,"hren":12371,"hMin":12372,"ially":12373,"lc":12374,"multi":12375,"nTree":12376,"null":12377,"nEnter":12378,"nUsers":12379,"ov":12380,"overy":12381,"ology":12382,"por":12383,"pub":12384,"pix":12385,"persist":12386,"paste":12387,"powers":12388,"rely":12389,"rstrip":12390,"rank":12391,"roman":12392,"todo":12393,"trees":12394,"ulabel":12395,"uant":12396,"wc":12397,"won":12398,"widget":12399,"wCam":12400,"xcp":12401,"xox":12402,"yu":12403,"zte":12404,"zbar":12405,"|<":12406,"|\".":12407,"}',":12408,"}'<":12409,"}|{":12410,"¤åı":12411,"¥ŀ":12412,"¦ĺ":12413,"§ĿìĪĺì":12414,"¨ê³":12415,"®æĶ¹":12416,"¯ä»¶":12417,"²æŃ¢":12418,"´Ī":12419,"´ìĦ":12420,"µæį":12421,"µç§°":12422,"µë³Ģ":12423,"¹åıĺ":12424,"»ä¼ĺ":12425,"Ðµ":12426,"Ð½":12427,"Ð¾":12428,"Ñĥ":12429,"å¿":12430,"å¡«åħħ":12431,"åİĨåı²":12432,"æĥ":12433,"æĩĴ":12434,"ç¡":12435,"çĨ":12436,"ç³»":12437,"ç¤º":12438,"ç¬¬":12439,"ç¬¦":12440,"ç¥ŀ":12441,"è¶":12442,"èĢ":12443,"èĥ":12444,"èĮ":12445,"éĶ":12446,"éļ":12447,"ìĶ":12448,"Ġli":12449,"Ġ########":12450,"Ġkg":12451,"Ġíķĺì":12452,"Ġéĺ":12453,"Ġ},<":12454,"Ġé¢Ħæµĭ":12455,"ĥåĽ":12456,"Ħľ":12457,"ħ¨ì":12458,"ĩçĶ¨":12459,"ĩè®¾":12460,"īçĨ":12461,"įä¸º":12462,"İŁ":12463,"ĲŃ":12464,"Ĳë³":12465,"ĳç»":12466,"ĵåīį":12467,"Ķ¹åıĺ":12468,"ľæ¨¡åŀĭ":12469,"ŀ¬":12470,"łë¬´":12471,"ormo":12472,"inel":12473,"incorrect":12474,")</":12475,"eras":12476,"erelease":12477,"ellipsis":12478,"ones":12479,"restructure":12480,"reitz":12481,"reversed":12482,"intosh":12483,"envi":12484,"enacao":12485,"prerelease":12486,"lox":12487,"Ġtb":12488,"Ġtalk":12489,"Ġwins":12490,"Ġwww":12491,"secret":12492,"\"\"]":12493,"(\"^":12494,"(\"{}":12495,"(\"############################":12496,"aly":12497,"alto":12498,"algorithm":12499,"alphas":12500,"Ġsquare":12501,"tifac":12502,"front":12503,"Ġcron":12504,"Ġcost":12505,"Ġcards":12506,"Ġcleand":12507,"Ġclose":12508,"Ġcuant":12509,"ardi":12510,"metrics":12511,"Ġpv":12512,"anced":12513,"analy":12514,"Ġfmode":12515,"Ġfov":12516,"Ġrect":12517,"Ġreversed":12518,"__',":12519,"__}({":12520,"urther":12521,"icu":12522,"Ġbz":12523,"Ġbast":12524,"Ġbrow":12525,"Ġbash":12526,"Ġbroug":12527,"Ġblaz":12528,"Ġbrackets":12529,"Ġbaudrate":12530,"Ġinf":12531,"Ġinser":12532,"Ġindependent":12533,"edQuery":12534,"Ġ\"*":12535,">#############################":12536,"oth":12537,"otating":12538,"ĠTile":12539,"ĠTitle":12540,"ĠTELEGRAM":12541,"ective":12542,"olves":12543,"Ġmal":12544,"Ġmid":12545,"Ġmas":12546,"Ġmts":12547,"Ġmapped":12548,"Ġmuch":12549,"##\")<":12550,"Ġ'#":12551,"Ġ').":12552,"Ġ([":12553,"additional":12554,"Ġrelevant":12555,"uptime":12556,"ipe":12557,"Ġforms":12558,"Ġtouch":12559,"Ġtodas":12560,"third":12561,"ĠCr":12562,"ĠCap":12563,"ĠCPython":12564,"ĠCloudRendering":12565,"ĠSY":12566,"ĠSecurity":12567,"ĠSince":12568,"ĠSHOW":12569,"ĠSAX":12570,"ished":12571,"isupper":12572,"endtime":12573,"endpoint":12574,"spread":12575,"Ġdr":12576,"Ġdynamic":12577,"ĠPe":12578,"ĠPets":12579,"aml":12580,"ids":12581,"ident":12582,"Ġvenc":12583,"acks":12584,"aber":12585,"ectors":12586,"Ġoften":12587,"().<":12588,"()[\"":12589,"('[\\":12590,"Ġthreshold":12591,"extended":12592,"Ġprinting":12593,"alling":12594,"ationName":12595,"istian":12596,"Ġ21":12597,"Realizar":12598,"Ġ[(\"":12599,"Ġ[('":12600,"provides":12601,"profundo":12602,"roaming":12603,"ĠDET":12604,"Ġnotation":12605,"iflags":12606,"pathfinder":12607,"ĠFOR":12608,"Ġ_)":12609,"listen":12610,"ĠOR":12611,"ĠOr":12612,"ĠOpen":12613,"ĠOptim":12614,"Ġhad":12615,"Ġhim":12616,"Ġhard":12617,"Ġhmac":12618,"Ġgetting":12619,"Ġgetuid":12620,"ĠgetTreeWalker":12621,"ĠgetFilename":12622,"Ġgetnext":12623,"appauthor":12624,"``,<":12625,"Ġyaml":12626,"Ġordered":12627,"Ġdebt":12628,"Ġdegre":12629,"Ġdebund":12630,"ĠMP":12631,"ĠMongo":12632,"ĠBACK":12633,"ĠBEL":12634,"ĠBody":12635,"ĠBond":12636,"Ġ{})<":12637,"setFilter":12638,"\"<{":12639,"Ġbyref":12640,"preferred":12641,"urlencoded":12642,"figure":12643,"Ġ:-":12644,"Ġstay":12645,"Ġstarmap":12646,"githubuser":12647,"osity":12648,"scatter":12649,"Ġess":12650,"Ġeas":12651,"Ġeste":12652,"Ġequivalent":12653,"assistants":12654,"ĠRAM":12655,"ĠRotating":12656,"Inside":12657,"inputstream":12658,"okes":12659,"ceptHandler":12660,"ĠEvent":12661,"ĠEmail":12662,"ĠElast":12663,"Ġwho":12664,"imes":12665,"Constraint":12666,"ĠRedis":12667,"ĠReporter":12668,"ĠRealizar":12669,"timeframe":12670,"Ġenormo":12671,"Ġpassing":12672,"Ġpykey":12673,"pyOpenSSL":12674,"ĠHIDE":12675,"keywords":12676,"REF":12677,"RET":12678,"ources":12679,"Ġjie":12680,"Ġshim":12681,"loadImage":12682,"iveInfo":12683,"lobal":12684,"ocr":12685,"Ġart":12686,"Ġartifac":12687,"Ġcantid":12688,"ĠWhether":12689,"moving":12690,"mozilla":12691,"appends":12692,"Ġcomplex":12693,"Ġcompliant":12694,"ichr":12695,"=\"([^":12696,"Ġtee":12697,"ĠPythons":12698,"LEVE":12699,"ResponseMismatch":12700,"ARGCOMPLETE":12701,"Ġurlencode":12702,"2020":12703,"Ġlos":12704,"ĠGiven":12705,"caches":12706,"DESK":12707,"STDOUT":12708,"addToolBar":12709,"Ġclassifiers":12710,"ording":12711,"Enh":12712,"MEDI":12713,"Ġalbum":12714,"Ġlogs":12715,"Ġlogin":12716,"processing":12717,"installation":12718,"Ġ45":12719,"Ġsolo":12720,"):)?":12721,"ticle":12722,"backimg":12723,"csInfo":12724,"ĠDistutilsAr":12725,"ĠDistutilsModule":12726,"ä¸ĵ":12727,"Ġsubpackages":12728,"terno":12729,"\")))<":12730,"Ġchecksum":12731,"ĠPySo":12732,"Ġwrites":12733,"entral":12734,"Parsing":12735,"Chat":12736,"supply":12737,"Ġnews":12738,"Ġcachecontrol":12739,"ĠJoin":12740,"ĠJob":12741,"djangochat":12742,"'))":12743,"Ġresultado":12744,"Ġbacktrack":12745,"324":12746,"ĠBaseHTTPError":12747,"cessed":12748,"fernet":12749,"\"./":12750,"åıĳ":12751,"These":12752,"çļĦåĲį":12753,"çļĦåĨħå®¹":12754,"ĠìķĮ":12755,"Ġì§ĿìĪĺì":12756,"Ġattrgetter":12757,"docinfo":12758,"documents":12759,"Ġ\"\"),<":12760,"FILES":12761,"RequestUnsupported":12762,"finditer":12763,"TextIO":12764,"jsonæĸĩä»¶":12765,"Ġendtime":12766,"BaseVersion":12767,"BaseDistribution":12768,"ĠExtraData":12769,"ĠExceptHandler":12770,"authorization":12771,"\"][\"":12772,"åĪ¤":12773,"ĠHTTPConnection":12774,"Ġmaintenance":12775,"Ġchatusername":12776,"Commands":12777,"crets":12778,"Ġ660":12779,"ĠtokenTypes":12780,"Ġconvertir":12781,"Ġqrcode":12782,"Ġå¾":12783,"Ġå¦Ĥ":12784,"ĠKg":12785,"ĠURLSchemeUnknown":12786,"ĠFilepath":12787,"ĠFileProxy":12788,"period":12789,"Ġprefixes":12790,"GetBook":12791,"ĠæĲŃ":12792,"ĠæĶ¹åıĺ":12793,"Ġhttpx":12794,"ĠThreshold":12795,"resses":12796,"(*[<":12797,"playing":12798,"myData":12799,"Ġimc":12800,"Ġimbox":12801,"ĠRequestResponseMismatch":12802,"Ġ~~~~~~~~~~~~~~~~~~~~~~~~~~~~<":12803,"ĠURLs":12804,"Ġwinapi":12805,"...\"<":12806,"ParserElement":12807,"Ġ8750":12808,"Ġ128":12809,"blanchard":12810,"MAC":12811,"Ġindice":12812,"tokenize":12813,"Ġevents":12814,"rowed":12815,"íķ´ìĦ":12816,"Ġimpossible":12817,"Ġimplicit":12818,"1001":12819,"ĠDeprecated":12820,"TokenTypes":12821,"ĠNewConnectionError":12822,"ĠChannel":12823,"empates":12824,"å¤ĦçĲĨ":12825,"Ġthereof":12826,"ĠtagTokenTypes":12827,"partner":12828,"ĠConfigParser":12829,"ancho":12830,"ĠMappingProxy":12831,"Ġunpacking":12832,"Special":12833,"tuples":12834,"detection":12835,"Ġdisk":12836,"2083":12837,"Ġfiltered":12838,"Ġcriteria":12839,"äº¤åı":12840,"Ġrespons":12841,"]+\"":12842,"Ġhighlighted":12843,"Ġselect":12844,"Ġselection":12845,"ä¸ºr":12846,"ä¸ºå¼Ģå§ĭ":12847,"ĠCONTACT":12848,"Ġ97":12849,"ĠIDNABidiError":12850,"è½¯ä»¶":12851,"Ġarchives":12852,"Ġarchitecture":12853,"TRIP":12854,"ìłģ":12855,"Ġauthor":12856,"Functions":12857,"Violation":12858,"ĠGetBook":12859,"è¯»":12860,"virtual":12861,"macos":12862,"~~~~~~~~~~~~~<":12863,"MessageForward":12864,"¯åģ":12865,"æĺµç§°":12866,"Ġproperty":12867,"ĠWheelDistribution":12868,"ä¸Ģæķ°åŃĹ":12869,"æĴ¤":12870,"ĠíĽ":12871,"ĠíĻĢ":12872,"ä¿®æĶ¹":12873,"ĠParams":12874,"Ġoperaciones":12875,"quote":12876,"Ġoffice":12877,"Apply":12878,"ìķĦì":12879,"ĠâĸĪâĸĪâĸĪâĸĪ":12880,"structs":12881,"ĠFormatError":12882,"ĠĠĠĠĠĠĠĠĠĠĠĠĠĠĠĠĠĠĠĠĠĠĠĠĠ":12883,"Ġcharset":12884,"celery":12885,"éĩį":12886,"éĩĩçĶ¨":12887,"ç½ĳç»":12888,"Ġstandards":12889,"IPv":12890,"tokdict":12891,"ĠCompare":12892,"ĠCompute":12893,"ĠContact":12894,"ĠClassifier":12895,"ĠClassVar":12896,"ĠClassification":12897,"78939":12898,"variables":12899,"å¯»ä¼ĺ":12900,"VIRT":12901,"Ġcelsius":12902,"Ġcapabi":12903,"ĠREAD":12904,"dotenv":12905,"Ġ----------------------------------------":12906,"paceCharacters":12907,"å½ĵåīį":12908,"Ġ\"{:,":12909,"([^?#]*":12910,"±ĤåĪ":12911,"REQUIRED":12912,"ĠtemperaturaUs":12913,"Ġ16384":12914,"Ġeasyocr":12915,"Regalame":12916,"}:{":12917,"ĠDecode":12918,"Suppress":12919,"Supports":12920,"Ġautoreset":12921,"operationName":12922,"changed":12923,"ĠRichHandler":12924,"ĠRawTokenFormatter":12925,"Ġescriba":12926,"#!.*":12927,"kerCat":12928,"Ħìŀ¬":12929,"Ġordenacao":12930,"Ġbehaviour":12931,"costo":12932,"usersdb":12933,"Hello":12934,"Helper":12935,"ä¸įåıĺ":12936,"ä¸įåĬłè½½":12937,"OfData":12938,"(':')<":12939,"Ġconstructors":12940,"Ġgnb":12941,"Creating":12942,"Produ":12943,"Ġinvolves":12944,"optimizer":12945,"serveElements":12946,"å®ļä¹ī":12947,"åĪĨæ¯":12948,"PreserveElements":12949,"Ġaddressing":12950,"FILESIZE":12951,"åŃĹç¬¦":12952,"3002":12953,"finished":12954,"ê²½":12955,"SETDESK":12956,"ĠTimeouts":12957,"Ġpages":12958,"Ġ\"/\"<":12959,"Ġshorten":12960,"OTPTransport":12961,"æ¨¡åŀĭåĴĮ":12962,"Modules":12963,"PackageFinder":12964,"ĠChecks":12965,"('-',":12966,"monospace":12967,"Ġë°ĶìĿ´íĬ¸":12968,"|~|--|~|--<":12969,"SystemParametersInfo":12970,"Upload":12971,"WRONG":12972,"WRONLY":12973,"tarb":12974,"Ġdecision":12975,"Ġdeclared":12976,"Ġprimer":12977,"Ġoverrides":12978,"RangeRequestUnsupported":12979,"Ġcorpor":12980,"ĠSupport":12981,"ĠSupported":12982,"Ġpreprocessing":12983,"monthly":12984,"TempDirectory":12985,"blocked":12986,"gremio":12987,"Ġreprodu":12988,"ĠSubject":12989,"789445":12990,"æŀ¶":12991,"ĠPOINTER":12992,"ARED":12993,"WinDLL":12994,"kenneth":12995,"Ġpatching":12996,"Ġrealpath":12997,"###\")<":12998,"Ġlying":12999,"ĠHTTPSConnectionPool":13000,"LoadCoin":13001,"Ġsentinel":13002,"ĠElementTreeComment":13003,"ucion":13004,"Ġcolumns":13005,"ĠAdminActual":13006,"å»ºåħ¨":13007,"tmpdir":13008,"entioned":13009,"Ġpersona":13010,"ĠURIs":13011,"åĲİåĪĨæ¯":13012,"Bytes":13013,"}%\",":13014,"Ġdescrrip":13015,"JSONDecodeError":13016,"ĠMIMEImage":13017,"ĠDirectories":13018,"namedtuple":13019,"Ġconvolution":13020,"Ġ~~~~~~~~~~~~~~~~~~~~~~~~<":13021,"BLOCKSIZE":13022,"SHARED":13023,"ĠLabeler":13024,"ĠUtilities":13025,"Ġ``/``,":13026,"è½¬æį¢":13027,"PipeError":13028,"ĠHeader":13029,"ĠHeimes":13030,"surlist":13031,"volume":13032,"Ġíķ©ê²©":13033,"atively":13034,"ĠMarkupError":13035,"ĠBlanchard":13036,"Ġentire":13037,"Ġentirely":13038,"936541":13039,"EscapeSubMethod":13040,"ĠAssertionError":13041,"Ġblueprint":13042,"ç¨ĭåĻªå£°":13043,"ĠåĽ¾å±ĤåĪ":13044,"#]*))?":13045,"fsencode":13046,"(\"###################################\")<":13047,"Ġconflicts":13048,"ĠBorrowed":13049,"ĠInterface":13050,"ĠappendChild":13051,"00000000000000000000":13052,"000000000000000000000000000000000000":13053,"Ġèİ·åıĸæĸĩä»¶":13054,"Ġquieras":13055,"ĠNullFormatter":13056,"ĠNullHandler":13057,"ĠCallbackQuery":13058,"ĠPrint":13059,"formedResponse":13060,"ĠISOTPTransport":13061,"ĠDOCTYPE":13062,"ĠJSONDecodeError":13063,"åĨĻæ¨¡å¼ı":13064,"Ġinstalls":13065,"ĠBadZipFile":13066,"Processing":13067,"ĠVerticalOverflowMethod":13068,"ĠìłķìĪĺë¥¼":13069,"ç¼ĸè¾ĳ":13070,"Ġowed":13071,"ĠActive":13072,"ĠIdentifier":13073,"README":13074,"Ġcomponents":13075,"ĠìĦł":13076,"ROOT":13077,"æ¯ıä¸Ģ":13078,"æ¯ıä¸Ģä¸ª":13079,"çªĹåı£çļĦ":13080,"('<'):":13081,"çĽ´æİ¥":13082,"referenceMatrix":13083,"Ġsimplify":13084,"ĠMinutes":13085,"æĴŃæĶ¾å¤´ä¸ºå¼Ģå§ĭ":13086,"æĴŃæĶ¾å¤´ä¸įåıĺ":13087,"åģľæĴŃæĶ¾":13088,"åģľæŃ¢":13089,"'^#!.*":13090,"Couldn":13091,"íĺĦìŀ¬":13092,"ĉĉĉ":13093,"Ġvisit":13094,"ĠOutOfData":13095,"ĠMalformedResponse":13096,"imited":13097,"ĠWebClient":13098,"ë¦¬ì¦ĺ":13099,"Only":13100,"Ġeggs":13101,"Ġsymlinks":13102,"ĠLiveRender":13103,"Ġconnected":13104,"Ġepochs":13105,"ìłķìĪĺ":13106,"BINARY":13107,"builtin":13108,"casos":13109,"Ġigual":13110,"ĠFedDir":13111,"ĠStackError":13112,"Ġìķ±":13113,"ĠInvalidCodepointContext":13114,"Ġminutosy":13115,"|~|--|~|--|~|--|~|--|~|--|~|--<":13116,"936403":13117,"ê·¼ë¬´ìĭľê°":13118,"(\"#####################################\")<":13119,"(\"######################################\")<":13120,"ĠTRUECOLOR":13121,"âķĲâķĹ":13122,"News":13123,"ĠRenderableWith":13124,"Ġcombined":13125,"Monkey":13126,"¶Īíķ©ê²©":13127,"æĿ¥":13128,"Ġreplacing":13129,"Ġlonger":13130,"Ġarrive":13131,"ĠZipInfo":13132,"ç»ĵæŀľ":13133,"ĠChristian":13134,"ucturas":13135,"Ġå®ļä¹īä¸º":13136,".]*([":13137,"PACKAGE":13138,"].*)?$":13139,"mmdetection":13140,"è°ĥçĶ¨":13141,"ëħĦ":13142,"ĠìĿ´ë¦Ħ":13143,"typedb":13144,"coveryScanner":13145,"Ġëĭµë³Ģ":13146,"PyPIRCCommand":13147,"ĠíĮĲë³":13148,"Ġmanipulate":13149,"Ġë°ĽìķĦì":13150,"Ġestimate":13151,"RESPONSES":13152,"Ġë³ĢíĻĺíķ´ìĦ":13153,"vscode":13154,"yolox":13155,"æ±Ĥå¯¼":13156,"æ¡Ĩä¿¡æģ¯":13157,"sectors":13158,"ĠMock":13159,"äºĮæķ°åŃĹ":13160,"ĠâĸĪâĸĪâĸĪâĸĪâĸĪâĸĪâĸĪâĸĪ":13161,"ê³łë¦¬ì¦ĺ":13162,"ĠíĻĺìľ¨ê³":13163,"ĠìĤ¬ìļ©ìŀĲìĿĺ":13164,"ĠíĶĦë¡ľê·¸ëŀ¨":13165,">--------------------<":13166,"?([^#]*))?":13167,"NORMAL":13168,"market":13169,"numpy":13170,"arriage":13171,"Ġpurge":13172,"ĠAPPEND":13173,"('&'):":13174,"ĠDISK":13175,"ĠBufferFull":13176,"ĠBrokenPipeError":13177,"ç»ıç½ĳç»":13178,"åĽĽè¾¹":13179,"capitalize":13180,"ĠCompatJSONDecodeError":13181,"789593":13182,"Ġè®Ńç»ĥæ¨¡åŀĭåĴĮ":13183,"Ġlyrical":13184,"éĹŃjson":13185,"æį¢æĪĲåĪĨå¸ĥåĪĹ":13186,"Ġåħ³éĹŃjson":13187,"ĠTfidfVectorizer":13188,"ĠAdaBoostClassifier":13189,"Wraps":13190,"éĢļè¿ĩ":13191,"çŁ©å½¢æ¡Ĩä¿¡æģ¯":13192,"ĠSpecifically":13193,"something":13194,"reporters":13195,"ĠCatching":13196,"ĠPicHandle":13197,"ĠRegressionModel":13198,"è¿ŀæİ¥ç¥ŀ":13199,"#\\/@":13200,"/?#]*))?":13201,">--|~|--|~|--|~|--|~|--|~|--|~|--<":13202,"AssertionError":13203,"DomainBasicAuth":13204,"Estructuras":13205,"HamkerCat":13206,"LookUp":13207,"NSPs":13208,"Operation":13209,"QRCode":13210,"Solucion":13211,"SVEM":13212,"WIDTH":13213,"coco":13214,"danger":13215,"hrenheit":13216,"pubDate":13217,"persistedQuery":13218,"widgets":13219,"xoxb":13220,"zteil":13221,"²æŃ¢æ±Ĥå¯¼":13222,"´Īê³¼":13223,"èĥ½":13224,"èĮĥåĽ":13225,"ìĶ¨":13226,"Ġíķĺìħ¨ì":13227,"Ġéĺ²æŃ¢æ±Ĥå¯¼":13228,"īçĨµæį":13229,"restructuredtext":13230,"envio":13231,"(\"############################\")<":13232,"Ġcrontab":13233,"Ġcleandoc":13234,"Ġcuantas":13235,"ardised":13236,"Ġbastardised":13237,"Ġbrowsers":13238,"Ġbrought":13239,"Ġblazing":13240,"Ġinserted":13241,"ĠTileName":13242,"Ġmasa":13243,"ĠDETECT":13244,"ĠgetFilenameInside":13245,"Ġdegrees":13246,"githubusercontent":13247,"ĠRotatingFileHandler":13248,"ĠEmailStr":13249,"ĠElasticsearch":13250,"ĠRedisCache":13251,"Ġenormous":13252,"Ġpykeyboard":13253,"Ġjieba":13254,"Ġartifacts":13255,"Ġcantidad":13256,"LEVELS":13257,"ĠDistutilsArgError":13258,"ĠDistutilsModuleError":13259,"ĠPySocks":13260,"ParsingError":13261,"çļĦåĲįåŃĹ":13262,"ĠìķĮê³łë¦¬ì¦ĺ":13263,"Ġì§ĿìĪĺìĻĢ":13264,"Ġå¦Ĥæŀľ":13265,"ĠæĲŃå»ºåħ¨":13266,"ĠMappingProxyType":13267,"äº¤åıīçĨµæį":13268,"MessageForwarding":13269,"éĩĩçĶ¨æĩĴ":13270,"VIRTUAL":13271,"Ġcapabilities":13272,"åŃĹç¬¦ä¸²":13273,"SETDESKWALLPAPER":13274,"Ġë°ĶìĿ´íĬ¸ë¡ľ":13275,"Ġcorporal":13276,"kennethreitz":13277,"LoadCoins":13278,"ĠElementTreeCommentType":13279,"åĲİåĪĨæ¯įä¸º":13280,"Ġdescrription":13281,"ê·¼ë¬´ìĭľê°Ħ":13282,"].*)?$')<":13283,"ĠíĮĲë³Ħ":13284,"Ġë°ĽìķĦìĦľ":13285,"Ġë³ĢíĻĺíķ´ìĦľ":13286,"ĠíĻĺìľ¨ê³ĦìĤ°":13287,"ç»ıç½ĳç»ľæ¨¡åŀĭ":13288,"Ġè®Ńç»ĥæ¨¡åŀĭåĴĮå¯»ä¼ĺ":13289,"è¿ŀæİ¥ç¥ŀç»ıç½ĳç»ľæ¨¡åŀĭ":13290,"èĮĥåĽ´":13291,"Ġíķĺìħ¨ìĬµëĭĪëĭ¤":13292,"Ġéĺ²æŃ¢æ±Ĥå¯¼åĲİåĪĨæ¯įä¸º":13293,"ĠgetFilenameInsideFolder":13294,"ĠæĲŃå»ºåħ¨è¿ŀæİ¥ç¥ŀç»ıç½ĳç»ľæ¨¡åŀĭ":13295,"\"\\\\":13296,"\"``.<":13297,"$\\":13298,"'``":13299,"'.\"\"\"<":13300,")}<":13301,"*/":13302,"*([":13303,",),":13304,".%":13305,".'":13306,".[":13307,"/><":13308,"13":13309,"420":13310,"515":13311,"73":13312,"84":13313,":]))<":13314,"=[<":13315,">'<":13316,"Ali":13317,"BD":13318,"Car":13319,"DR":13320,"DT":13321,"DX":13322,"ECU":13323,"FMT":13324,"How":13325,"Json":13326,"KO":13327,"LF":13328,"LVec":13329,"MIS":13330,"Mira":13331,"MATCH":13332,"NG":13333,"OM":13334,"Pass":13335,"QAction":13336,"Sk":13337,"Save":13338,"SpaceCharacters":13339,"Target":13340,"Task":13341,"TALL":13342,"TCP":13343,"Terminal":13344,"Taiyi":13345,"Use":13346,"UNA":13347,"VEL":13348,"Yes":13349,"YAN":13350,"]['":13351,"_)<":13352,"alog":13353,"br":13354,"ble":13355,"border":13356,"duration":13357,"eived":13358,"final":13359,"gbo":13360,"imat":13361,"mer":13362,"mul":13363,"microsoft":13364,"muted":13365,"normalized":13366,"ptime":13367,"rab":13368,"sn":13369,"uel":13370,"vcv":13371,"wt":13372,"}\":":13373,"©º":13374,"Ã©":13375,"Ä±":13376,"âĨ":13377,"æļĤ":13378,"çĤ":13379,"çĻ":13380,"çŃ":13381,"ç©º":13382,"Ġlight":13383,"ĠçĶ¨":13384,"ĠçĽ®åīį":13385,"Ģåĩº":13386,"īä¸ª":13387,"ĬĬ":13388,"ıæĸ¹":13389,"Ŀâķ":13390,"inherit":13391,"ongs":13392,"repo":13393,"mpl":13394,"storage":13395,"eno":13396,"Ġwish":13397,"learning":13398,"legacy":13399,"Ġalign":13400,"(\".\")<":13401,"(\"âĨ":13402,"Ġsig":13403,"Ġscheduler":13404,"tively":13405,"Ġcircu":13406,"artist":13407,"Ġpor":13408,"Ġput":13409,"Ġfm":13410,"Ġface":13411,"Ġfew":13412,"Ġfair":13413,"Ġreinit":13414,"Ġreply":13415,"Ġremoving":13416,"sso":13417,"account":13418,"Ġnic":13419,"Ġnec":13420,"Ġboot":13421,"Ġincre":13422,"lag":13423,"edded":13424,"Ġ\"*\",":13425,"lim":13426,"lies":13427,"ĠTotal":13428,"fill":13429,"Ġmut":13430,"Ġ'',":13431,"Ġ'',<":13432,"ĠNe":13433,"Ġ#:":13434,"ĠCYAN":13435,"ĠSample":13436,"ĠSTR":13437,"ĠSpotify":13438,"ĠSingleByteCharSet":13439,"isabs":13440,"ĠPos":13441,"ĠPING":13442,"ĠPost":13443,"ĠPATCH":13444,"ĠPKG":13445,"ĠAD":13446,"ĠALL":13447,"ĠLook":13448,"ĠLocal":13449,"ĠLik":13450,"opef":13451,"Ġdistrib":13452,"Ġ102":13453,"('/":13454,"('--":13455,"('')<":13456,"comment":13457,"Ġ[^":13458,"prober":13459,"rove":13460,"iling":13461,"ĠDiscord":13462,"Ġfiletype":13463,"ibs":13464,"Ġexpi":13465,"ĠgetNode":13466,"apple":13467,"apply":13468,"ĠUsing":13469,"ĠUSER":13470,"libs":13471,"Ġyiel":13472,"uren":13473,"ĠMode":13474,"ĠMay":13475,"valScene":13476,"interactions":13477,"sci":13478,"ĠRelease":13479,"ĠRED":13480,"Invoke":13481,"fov":13482,"rightx":13483,"Connect":13484,"ĠRepl":13485,"angle":13486,"timegm":13487,"ĠUnlikely":13488,"Ġpasswords":13489,"Ġunlike":13490,"Ġunchanged":13491,"plugins":13492,"compression":13493,"Ġ35":13494,"Ġ39":13495,"Ġpytest":13496,"ĠHTT":13497,"RESS":13498,"Ġopinion":13499,"TypeError":13500,"PException":13501,"readlines":13502,"ĠAnd":13503,"Ġcompose":13504,"Ġcompared":13505,"Ġtimeit":13506,"ffic":13507,"LEAV":13508,"LEVEL":13509,"crop":13510,"parseFragment":13511,"='%(":13512,"ĠGIT":13513,"ĠGREEN":13514,"Ġnumeros":13515,"Enti":13516,"writes":13517,"ĠSession":13518,"laylist":13519,"Ġusually":13520,"sterior":13521,"------------------------":13522,"Ġallfiles":13523,"backed":13524,"ĠDistutilsTemp":13525,"ä¸īä¸ª":13526,"Ġsubc":13527,"Ġsubtle":13528,"Ġsubdirect":13529,"\")):<":13530,"argspec":13531,"DOTALL":13532,"note":13533,"ĠJython":13534,"FileSource":13535,"LTER":13536,"LTERS":13537,"Ġ['*.":13538,"Ġbackslash":13539,"0005":13540,"pythonlib":13541,"functools":13542,"Ġaddresses":13543,"EPS":13544,"([<":13545,"Theta":13546,"mainwindow":13547,"Ġscop":13548,"TreeStructure":13549,"Ġ\"\").":13550,"FILTER":13551,"prefixed":13552,"Ġmodeline":13553,"Ġident":13554,"Ġcolored":13555,"rivalScene":13556,"Ġminimal":13557,"ĠArticle":13558,"ĠArrivalScene":13559,"weight":13560,"estimat":13561,"CacheControl":13562,"mbedded":13563,"ĠEnter":13564,"ä»£":13565,"ä»»":13566,"ĠQr":13567,"ĠQName":13568,"æĸ¯":13569,"æĸŃ":13570,"ADDR":13571,"Ġ105":13572,"Getting":13573,"Ġdocs":13574,"ForSocket":13575,"lateError":13576,"deleted":13577,"ĠYoutube":13578,"ĠYELLOW":13579,"ĠYOUTUBE":13580,"filterwarnings":13581,"Ġdepending":13582,"ToWait":13583,"barcode":13584,"Ġskipped":13585,"CHUNK":13586,"Ġlocated":13587,"PythonLexer":13588,"rows":13589,"wraped":13590,"admins":13591,"ĠDevelopment":13592,"ĠCharacters":13593,"Ġ'/'":13594,"ISREG":13595,"decorator":13596,"Ġexecuting":13597,"äºĨ":13598,"æľº":13599,"æľĢ":13600,"RAW":13601,"Ġhighlighter":13602,"php":13603,"phone":13604,"PoolManager":13605,"ĠTry":13606,"TestLoader":13607,"ĠNoActive":13608,"ĠLoggerHandler":13609,"Vertical":13610,"generic":13611,"æĪĸ":13612,"Checking":13613,"locations":13614,"è®¾ç½®":13615,"è¿ĺ":13616,"è¿ĶåĽŀ":13617,"Ġtracker":13618,"SOCK":13619,"channelplay":13620,"éĢĢåĩº":13621,"leftx":13622,"Regression":13623,"RegOpenKeyEx":13624,"RegEnumKey":13625,"RegEnumValue":13626,"Ġequality":13627,"Ġ\"-\",":13628,"ĠFILTERS":13629,"usersite":13630,"tasks":13631,"Ġconstructing":13632,"Ġexiting":13633,"Ġindentation":13634,"Ġoptimization":13635,"Positive":13636,"bitwise":13637,"Ġmonkey":13638,"æģ¢å¤į":13639,"åį¡":13640,"åįıæĸ¹":13641,"Ġdownloads":13642,"ĠThreads":13643,"ĠTesting":13644,"ĠAND":13645,"ĠLogistic":13646,"MyMenuBar":13647,"MINS":13648,"mkpath":13649,"Ġdeclare":13650,"ĠMAGENTA":13651,"Received":13652,"uppercase":13653,"(\"-\")<":13654,"(\"-\",":13655,"Daniel":13656,"(\"/\").":13657,"Ġedited":13658,"Ġperformance":13659,"ĠPreprocessorMira":13660,"ĠPreprocessorTaiyi":13661,"ĠPreprocessorTheta":13662,"arsall":13663,"Ġsteps":13664,"è½¬ç§»":13665,"recognition":13666,"PUD":13667,"fullargspec":13668,"ĠVideo":13669,"Ġuppercase":13670,"Ġmaintainer":13671,"Ġ-------------------------------------------------<":13672,"Ġpadx":13673,"platlibdir":13674,"cleanmode":13675,"ĠAssistant":13676,"Ġè¿ĩ":13677,"Ġverifying":13678,"Ġfaster":13679,"Ġdirective":13680,"Thread":13681,"ĠNullHighlighter":13682,"ĠInitialise":13683,"ĠHashMissing":13684,"777":13685,"GroupCall":13686,"éĥ½":13687,"Ġlimited":13688,"forcibly":13689,"ĠVerticalFedXGBoostTree":13690,")+$\",":13691,"protocol":13692,"Ġlockfile":13693,"freeGPIOListenerPins":13694,"freeGPIOSenderPins":13695,"ĠMinimum":13696,"relpath":13697,"Ġexactly":13698,")$\"<":13699,">'''":13700,">''',":13701,"ãĢģ":13702,"ãĢĤ":13703,"Ĭ½æł·":13704,"Ġdotenv":13705,"ĠVariables":13706,"Ġtimestamps":13707,"ĠDiagnosticSessionControlRequest":13708,"\"(\\.":13709,"çķĮéĿ¢":13710,"tileParam":13711,"Ġanswer":13712,"charsetprober":13713,"queriesdb":13714,"Pickle":13715,"Ġpolicy":13716,"Ġ'*'":13717,"æĽ´æĸ°":13718,"ĠBLACK":13719,"ĠBLUE":13720,"ĠmyDataList":13721,"FEREN":13722,"rupt":13723,"Ġhigher":13724,"Ġpromptly":13725,"ĠInputMediaPhoto":13726,"Ġposterior":13727,"ĠLookupError":13728,"VideoCapture":13729,"(.*?)\\":13730,"Ġmultipath":13731,"ĠLaTe":13732,"ĠQuantileParam":13733,"sbcharsetprober":13734,"Ġpiece":13735,"ĠBUILD":13736,"ĠREQUIREMENT":13737,"+-]?\\":13738,"WayToWait":13739,"ĠOverride":13740,"Ġcoordinates":13741,"å·®çŁ©éĺµ":13742,"schedules":13743,"pastebin":13744,"åĪ¤æĸŃ":13745,"$\\{":13746,"Alias":13747,"MISMATCH":13748,"Password":13749,"gboost":13750,"vcvarsall":13751,"çĤ¹":13752,"Ġcircuit":13753,"ĠSingleByteCharSetModel":13754,"ĠPositive":13755,"ĠLikely":13756,"opefully":13757,"Ġexpire":13758,"ĠgetNodeDetails":13759,"Ġyielded":13760,"ĠHTTPException":13761,"LEAVING":13762,"ĠDistutilsTemplateError":13763,"Ġsubdirectories":13764,"ForSocketError":13765,"ĠNoActiveGroupCall":13766,"åįıæĸ¹å·®çŁ©éĺµ":13767,"ĠLaTeX":13768,"WayToWaitForSocketError":13769,"!\".":13770,"\"><":13771,"\"})<":13772,"\"},":13773,"\"/><":13774,"'}":13775,"'\")<":13776,"'\")":13777,")#":13778,")),":13779,")],<":13780,")(.*":13781,"*\")<":13782,"+.":13783,"+')<":13784,"-{}":13785,"-{}\".":13786,".',":13787,"/{}":13788,"/\\/":13789,"032":13790,"0600":13791,"110":13792,"130":13793,"134":13794,"30000":13795,"450":13796,"57":13797,"7234":13798,"81":13799,"96":13800,"=!":13801,"=([":13802,">%":13803,">')<":13804,"?>":13805,"?\"\"\"<":13806,"AE":13807,"Aur":13808,"AIN":13809,"AAR":13810,"ADS":13811,"Alt":13812,"Api":13813,"AMA":13814,"ACE":13815,"BZ":13816,"Boolean":13817,"BDIR":13818,"Buffer":13819,"Cl":13820,"Col":13821,"Cas":13822,"Closed":13823,"CSS":13824,"Coffee":13825,"Calcul":13826,"Cuda":13827,"Der":13828,"Dest":13829,"Deni":13830,"DWORD":13831,"EG":13832,"ESE":13833,"Easy":13834,"ETreeBuilder":13835,"FU":13836,"FET":13837,"FRO":13838,"FUNC":13839,"Gre":13840,"Got":13841,"Gear":13842,"HMin":13843,"HAAR":13844,"Items":13845,"Joy":13846,"Jacks":13847,"KT":13848,"KLE":13849,"KET":13850,"KNeighbors":13851,"Li":13852,"Live":13853,"Lever":13854,"LVAR":13855,"LLEGAL":13856,"Largest":13857,"LITER":13858,"MM":13859,"Mag":13860,"MOR":13861,"MAT":13862,"Multipart":13863,"Mapped":13864,"MCOLOR":13865,"Move":13866,"MNIST":13867,"NONE":13868,"Network":13869,"NFD":13870,"ORE":13871,"Other":13872,"OUND":13873,"OWNER":13874,"Pu":13875,"PON":13876,"Park":13877,"Popen":13878,"Parent":13879,"PART":13880,"Pair":13881,"Pending":13882,"PLINE":13883,"Punctuation":13884,"Plugin":13885,"Qå¢ŀå¤§":13886,"RIC":13887,"RST":13888,"RVec":13889,"Rå¢ŀå¤§":13890,"SX":13891,"Sus":13892,"SHE":13893,"Sep":13894,"Sign":13895,"SOF":13896,"SMin":13897,"SOL":13898,"Syntax":13899,"Suffix":13900,"SInterviewScene":13901,"SAV":13902,"Switch":13903,"Tp":13904,"TIC":13905,"TAR":13906,"Talk":13907,"There":13908,"TWARE":13909,"Tokens":13910,"UPD":13911,"VC":13912,"VT":13913,"Vis":13914,"VIN":13915,"VMin":13916,"Values":13917,"Visual":13918,"WARN":13919,"Whitespace":13920,"[%":13921,"\\.":13922,"\\))":13923,"]\"\"\"<":13924,"]\"<":13925,"]],<":13926,"^(?":13927,"_))<":13928,"_][":13929,"`)":13930,"`),":13931,"`).<":13932,"aug":13933,"aexec":13934,"amental":13935,"bing":13936,"big":13937,"bgr":13938,"cH":13939,"cle":13940,"cred":13941,"cascade":13942,"cMag":13943,"dd":13944,"dct":13945,"dkey":13946,"dash":13947,"domain":13948,"dDiagram":13949,"eof":13950,"effects":13951,"ftp":13952,"fely":13953,"factor":13954,"fjmar":13955,"fmodern":13956,"gFormatter":13957,"guide":13958,"hy":13959,"hip":13960,"hard":13961,"hits":13962,"href":13963,"holder":13964,"kB":13965,"lr":13966,"licate":13967,"lxml":13968,"lats":13969,"men":13970,"mad":13971,"mgrid":13972,"mcc":13973,"mismatch":13974,"nb":13975,"nn":13976,"nod":13977,"nadata":13978,"pm":13979,"pel":13980,"pol":13981,"pun":13982,"palette":13983,"plain":13984,"ral":13985,"rag":13986,"rome":13987,"siz":13988,"sck":13989,"sheaders":13990,"sktop":13991,"tWM":13992,"tlm":13993,"tecode":13994,"uing":13995,"udi":13996,"ucl":13997,"vor":13998,"vin":13999,"voked":14000,"vaccines":14001,"vgFormatter":14002,"world":14003,"xlabel":14004,"xFF":14005,"ycode":14006,"yield":14007,"ylabel":14008,"ygwin":14009,"zb":14010,"zh":14011,"zmat":14012,"zero":14013,"|(?:\\":14014,"}-":14015,"}}<":14016,"}>\".":14017,"}!\".":14018,"«ãģ":14019,"¶æĸ¯":14020,"¹çĽ®":14021,"¹å¾":14022,"º«":14023,"¾ĵ":14024,"Ã§":14025,"ÄŁ":14026,"æĦ":14027,"æħ":14028,"æ¶Ī":14029,"æĬĬ":14030,"çľ":14031,"èģ":14032,"èº«":14033,"éĻ":14034,"Ġ####":14035,"Ġum":14036,"Ġ))<":14037,"Ġä¸":14038,"Ġ])":14039,"Ġ000":14040,"Ġenter":14041,"Ġlive":14042,"ĠåıĤæķ°":14043,"Ġquality":14044,"Ġ-------<":14045,"Ġä¼ĺåĮĸåĻ¨":14046,"Ġ####################":14047,"ĠENABLE":14048,"Ħæ":14049,"ĭæľº":14050,"įŁå¤±åĩ½æķ°":14051,"ıæĺ":14052,"ĶâķĲâķĹ":14053,"Ŀı":14054,"Ŀåı":14055,"łçİĩ":14056,"orque":14057,"orScene":14058,"inate":14059,"inser":14060,"inations":14061,"inRange":14062,"including":14063,"elen":14064,"elÃŃ":14065,"elhos":14066,"onoff":14067,"onna":14068,"reason":14069,"ints":14070,"orthand":14071,"atos":14072,"atly":14073,"atRequest":14074,"prod":14075,"lope":14076,"Ġtile":14077,"Ġtimer":14078,"oment":14079,"Ġwget":14080,"Ġwks":14081,"Ġwikipedia":14082,"sess":14083,"lector":14084,"printable":14085,"Ġawn":14086,"Ġaabboxes":14087,"\"\",":14088,
[...]
